#version: 0.2 - Trained by `huggingface/tokenizers`
e n
t e
o f
en d
x t
te xt
end of
< |
| >
text |>
endof text|>
<| endoftext|>
다 .
▁ 이
▁ <|endoftext|>
▁ 있
▁ 1
0 0
으 로
에 서
▁ 2
▁ 대
▁ 사
▁ 그
▁ 수
▁ 지
▁ 한
▁ 아
다. <|endoftext|>
▁ 전
▁ 가
▁ 하
▁ 것
▁ 시
▁ 기
▁ 보
▁ 정
했 다.
▁ 자
▁ 다
▁ "
하 는
▁ 나
0 1
▁ 등
▁ 경
▁ 일
▁ 제
▁ '
▁ 주
▁ 공
▁ 중
▁ 3
▁ 인
▁ 상
▁ 모
▁ 부
▁ 마
▁ 위
하 고
▁ 유
지 만
이 다.
▁ 오
▁있 다.
▁ 때
▁ 않
▁ 비
▁ 소
▁ 없
▁ 어
▁ 미
▁ 조
▁ 고
▁ 스
▁ 여
▁ 의
▁ 해
▁ 내
▁ B
- 00
▁ 국
▁ 선
▁ 말
▁ 4
▁ 연
▁ 관
▁ 만
▁ 무
이 라
에 게
▁ 5
▁ 분
▁ 서
다 "
. .
▁ 신
▁있 는
▁ 최
다 는
▁ (
▁ 발
▁ 방
▁ 동
▁ 개
▁ 도
▁2 01
▁ 영
▁ 구
▁ 바
▁ 안
다 고
▁ 성
었 다.
▁ 우
▁ 문
▁ 세
▁ 거
▁ 되
들 이
▁ 강
▁ 장
까 지
▁ 생
▁ -
▁ 후
면 서
▁ 6
고 ,
▁ 불
. <|endoftext|>
▁ 김
▁ 진
▁ 당
▁ 결
▁ 실
▁1 9
▁ 통
▁ 원
에 는
▁ 현
▁ 더
▁ 노
▁ 7
▁ 반
▁ 적
▁ 8
▁ 받
▁ 특
▁ 남
▁ 차
▁ 예
하 게
부 터
▁ 교
▁ 출
▁ 따
▁ 많
▁ 추
▁때 문
▁ 역
적 으로
▁ 알
▁ 같
▁ 재
적 인
한 다.
▁ 포
▁ 들
다" 고
▁ 단
▁ 계
G <|endoftext|>
▁ 파
▁ 감
류 :
▁ 게
▁ 또
▁ 배
▁1 0
▁ 작
/ N
▁ 입
) <|endoftext|>
▁대 한
▁ 올
하 기
▁아 니
▁ 매
▁ 프
는 데
▁ 타
0 2
▁ 카
▁ 9
에서 는
▁ 못
▁ 설
/N N
▁ 두
▁ 물
▁ 건
▁사 람
▁ 피
▁ 확
▁한 국
▁경 우
▁ 회
▁ 달
▁ S
들 은
▁지 난
레 이
▁ 참
▁ 리
▁ 된
으 며
▁ 과
▁ 평
▁ 박
0 3
라 고
▁ 요
▁ 함
▁위 해
▁2 00
▁것 으로
▁ 데
▁B T
들 의
▁ 초
▁ 열
▁분 류:
▁것 이
▁ 본
▁이 후
▁ 외
▁ 직
라 는
▁ 에
▁ 드
▁ 저
▁때문 에
이라 고
▁ 명
▁ 좋
/ M
▁자 신
리 고
대 로
▁ 학
▁B S
▁ 할
▁ 행
▁사 용
▁ 밝
▁ A
▁ 점
하 지
▁ 화
하 여
리 는
였 다.
기 를
▁ 크
▁ 처
▁ 운
스 트
▁ 뒤
에 도
▁서 울
▁한 다.
▁ 총
▁ 했
▁ 새
▁ 집
C T
이 나
들 을
통 령
▁ 앞
▁ 변
▁ 코
▁1 2
해 서
▁ 맞
▁ 심
▁ 필
▁ 양
▁ 살
▁ 높
▁ 청
▁다 른
▁그 러
하 면
지만 ,
▁미 국
▁ 라
▁ 투
▁함 께
▁ 로
▁가 능
▁ 활
00 0
▁ 호
▁ 했다.
CT _
▁ 북
▁ M
▁ 돌
▁ 버
▁같 은
▁ 판
▁하 는
( )
▁대 통령
▁ 치
기 도
▁문 제
보 다
하 며
▁1 1
▁ 금
▁ 종
▁들 어
▁ 검
▁ 잘
▁ 증
H O
지 는
i n
▁ 0
▁ C
▁ 간
▁있 다.<|endoftext|>
▁ 각
▁일 본
▁ 편
▁ 목
/NN G<|endoftext|>
▁정 도
▁ :
▁ 속
▁ 임
▁ 메
▁ 걸
▁ 체
.. .
았 다.
다 가
▁ 트
리 를
▁ 및
▁사 실
▁ 승
▁이 상
CT_ 00
기 에
▁ 손
▁시 작
▁ 약
▁ 민
t h
▁하 지만
▁아 이
▁ 패
▁공 격
/M A
▁생 각
▁ 언
0 년
0 4
▁ 산
1 9
▁따 라
e r
▁통 해
▁ T
o n
학 교
되 는
▁ 쓰
a n
▁ 합
으 나
▁말 했다.
사 를
▁정 부
▁가 장
▁ 삼
▁ 법
▁ 표
▁대 표
▁하 나
▁ 독
▁밝 혔
▁ 번
▁ 군
▁것 은
▁ 은
▁ 근
▁ 레
▁만 들
▁ 애
▁있 었
▁그 리고
▁관 련
▁ 죽
▁ 취
▁이 어
▁ 토
니 다.
이라 는
자 는
장 을
▁않 는
▁ 플
거 나
▁중 국
▁ K
장 은
▁ 날
됐 다.
▁모 습
다" 며
▁것 을
▁ 광
리 가
▁ 순
이 다.<|endoftext|>
▁ 채
▁ 태
▁모 두
▁ 충
지 를
기 가
▁지 역
▁ 완
▁ 음
▁프 로
력 을
▁ 형
▁상 황
▁ L
▁ 캐
▁1 5
/MA G<|endoftext|>
▁2 0
▁대 해
▁것 이다.
▁ 넘
위 원
다 면
▁ 야
▁ 복
▁관 계
▁사 이
▁등 장
된 다.
▁밝혔 다.
▁다 시
▁ 힘
자 가
▁ 줄
▁당 시
▁ 업
▁ 베
▁ 환
▁세 계
으며 ,
▁ D
▁없 는
처 럼
▁그러 나
되 어
하 다.
▁ 친
▁ 디
▁ 폭
▁ 끝
장 이
졌 다.
▁ F
▁ 찾
▁현 재
성 이
▁필 요
▁ P
8 년
▁ 준
하 면서
▁ 막
5 년
7 년
▁ 큰
-00 00
에서 도
a r
▁있 어
▁게 임
▁ 항
되 었
▁ 잡
▁ 브
지 고
▁ 존
6 년
했 다.<|endoftext|>
▁ 눈
▁진 행
해 야
도 록
▁이 름
이 었
▁선 수
▁ 협
는데 ,
▁우 리
▁ 누
o r
▁시 간
▁이 날
▁ 용
▁1 8
2 0
▁ 볼
▁ 규
▁ 논
▁ 창
▁ 담
▁나 오
-00 01
1 0
▁그 런
으 면
▁영 화
▁이 번
시 아
▁경 기
▁등 을
4 년
▁또 한
▁ 첫
▁하 고
들 에게
▁위 한
▁많 은
E O
이 트
▁ 병
▁ 커
▁ 효
▁ 식
▁모 든
리 아
▁ 벌
▁ G
▁ 히
▁3 0
▁그 는
▁ 허
이 는
사 가
성 을
▁ 백
▁ 절
▁ I
9 년
▁ 팀
▁ 권
▁된 다.
▁ 온
▁이 용
▁1 3
기 는
▁국 가
스 터
▁ 빠
▁ 테
▁의 원
▁ 너
2 01
▁이 런
▁많 이
▁ 키
▁ 얼
▁19 9
상 을
▁1 6
▁지 원
▁ 클
▁ 네
▁기 록
력 이
회 의
▁특 히
▁아니 라
▁추 가
▁ 난
▁BT HO
▁ 별
며 ,
▁ 천
i d
▁ 먹
한 다.<|endoftext|>
3 년
▁ 철
▁북 한
) ,
▁이 유
주 의
3 0
▁ N
이 지
▁1 4
▁결 과
2 년
스 를
" 이라고
라 이
▁ 축
▁자신 의
▁상 태
정 을
▁ 늘
5 0
▁처 음
▁ 길
▁ E
▁ 페
들 과
▁ /
▁보 여
가 는
-00 02
이 고
▁ 갈
▁다 음
▁ 왕
▁ 곳
▁사 건
a l
국 의
▁ 느
▁ 홍
데 ,
▁결 국
▁피 해
인 이
▁보 고
▁경 찰
르 면
▁상 대
▁ 질
▁1 7
▁국 민
시 간
▁지난 해
▁ 황
1 1
▁ w
▁사 회
▁ 책
니 다.<|endoftext|>
리 스
▁경 제
▁ 블
▁ 극
▁이 미
▁나 온
▁ 악
되 었다.
▁내 용
▁보 면
▁ ,
▁ R
▁ 떨
▁기 술
▁여 러
자 의
사 는
이 스
▁방 송
▁후 보
원 을
▁사 업
▁ 능
▁ 접
했 던
▁ 농
기 로
▁ 갖
▁설 명
하고 ,
▁국 내
▁ ‘
1 년
▁ 터
▁물 론
▁ H
▁알 려
릭 터
▁연 구
제 로
▁ 듯
▁ 될
▁ 글
▁않 았
▁ 엄
▁지 금
▁ #
▁감 독
▁ 범
▁최 근
▁보 인
화 를
▁ 골
▁그 래
▁ 얻
▁돌 아
▁없 다.
▁시 즌
자 를
▁일 부
▁ 측
▁ 잠
▁ 몰
▁ 향
▁이 를
렇 게
▁ 루
▁정 치
▁기 업
▁캐 릭터
지 가
▁다 만
랜 드
l e
▁아 닌
▁ 싶
▁ 와
되 고
▁ 월
▁역 시
로 운
서 는
명 이
스 의
▁수 도
▁따 르면
▁ 밀
▁운 영
▁교 육
s t
▁ 머
▁ 탈
▁동 안
▁ 을
▁나 타
▁기 준
▁해 당
▁이 야
▁최 고
▁바 로
▁있 을
▁않 은
어 나
▁않 고
1 2
a t
M <|endoftext|>
▁존 재
. 2
▁ 떠
하 였
1 8
시 키
▁매 우
▁BS HO
▁발 생
라 도
▁등 의
▁계 획
▁떨 어
▁활 동
▁이 에
▁예 정
▁증 가
▁상 당
▁일 반
대 한
▁ O
▁계 속
▁ 면
도 가
▁ 싸
리 즈
가 지
▁ 탄
원 이
▁되 었
▁효 과
▁ 《
하 였다.
▁2 5
▁ ~
1 5
▁대 상
▁있 었다.
▁1 00
씨 는
▁자 체
▁플 레이
사 의
▁포 함
▁발 표
위 를
o u
▁ 러
▁직 접
▁좋 은
▁ *
주 는
▁ 낮
부 분
습 니다.
▁수 준
스 가
▁만들 어
▁받 아
▁있 다는
▁공 개
▁개 발
r e
▁ 귀
id th
▁평 가
▁ 혼
▁없 이
▁ 맡
idth =
이 었다.
리 에
▁ W
4 0
▁한 다.<|endoftext|>
인 의
치 를
에 선
했 다고
▁결 정
▁ 둘
▁제 공
명 을
▁확 인
▁올 해
도 를
1 6
▁ 급
▁작 품
어 서
렸 다.
▁ 몸
1 3
' 을
▁여 성
▁부 분
/M M<|endoftext|>
▁아 무
▁전 체
인 지
▁ 즉
대 를
▁성 공
므 로
▁학 생
▁ “
▁열 린
센 터
르 는
▁주 장
도 로
분 류:
▁ 핵
왔 다.
. 0
▁전 투
▁ 송
1 7
▁모습 을
위원 회
하 자
▁마 음
지 막
장 의
( ...
▁오 후
▁삼 성
▁ 붙
▁ 팬
▁ 뿐
-00 03
1 4
식 을
▁ 풀
전 을
▁조 사
기 업
. 5
▁전 문
점 을
▁ 혐
▁ 좀
▁ 울
▁19 8
▁높 은
▁ 엔
▁3 월
▁스 타
▁대 부분
▁다 양
▁참 여
이 가
▁의 미
▁ 뉴
' 를
▁인 터
▁거 의
▁ 몇
원 의
▁같 이
전 히
장 에서
▁찾 아
▁ 슈
시 에
▁2 2
드 는
P <|endoftext|>
스 는
수 가
▁어 느
▁되 는
i c
▁등 이
거 리
_ _
밖 에
6 0
▁중 요
▁4 월
▁ U
▁정 보
▁제 작
▁ 홈
하 겠
▁요 구
부 는
▁2 4
▁ 육
▁ 윤
▁현 대
2 5
▁마 지막
▁ 폐
▁가 운
▁ V
하 려
의 를
▁너 무
A A
는 다.
수 를
h e
▁영 향
7 0
i s
▁기 본
대 표
▁되 어
▁5 월
▁w idth=
▁이 는
▁ 압
B S
▁것 도
▁ 케
드 를
▁시 리즈
▁2 3
▁주 인
▁그 의
▁올 라
▁대 학
▁학 교
in g
▁국 제
▁5 0
▁12 월
▁출 신
▁라 이
▁인 간
▁6 월
그 램
자 로
▁7 월
▁최 대
▁자 유
2 00
▁사 진
▁ 돈
치 는
스 로
▁9 월
수 는
다 '
▁ 희
▁어 려
▁ 워
▁ 놓
▁어 떤
마 다
▁ 격
▁ 먼
▁10 월
전 에
▁2 1
인 을
▁ 쿠
명 의
▁ 팔
▁달 리
▁검 찰
▁대 신
▁ 뛰
들 도
8 0
스 타
▁배 우
▁문 화
와 의
만 원
▁좋 아
머 니
▁주 요
▁가운 데
▁ 헤
▁강 화
▁8 월
회 를
▁ 침
▁1 월
인 은
되 지
▁판 매
등 학교
트 를
있 는
▁이 동
▁ 레이
났 다.
▁8 CT_00
▁새 로운
▁정 책
▁ 암
과 의
▁과 정
▁ 뜻
원 은
▁정 상
▁있 다고
▁기 자
지 도
▁크 게
▁민 주
장 에
(... )
▁정도 로
▁제 외
▁되 었다.
▁관계 자는
▁것 "이라고
▁11 월
o m
▁드 러
▁역 할
▁기 존
i g
억 원
으 니
나 라
▁과 거
▁인 물
▁구 성
▁다양 한
▁BS EO
▁스 킬
▁도 시
로 는
로 ,
▁ 휴
▁2 7
진 다.
▁ 응
-00 0
▁ 쉽
▁추 진
▁사 랑
▁소 속
▁2 6
나 는
i t
이 션
9 0
대 의
▁2 월
동 안
▁선 택
▁아 직
. 3
▁2 8
▁부 산
▁한 편
▁지 적
럼 프
! <|endoftext|>
▁국 회
▁인 해
▁비 슷
리 의
없 이
이 며
▁가 지고
▁BT EO
▁중 심
2 4
교 육
▁만 큼
▁때문 이다.
정 이
▁대한 민
▁받 고
▁유 지
▁생 산
라 마
▁방 법
" <|endoftext|>
▁위 치
▁적 용
▁ 덕
스 템
기 의
▁ 는
▁공 식
선 을
사 업
▁" 이
▁하 지
a m
했 고,
▁1 일
▁없 었
상 이
▁보인 다.
? <|endoftext|>
정 부
▁그 대로
▁ 엘
▁언 급
▁또 는
▁준 비
i on
▁전 국
리 그
▁ 끌
제 를
으나 ,
하 던
이라 며
▁ 곡
사 에
한 국
대 에
e s
안 을
▁타 이
▁ →
민 주
▁출 연
▁사 망
▁있 다"고
▁카 드
임 을
▁선 거
▁주인 공
▁특 별
리 지
이 터
a c
자 인
▁ 봉
이 자
▁있 던
▁ 니
어 가
▁ 긴
▁자 기
어 난
▁ J
▁분 석
▁ 던
▁이 전
▁201 5년
대 가
3 5
▁ 놀
▁여 기
▁ 숨
▁말 을
▁그 녀
▁가 족
-00 04
음 을
르 게
▁201 6년
물 을
▁오 전
은 행
▁기 간
o l
▁4 0
▁지 나
▁만 든
▁공 동
▁대 해서
▁시 절
▁설 치
▁서 비
▁ 쪽
▁아 버
동 을
▁ 씨
▁ 왜
▁인 정
▁시 민
▁ 답
▁장 관
▁받 은
▁비 판
▁2 9
▁더 욱
연 구
▁관 심
▁ th
▁그 렇
▁그 냥
▁발 견
▁사 고
▁제 대로
▁실 제로
▁프 랑
▁참 고
이 를
번 째
▁만 나
▁ 퍼
▁전 쟁
▁ 넣
▁청 와
▁않 았다.
▁축 구
▁그 것
▁사람 이
▁차 량
▁자 동
으로 ,
▁규 모
도 의
▁트 럼프
▁ 석
2 2
▁마 련
▁않 아
▁마 법
▁친 구
▁먼 저
기 관
▁201 7년
▁혐 의
▁방 문
▁201 4년
a s
경 기
▁최 종
▁금 융
▁강 조
▁독 일
▁ 망
▁조 선
▁노 동
▁프로 그램
운 드
▁ 슬
▁ 갑
▁불 가
▁활 용
권 을
▁ 컨
▁ 깨
▁ 착
▁고 려
▁지 방
하기 도
▁이 제
▁투 자
▁ 쓸
▁자신 이
▁ 티
금 을
▁개 인
▁ m
▁최 초
a d
) 는
냈 다.
감 을
▁ 풍
하 지만
멤 버
▁서 로
▁제 품
▁각 각
▁ s
인 데
부 를
▁지 속
▁어 떻
▁ 콘
▁해 결
개 월
. 4
▁하 루
▁위 원
이 드
▁앞 서
" 라고
e l
▁상 승
▁능 력
▁살 아
▁참 가
▁유 명
▁이 러
▁방 식
▁논 란
▁주 민
▁조 금
▁우 승
▁가 격
▁주 변
▁영 국
i l
치 가
▁여 자
6 5
▁구 조
▁ 좌
B <|endoftext|>
2 3
움 을
▁6 CT_00
▁음 악
▁어 린
▁비 롯
B C
▁ 혹
▁그런 데
▁가 지
화 가
▁ 겨
장 ,
▁경 쟁
▁예 상
롯 데
이 기
▁이 루
▁못 한
▁방 어
▁가 까
▁환 경
▁ 빌
▁의 견
이 어
서 를
▁ b
▁이 렇게
▁산 업
▁어떻 게
▁ 흔
▁의 해
▁차 지
사 와
▁ 헌
계 를
▁생 활
으로 는
▁ 찍
문 을
이 지만
수 의
▁경우 가
지 역
지 에
사 로
▁비 교
료 를
▁ 듣
하 거나
▁된 다.<|endoftext|>
하 다.<|endoftext|>
▁ 멤버
.. ..
▁상당 히
▁19 7
2 9
▁201 8년
2 7
▁이 것
▁정 신
과 는
▁ 퇴
세 를
▁중 앙
▁부 족
▁내 려
' 의
▁전 망
파 트
▁ 괴
▁없 어
) 의
▁기 대
▁ 빨
습 니다.<|endoftext|>
만 큼
▁가 진
. 7
▁201 3년
▁등 에
▁해 외
▁비 해
▁바 람
▁ 잔
했 다는
h t
▁판 단
▁일 이
▁안 전
▁인 천
▁가능 성이
▁얼 마
우 는
▁노 래
▁감 소
. 8
▁나 라
자 들이
▁그래 서
지 로
문 화
마 트
히 려
2 8
▁있 도록
3 4
다 <|endoftext|>
▁정 말
▁ 칼
부 가
약 을
한 다는
디 오
했 을
이 크
▁장 면
▁외 국
그 룹
▁나오 는
장 과
라 며
제 가
▁관 리
▁ 졸
' 에
/ S
▁강 력
정 은
▁모 델
▁문제 가
린 다.
, 000
▁BTHO 01
▁BSHO 01
사 회
" 이라며
일 에
/ E
▁애 니
▁알 고
G O
▁출 시
▁어 렵
▁이 해
▁시 스템
이 며,
▁러 시아
▁원 래
. 6
▁사 라
▁하 면
중 에
▁ 견
▁오 는
▁해 도
▁참 석
▁ 펼
' 이
▁대통령 은
▁오 히려
리 카
지 의
정 한
▁ 즐
인 트
▁ 딸
▁ 묘
리 어
였 던
다 며
▁역 사
려 고
프 트
▁표 현
▁ 빼
3 3
▁ 움
라 인
단 체
▁넘 어
u s
▁않 을
점 이
▁언 론
9 9
▁ t
▁주 로
- 01
대 학교
▁ 얘
장 으로
일 ,
▁있 으며,
격 을
도 는
▁ +
구 를
▁ 웃
▁ 징
니 까
▁소 비
어 로
▁ 빈
훈 련
▁ 롯데
내 는
▁대통령 이
▁미 래
▁프 리
/NN B<|endoftext|>
▁우 려
전 에서
▁받 았
▁유 럽
▁7 CT_00
▁ 녹
행 을
▁청와 대
▁등 으로
▁선 발
▁ 쇼
▁자 리
5 5
▁형 태
기 사
▁이러 한
▁나 는
요 .
▁변 경
▁현 실
▁평 균
▁ of
▁ 탑
개 의
▁자 주
▁경 험
가 가
▁기 능
▁ 궁
2 6
림 픽
▁남 자
되었 다.<|endoftext|>
오 는
했 지만
▁ 밤
▁보 도
▁ 몬
시 는
지 ,
. 1
니 아
▁201 2년
▁ X
▁적 이
더 라도
3 6
었 다.<|endoftext|>
▁사실 상
▁ 섬
p x
▁ 꾸
▁대 비
▁이야 기
▁실 제
불 어
스 크
▁아니 다.
▁않는 다.
▁재 판
▁수 사
▁집 중
▁ f
▁ 멀
▁얼 굴
▁영 상
▁동 시에
▁성 장
르 고
▁th e
업 을
▁S K
같 은
▁스 토
▁대한민 국
대 학
▁ c
▁ 잃
k m
어 를
▁있 지만
▁번 째
스 와
▁엄 청
▁인 사
된 다.<|endoftext|>
▁나온 다.
r o
▁위 험
적 이
▁드 라마
로 부터
▁ 색
▁받 는
▁아 래
▁이 뤄
▁나 가
▁도 입
에서 의
▁ 됐
▁ 돼
▁초 반
원 에
하 다
/NN P<|endoftext|>
지 지
가 를
▁ 솔
▁지 지
▁회 복
▁확 대
▁승 리
비 를
▁만 에
▁건 설
) 은
▁3 1
▁있 게
▁분 위
e t
하며 ,
▁움 직
2 1
재 인
▁1 ,
▁반 면
▁개 최
▁그 렇게
3 9
▁1 년
부 의
4 5
▁ 낙
치 고
▁리 그
아 서
산 업
부 에
▁자 연
학 생
▁반 대
▁진 출
▁대 회
▁담 당
로 서
▁보 호
. 9
▁마 을
시 켜
▁적 극
한 다고
▁분 야
a y
an d
▁이 벤
▁의 혹
▁ 앨
a g
들 에
일 부터
▁ 싱
▁조 직
▁개 선
u n
▁대 구
▁2 차
3 8
▁이 때
▁외 교
군 의
0년 대
▁ 숙
위 에
▁결 혼
▁전 혀
4 8
te r
▁힘 들
▁것이 다.<|endoftext|>
도 ,
▁ 봐
▁후 반
▁행 정
▁두 고
씨 가
기 술
' ,
) 을
하기 로
▁바 이
▁보여 주
▁나 서
정 보
% ,
소 를
▁더 불어
▁지난 달
드 의
▁대 응
▁업 무
원 에서
▁있 고
했 고
사 일
▁당 연
▁목 표
경 제
시 의
▁L G
다" 면서
▁ 믿
▁ .
▁유 일
▁역할 을
자 ,
▁마 찬
상 의
스 ,
▁설명 했다.
▁전 했다.
7 5
자 와
GO 03
▁들어 가
시 설
▁반 응
원 으로
▁정 확
▁공 연
▁전 에
리 ,
▁마찬 가지
▁5 CT_00
▁ p
회 담
문 에
) 를
▁기 억
보 다는
▁영향 을
▁ 뽑
▁ d
▁무 기
▁모 양
▁ 푸
▁월 드
▁실 패
하 다는
▁있 기
e d
.. .<|endoftext|>
▁스 트
▁ 꿈
▁ 곧
▁특 수
▁예정 이다.
▁19 6
▁제 주
체 를
스 러
▁확 보
▁과정 에서
▁내 가
▁있어 서
드 가
) 이
▁오 늘
▁ 찬
4 4
▁ 됐다.
▁지 하
어 진
요 .<|endoftext|>
▁따 른
▁ 맥
▁ 땅
▁있 고,
▁ 빛
▁발 언
▁ 묻
나 가
▁ 컴
▁오 른
▁소 환
▁건 물
▁201 9년
▁BTHO 04
▁많 다.
는 지
▁때 는
▁밝 혀
▁한 번
▁관 광
▁상 대로
▁6 0
▁있 으며
일 까지
▁선 정
▁유 저
▁보 내
분 에
되 면서
▁발 매
▁전 략
c h
▁대 전
▁무 엇
▁발 전
▁ 꽤
▁실 시
▁일 단
▁그 리
▁사 무
▁필요 한
포 츠
▁처 리
▁목 소
' 로
▁경 기도
▁설 립
▁제 기
식 이
▁갖 고
▁BTHO 03
▁스 스로
촬 영
▁건 강
트 가
▁보 통
연 합
) 에
/ V
▁순 간
' 가
▁ 써
대 는
▁한 다는
▁여 전히
이 의
▁방 향
▁앞 으로
▁중요 한
관 이
▁지 도
▁그 림
성 은
버 스
▁어 머니
7 7
▁사람 들이
▁힘 을
▁입 장
▁레 벨
▁데 미
리 오
▁해 야
관 계
▁수 상
▁ 읽
다 ”
운 동
▁합 의
▁광 주
▁ 맛
▁바 뀌
▁가 져
시 장
▁201 1년
▁연 속
▁ 뭐
방 송
▁요 청
▁T V
▁ 벗
▁비슷 한
▁ 익
구 가
위 가
▁시 행
▁ 까
와 는
▁소 개
▁각 종
▁연 결
▁- 2
▁ 술
체 가
▁ 쓴
▁부 담
AA 01
▁책 임
▁사실 을
▁완 전히
이 기도
▁파 괴
▁노 력
고 를
▁ 품
ig ht
▁ 혁
갔 다.
▁ 흥
) 가
학 과
▁ 흑
▁의원 은
▁따라 서
시 킨
▁있는 데
▁시 장
위 는
▁전 부
트 로
▁ 흐
▁대 체
▁제 한
차 를
관 리
3 2
적 을
조 사
▁어 디
▁유 닛
▁ 삶
지 어
개 를
량 이
▁공 간
▁충 분
▁논 의
▁불 구
▁아 마
▁우 선
▁받 았다.
▁그 가
프 로
▁기 념
▁잘 못
▁거 래
▁데 뷔
▁프랑 스
3 7
▁해 서
▁ 깊
보 면
▁남 북
하는 데
▁슈 퍼
▁졸 업
' 는
▁201 0년
▁ 촉
▁몬 스터
▁ 콜
▁경 영
▁미국 의
▁가능 한
도 시
명 은
▁말 이
▁정부 가
▁ 휘
근 혜
학 년
▁수 출
v e
▁나 왔
▁항 공
▁했 다.<|endoftext|>
▁ 끊
% 로
▁작 은
▁국 정
▁연 합
▁못 하고
아 가
개 발
▁인터 뷰
▁ 쉬
▁하 다.
▁관 한
8 8
었 던
어 도
느 냐
▁수 가
경 찰
▁시간 이
구 의
전 이
두 고
단 을
신 이
▁혹 은
▁문 서
▁ 액
▁나 와
▁남 아
▁자 세
▁지 정
▁교 수
▁ 겪
▁핵 심
▁행 동
세 대
▁한 다"고
▁아 예
▁ 샤
▁기 관
▁내 년
▁ Y
▁" 그
메 이션
▁예 산
▁대통령 의
i m
' 라는
수 록
리 와
선 거
6 9
▁있는 데,
▁ ·
▁변 호
▁3 일
▁아이 템
▁신 청
▁주 는
▁인터 넷
o o
▁( 201
▁이유 로
▁설 정
사 ,
" 고
▁사 례
▁아 주
으 면서
▁ 를
▁2 02
▁되 고
성 과
조 차
▁이름 을
스 럽
화 에서
▁게 다가
쳤 다.
나 마
지 원
▁쉽 게
으로 서
▁선 보
▁그 룹
▁보 는
해 도
전 자
리 로
우 스
당 이
▁2 년
▁다 르
상 에
▁대상 으로
▁운 동
▁알려 졌다.
라 면
▁불가 능
▁ 류
서 울
소 년
o w
세 계
정 책
움 이
en t
보 고
▁조 건
▁ 왔
하 다고
▁ 염
가 의
▁단 순
▁노 선
하 도록
자 들의
되 면
달 러
같 이
! !
▁최 소
위 로
회 가
▁시 청
▁전 해
▁동 일
입 니다.
▁구 속
▁독 립
5 8
▁스 페
율 이
▁성 격
▁가 는
▁기 사
▁10 일
신 을
이었 던
▁아 파트
▁ 탐
리 기
▁일 으
드 로
▁ 폴
▁ 셈
7 9
수 로
▁ 짓
자 기
▁대표 는
▁사람 은
타 를
시 가
▁일 을
▁ 다.
레 스
▁이 끌
▁ 옆
▁문제 를
▁과 학
▁5 일
▁확 정
▁ 촬영
점 으로
▁상황 에서
▁것 에
19 9
▁대 선
▁추 정
▁전 용
▁누 구
▁2 일
성 의
▁알 아
▁글 로
했 다"고
▁고 객
▁참고 로
▁안 정
▁마 이
준 다.
너 지
▁ 득
▁ 옮
▁BSHO 04
▁ )
▁통 합
업 체
6 4
스 코
▁혐의 로
▁성 능
▁보 유
▁계 약
▁행 사
▁15 일
▁ 챔
▁심 지어
▁군 사
▁서비 스
▁ 끼
▁ 납
▁문 재인
▁ 획
보 는
▁회 사
회 에서
▁교 통
어 들
▁ 캠
당 은
▁정부 는
▁것 .
▁특 징
디 어
E 02
▁원 내
▁높 아
7 8
▁ 뮤
자 들은
▁ 훨
▁부 모
▁7 0
▁조 성
▁중 인
▁시 설
겠 다는
▁제 시
▁ 딜
기 ,
기 와
▁대 형
원 ,
▁ 맨
6 8
▁본 격
▁자신 을
시키 는
▁20 일
였 다.<|endoftext|>
▁지 켜
상 으로
력 은
▁그래 도
관 은
▁달 라
▁이 들은
▁것 이라고
▁ 꽃
간 의
▁나 머
▁오 래
일 을
▁있 다"며
▁ 덧
▁훨 씬
▁소 재
▁점 을
진 을
려 는
▁다 이
한 테
자 리
시 즌
▁하 이
r u
단 의
▁ 뇌
▁시 도
▁있었 던
없 는
피 언
/ J
군 이
▁4 일
▁보 이
만 이
인 데,
▁스 테
로 를
간 에
▁ 훈련
5 9
▁ 욕
▁상 품
▁전 달
정 에
▁배 경
▁쓰 는
▁브 랜드
▁확 실
일 본
▁보 이는
▁직 원
1 00
누 리
▁이상 의
당 한
▁애니 메이션
겼 다.
▁문제 는
▁스 마트
▁ &
▁되었 다.<|endoftext|>
▁위해 서
▁변 화
▁강력 한
게 임
▁30 일
까지 는
▁ 쳐
▁고 용
▁받 을
▁치 료
▁연 기
▁없 다.<|endoftext|>
▁주 목
▁강 한
▁국 회의
▁ 굉
▁인 도
/NN G
▁7 일
단 이
▁앨 범
심 을
어 야
▁전문 가
량 을
만 을
▁전 반
▁ 죄
▁ 옥
▁패 배
▁ 홀
▁자동 차
i r
▁기 반
성 에
▁12 일
▁발 사
▁브 라
트 의
비 가
만 에
▁25 일
함 을
6 3
▁지 급
▁ 억
국 이
▁28 일
▁공 급
▁ v
▁드 래
▁폭 발
▁소 설
▁자체 가
▁청 년
▁27 일
▁제 2
▁14 일
▁ 틀
▁정부 의
▁혼 자
▁되 면
u r
▁하 며
▁ 헬
▁우 주
▁시 점
▁ 뒷
▁배 치
▁아 시아
▁이 하
▁타 고
▁8 일
▁비 용
0 5
당 의
롭 게
▁협 력
▁9 일
물 이
▁거 쳐
▁ 넓
▁확 률
▁않 다.
▁업 체
지 와
▁공 공
/MA J
▁200 9년
▁나 이
▁굉 장
으로 써
▁이 탈
중 앙
▁11 일
▁ 딱
▁ 흡
▁평 화
▁이 와
▁제 1
▁BT B
▁BS B
▁부 정
▁19 4
▁전 환
▁성 우
▁하 게
시 켰
▁대해서 는
▁진 짜
▁3 년
▁ 잇
하 라
▁국 무
▁ 겸
▁전 기
버 린
▁26 일
▁ 웨
▁대 화
▁ 냉
▁국 방
▁영 어
▁차 례
▁메 이
▁ 탓
▁전 통
▁불 법
▁사용 하는
환 경
▁들 고
▁피해 를
무 를
이라 면
히 는
▁200 8년
7 4
▁21 일
▁없 었다.
해 진
▁검 토
▁안 에
▁17 일
관 을
▁ 흘
▁18 일
겠 다고
생 활
▁13 일
명 으로
▁구 축
해 주
▁22 일
▁1 차
▁ 젊
특 별
▁하 기
▁불 과
▁낮 은
세 가
수 한
▁19 일
에게 는
실 을
▁K BS
있 다.
▁수 는
놓 고
진 이
▁프로 젝
▁ l
인 으로
▁시 험
▁24 일
▁이 사
00 만
▁19 5
▁16 일
▁23 일
▁범 죄
라 운드
▁다 니
/MAJ <|endoftext|>
▁어려 운
▁언 제
▁ 쌓
시 를
▁신 경
▁6 일
▁201 7
CT_ 000
통 신
▁3 5
치 로
▁나 왔다.
▁분 명
▁ 꼽
▁불 러
규 모
상 은
▁중심 으로
▁아 들
▁처음 으로
▁경우 도
하 나
다 ,
▁되 지
▁없 다는
▁통 과
▁덧 붙
▁인 근
▁의 료
인 가
세 기
▁내 부
▁ 꼬
▁이벤 트
▁BS A
▁느 낌
f f
▁기 획
▁일본 의
▁BT A
▁덕 분에
▁모습 이
▁일 정
▁반 영
▁여 행
▁주 의
▁초 기
▁구 매
▁기 다
▁원 작
무 리
▁ 굴
▁거 부
▁명 칭
▁단 체
▁챔 피언
▁조 합
▁보 스
과 학
▁ 짧
▁29 일
▁사 태
▁ 빅
▁BTEO 00
▁BSEO 00
' 으로
▁박 근혜
지 면서
3 1
▁중 단
민주 당
비 아
▁잡 아
▁수 행
▁기준 으로
▁BSEO 03
▁블 랙
▁선 언
▁영 웅
다 !
▁아 르
▁크 리스
▁활 약
▁8 0
i k
▁글로 벌
감 이
▁지 구
▁ 똑
▁하 면서
▁벌 어
▁ 꼭
▁만 드는
% 를
▁ 벽
▁직 후
▁수 입
분 을
▁그 동안
▁작 업
▁개 정
스 에
▁올 림픽
▁것 과
호 를
▁특 정
▁ 택
▁수 밖에
▁회 의
' 에서
▁ 린
▁그 를
▁강조 했다.
▁심 각
▁ 갤
▁200 7년
우 리
무 원
▁대 법
▁지 키
▁오 브
으 므로
▁동 료
씨 의
▁ 꺼
▁위 반
▁도 로
일 이
반 도
7 3
차 가
▁이유 는
c t
▁ in
인 물
티 브
▁계 열
▁국민 의
7 6
8 9
▁운 행
d d
- 1
▁종 합
계 의
▁신 고
스러 운
▁이야 기를
▁강 원
▁ 센
회 는
▁장 기
하였 다.<|endoftext|>
▁ 굳
4 9
▁그 나마
▁ 습
드 시
▁제 출
▁출 전
이 고,
▁수 비
▁달 러
▁M BC
▁ a
o t
인 과
른 다.
소 가
▁발 동
▁달 성
▁무 시
▁ 「
n d
이 란
▁ 뜨
▁투 입
전 의
▁T he
▁사용 할
▁아 프
영 화
이 버
▁없 을
▁ 걱
▁ 라고
▁못 했다.
▁가능 하다.
섰 다.
▁희 망
▁민 간
주 를
공 항
트 는
▁ 늦
선 이
국 민
▁ 라는
다 니
e m
기 고
/NNG +
▁보 니
▁공격 을
회 에
페 이지
▁하 락
▁1 위
▁파 악
라 가
▁하 여
정 의
▁ 으로
랐 다.
▁계획 이다.
__ 01
동 산
▁수 록
▁돈 을
▁제 안
국 은
▁절 대
▁굉장 히
▁유 리
▁위 협
▁ 옛
▁영 업
▁ 벨
▁매 출
o s
사 에서
▁ 벤
대한 민
이 면
역 을
T V
받 은
▁불구 하고
▁못 하는
▁나 무
▁물 리
문 이
▁등장 하는
카 이
▁항 목
다 운
▁내용 을
▁비 행
▁여 론
▁보 다
유 의
▁동 물
▁가 입
▁획 득
▁모 르
신 의
명 ,
▁ 혈
▁장 애
아 이
계 가
6 6
▁남 성
▁비 중
▁구 간
u m
▁주 택
과 를
▁한 정
▁현 지
▁새 누리
▁BTEO 03
▁정 의
4 3
▁ 둔
▁연 출
▁자 료
▁ k
▁새 로
만 의
나 무
▁ g
▁아 내
▁나머 지
조 건
더 니
지 방
▁불 안
▁상황 이
▁일 어나
▁접 근
▁이 곳
졌 다.<|endoftext|>
라 의
피 소
▁앞 에서
I C
▁만 한
▁ 옷
구 는
▁대 중
▁시간 을
선 의
군 은
종 의
▁있 지만,
▁여기 서
▁무 슨
( 이
▁투 표
▁중 에
▁ 싫
▁F C
▁수 요
주 시
▁빠 져
리 며
▁차 단
이라 도
▁ 밖
▁원내 대표
정 치
▁도 착
이 ,
제 의
▁이루 어
▁맞 아
았 던
▁철 도
▁S t
호 가
대 전
v er
▁얼마 나
0 6
▁자 랑
▁스 포츠
단 은
▁홍 보
▁인 상
▁있 다
▁베 이
▁엄청 난
자 에
자 .
▁1 만
력 과
▁교 수는
▁야 구
▁같 다.
▁특 성
보 니
▁구 체
법 을
4 2
동 ,
▁ 엑
분 이
▁반 드시
▁ 혜
▁은 행
▁관련 해
고 등학교
▁경찰 은
으로 부터
. c
▁후 에
지 게
▁ n
▁교 체
나 이
▁위 에
▁ 링
▁했 지만
r a
' 이라는
▁방 침
▁추 천
▁최고 의
복 지
▁자 리를
at ion
▁장 비
▁ 털
▁ 괜
▁마찬가지 로
항 공
석 이
▁감 사
▁온 라인
▁울 산
다" 는
▁외국 인
▁이 들
▁종 료
겠 다"고
▁선 고
했 으나
▁플레이 어
▁비롯 한
▁등 록
스 티
▁인 한
▁히 로
마 저
▁이용 해
되 기
▁약 속
▁젊 은
▁것 이라는
▁갈 등
▁앞 두고
▁생 존
▁한 다고
▁1 000
b y
▁한국 의
▁당연 히
▁쓰 러
도 에
▁정 권
스 (
▁행 복
▁ 뿌
▁갑 자기
▁케 이
) .
▁끝 나
교 통
▁고 민
▁역 대
자 에게
▁대 책
레이 드
▁201 8
텐 츠
▁항 상
▁ 밖에
노 동
품 을
말 로
▁근 무
▁ 년
' 은
시 마
▁ 봤
▁고 양
▁보 수
▁에 피소
▁가 면
▁정 규
5 7
▁경 남
형 을
▁사 는
▁ 앉
▁미 사일
▁작 가
r i
▁얘 기
타 로
5 6
▁여 기에
▁전 시
▁인 식
텔 레
▁제 목
▁ 삭
았 다.<|endoftext|>
▁바 꾸
▁느 끼
▁했 던
▁난 이
▁입 장을
▁아버 지
다 른
▁남 편
지 면
▁ 쌍
지 기
▁버 전
▁나타 나
▁지 휘
▁강 남
▁유 니
제 는
금 융
▁마 무리
만 으로
▁어린 이
▁선 생
▁비 밀
안 이
마 을
▁채 용
▁없 다고
▁내 놓
화 에
▁시 대
▁가까 운
4 7
▁전 날
▁드래 곤
▁ 낸
u l
술 을
계 에
▁포 기
V +
▁정상 회담
▁빠 른
▁허 용
▁ 맺
했 으며,
▁주장 했다.
▁통 일
▁제외 한
▁여 름
▁중 소
이 즈
주 택
퓨 터
▁가 수
E R
력 으로
▁ 밴
력 의
▁시작 했다.
▁끝 에
▁부 여
화 된
▁작 중
보 험
▁201 6
▁북한 의
주 년
▁완 성
__ 02
▁놓 고
뉴 스
▁사이 에
▁ h
▁ 츠
▁많 아
▁주 도
▁떠 나
▁본 인
▁측 은
다' 는
받 는
산 을
▁중 이다.
내 고
간 다.
트 남
▁ 왼
▁뉴 욕
▁끌 어
▁감독 은
▁분 노
▁크 로
a k
▁앞 에
플 레이
▁바 라
다" 라고
▁ 칭
o p
▁우리 나라
▁" 지
▁상황 을
▁둘 러
▁4 5
▁취 급
▁버 스
▁전 자
▁금 지
4 1
▁않 으면
르 크
▁기 타
▁하 늘
사 고
▁논란 이
▁라 인
▁ 맵
정 도
▁10 년
거 래
▁생 긴
▁제 조
▁참 조
▁음 식
▁만 약
주 가
▁죽 음
▁적 은
시 로
호 선
대 회
▁주 고
▁지 배
본 부
에 만
안 전
c e
▁재 미
▁5 년
▁좋 다.
바 이
야 마
AA 00
▁당 선
하려 는
▁ 밑
▁개 혁
__01 /NNG<|endoftext|>
▁손 을
▁바 탕
· 미
▁홈 페이지
▁소 녀
▁5 00
' (
▁수 익
▁보 였다.
려 서
병 원
S T
▁ 든
▁ 쏟
▁코 스
" 라며
▁맞 춰
▁나타 났다.
4 6
프 를
▁데 이터
이 닝
건 을
란 드
▁제 일
선 수
증 을
▁것 처럼
▁예 술
▁3 2
▁엄 마
▁국 립
▁대 변
▁활동 을
▁통 한
▁도 쿄
▁그 /MM<|endoftext|>
▁결 승
▁ 런
▁서울 시
포 인트
▁복 귀
▁근 로
▁보 기
/J K
▁효과 를
▁실 험
회 사
▁방 면
▁200 6년
▁디 자인
▁파 워
리 게
) 로
관 에서
▁ 듀
▁수 정
요 일
▁광 고
▁하 고,
▁최초 로
▁방 영
▁정보 를
▁희 생
▁최 저
▁필요 가
하 다가
▁경 기를
▁바 다
▁경우 는
화 의
▁9 0
▁대부분 의
▁관심 을
이 로
▁도 망
u t
▁201 5
▁말 한다.
식 으로
▁따 로
광 역
다” 고
론 을
▁제 재
▁ 맹
▁세 월
▁ 칠
▁나 올
었 다고
▁소 유
▁맞 는
▁직 업
▁도 전
▁듣 고
타 임
▁증 거
▁아 름
▁사회 적
▁이탈 리아
in e
( 1
▁ 힐
기 간
해 를
▁등 은
▁월드 컵
▁비 난
석 을
했 지만,
방 을
9 5
▁등장 인물
▁보 험
▁ 짜
계 획
자 동
▁개 념
▁대 사
▁있 다면
러 스
▁ y
리 트
냐 는
▁스 피
▁민주 당
▁2 ,
▁우 리가
국 제
스 토
▁소 리
많 은
▁경우 에는
위 의
보 를
▁연 장
점 은
▁ 앤
% <|endoftext|>
▁달 려
리 면
▁임 명
▁사람 을
▁현 장
▁패 턴
▁부 르
진 은
승 을
▁능 력을
▁평 소
니 스
▁다 소
▁대 미
레 벨
▁홈 런
키 는
카 드
분 기
▁공 유
▁활 성
▁좋 지
▁충분 히
▁명 의
건 설
▁잠 시
한 다"고
▁ <
▁만 난
▁포함 한
▁없 고
▁장 소
▁ 칸
▁마 치
인 들이
구 에
▁ 갔
다 (...)
▁근 거
▁이 외
( S
대 에서
▁출 발
▁부 동산
▁ 챙
▁부 활
만 한
▁신 뢰
k g
▁태 어
율 을
▁판 결
▁상 징
주 고
부터 는
▁취 임
' 라고
▁1 회
▁남 은
19 8
▁정도 의
▁마음 을
리 스트
주 로
▁ 웹
▁때 마다
었 고,
▁ 깔
▁빠 르게
▁스토 리
듯 이
▁조 정
0 8
▁차 이가
▁테 러
▁아 침
▁것 "이라며
▁우 리는
▁정 리
려 면
▁빨 리
▁3 00
▁ 곤
전 쟁
▁번 역
▁호 텔
▁꾸 준
▁한 화
음 에도
률 이
▁사실 이
( 201
▁그 린
▁컴 퓨터
▁늘 어
▁덧붙 였다.
일 보
▁기록 했다.
▁반 발
▁여 담
▁200 5년
m m
▁전 북
▁생 명
▁있 으면
▁" 아
▁완 전
▁사 상
▁가 게
~ 201
▁작 성
우 고
▁소 득
들 로
▁점 에서
▁속 에서
I A
▁유명 한
▁결과 를
▁공격 력
) 에서
▁위치 한
별 로
이 에
대 ,
▁정 당
i a
▁없 다"고
▁가 르
▁그 때
▁떨어 진
평 가
체 육
▁ e
▁않 게
군 을
▁건 축
▁신 규
단 에
▁유 치
스 테
질 을
o c
회 견
▁살 해
씨 를
▁검 은
시 킬
호 는
▁때 ,
▁분 양
성 도
▁장 착
이 브
하 지만,
▁기 소
/S P<|endoftext|>
▁대 기
▁제 거
부 와
▁중 간
▁저 지
▁하 자
▁두 산
라 를
▁지금 까지
▁애 초
▁BT GO03
▁오 랜
▁BS GO03
수 도
부 로
율 은
▁압 박
▁나 선
▁단 계
감 독
▁부 탁
▁명 령
리 티
▁상 위
안 에
/V V+
▁관련 된
▁S BS
▁사람 의
▁나 누
한 다면
▁김 영
▁ Z
웠 다.
) 와
차 례
▁3 8
션 을
▁ 밥
▁페 이스
조 선
금 이
서 관
▁개 봉
▁충 격
라 스
조 를
▁효과 가
단 계
▁별 로
▁뒤 에
▁속 에
했 으며
▁회 원
▁대 북
6 2
▁반 복
▁있 지
7 2
▁거 주
여 서
▁싱 글
▁스 파
▁유 사
▁ 씨는
거나 ,
▁적 을
인 ,
% 가
서 비
▁아이 돌
▁거 기
실 에서
▁클 래
▁체 력
▁가 끔
▁ 띄
▁ and
반 기
▁프로젝 트
▁도 움이
▁수 원
▁검 사
제 에
▁종 교
▁K T
▁베 트남
▁의 심
로 가
소 득
▁에 너지
대한민 국의
▁괜 찮
▁법 률
-000 5
지 에서
▁하 지만,
▁있었 다.<|endoftext|>
문 의
▁트 위
▁중국 의
나 ,
치 의
▁사 과
도 와
겠 지만
▁향 해
▁카 메
▁헌 법
▁동 생
▁약 간
▁ 퀘
▁분 류
했 는데
속 도로
▁보인 다.<|endoftext|>
▁가 슴
▁올 려
▁명 예
▁투 수
관 광
▁3 3
져 서
▁하 는데
▁연 습
.. <|endoftext|>
▁강 제
▁마 스터
▁받 지
인 다.
9 8
▁머 리
▁측 면
▁이 재
▁얻 을
▁수 석
▁해 석
크 로
▁31 일
▁근 처
▁정 작
▁일 어
▁새누리 당
7 1
카 와
▁무 역
c m
▁기자 회견
▁지적 했다.
▁운 전
▁스마트 폰
▁ 썼
▁조 작
▁이 적
a p
하 다"고
▁공 화
▁대 출
▁ 척
▁인 기
스럽 게
상 에서
▁공 정
▁넘 는
쪽 으로
▁관 객
▁혁 신
▁디 지
▁현재 는
▁알 게
▁점 점
▁사람 들은
▁로 마
나 의
▁통 신
남 도
장 판
▁종 류
미 가
▁진 입
▁부 인
▁이 른
하겠 다"고
▁리 더
▁사 전
▁체 험
▁완 벽
▁그 려
▁고 통
보 기
원 과
전 문
▁만 화
▁이 로
▁경우 ,
크 를
경 을
▁ 잊
▁이름 이
▁겨 울
▁있 습니다.
▁끝 난
▁ 짝
야 말로
▁가 정
▁압 도
▁ 넥
▁바람 에
▁무 려
▁다 가
▁ 짐
▁클 리어
▁작 곡
) 과
▁수 용
▁향 후
▁감 안
▁걱 정
라 서
모 토
▁ 쏘
한국 당
적 이고
개 로
▁눈 에
▁작 년
▁때 까지
9 3
▁제 3
▁대한민 국의
면 ,
▁밝 힌
▁의견 을
어 의
스 케
▁출 생
들 어
▁개 편
▁하 였다.
ru by
▁쏟 아
나 게
▁제 국
▁취 업
6 7
명 에
▁검찰 은
( ,
/E C
▁미 리
▁유 튜
진 의
▁처 벌
▁의 한
▁위해 서는
▁유 엔
▁K B
하겠 다는
▁식 으로
협 회
▁200 4년
▁도 와
활 동
▁뛰 어
성 ,
▁ 멸
▁있 으니
시 티
적으로 는
국 가
P +
▁비롯 해
▁메 인
▁전 화
데 이트
▁절 반
우 가
자 들을
▁ 봄
ar d
수 사
▁BS AA01
▁BT AA01
▁만 족
▁관심 이
▁규 정
트 리
▁열 어
▁기 초
▁적 절
▁ 쫓
▁오 르
▁돌아 가
o d
아 버
▁ 에서
▁설 계
▁고 위
▁의 사
로 의
▁수 많은
▁한 반도
▁청 소년
합 니다.
▁세 종
- 2
했 기
▁ st
바 일
▁바탕 으로
▁안 타
공 격
▁시작 한
권 이
▁태 양
▁은 퇴
▁3 6
▁체 결
▁늘 어나
▁중 에서
▁- 1
▁ Q
▁경 북
고 는
▁탈 출
북 한
하 이
▁ の
0 9
▁소 모
0 7
▁화 장
▁회 장
▁모 드
▁타 격
이 익
▁ ...
점 에서
5 1
▁지 상
▁로 봇
▁19 3
▁걸 쳐
다 시
▁3 개
▁더불어 민주당
▁소 송
▁아니 면
▁좋아 하는
권 의
▁생각 해
F A
▁지금 은
▁방식 으로
▁엔 딩
▁보도 했다.
▁쓰 고
▁전 설
▁매 년
▁다 르게
어 버
시 대
투 자
▁주 문
▁북 미
▁형 성
al l
▁공 포
되 며
▁화 면
이 다
받 고
▁열 고
▁합 류
체 의
▁알려 져
▁취 소
▁도 움을
▁촉 구
▁표 시
▁ 흉
조 의
입 니다.<|endoftext|>
▁상태 에서
▁예 를
켓 몬
수 ,
▁홍 콩
▁시 각
o .
▁나 름
▁ 덤
▁기 회를
▁말 에
▁법 무
▁ 십
▁전 면
▁기술 을
니 티
량 은
B 01
예 술
▁그 리스
자 들
▁ 뭔
▁김 정은
▁ 몽
▁ 덜
차 는
공 사
자 치
▁C h
안 타
▁민 족
▁토 론
스 <|endoftext|>
▁사 항
▁제 도
▁아무 리
▁ 센터
▁업 데이트
바 로
▁받아 들
▁유일 한
, /SP<|endoftext|>
▁ 컬
사 진
an g
▁펼 쳐
억 원을
▁높 다.
구 역
▁발생 한
▁자세 한
▁형 사
▁길 을
▁201 9
▁재 정
청 은
▁싶 은
F <|endoftext|>
▁보 장
▁밝 히
▁ 튀
▁ 멋
▁카 이
▁( N
8 5
▁메 시
▁이 르
나 다
8 7
▁돌 려
▁유 통
, <|endoftext|>
마 자
대 책
▁( 200
▁전 개
▁확 장
8 1
먼 트
▁200 0
▁원 칙
▁ 빚
▁에피소 드
a te
▁대 규모
% 에
▁고 정
개 혁
이 던
판 을
▁ 붉
▁아 카
음 이
▁운 용
▁점 이
( 2
▁초 대
▁상 관
▁의원 이
▁구 입
▁아 쉬
▁스 크
▁ 펜
▁협 의
▁열 리는
▁( )
▁내용 이
▁등 에서
▁t o
▁경기 에서
▁3 4
▁대 결
▁상당 한
▁보 조
생 을
▁뛰 어난
▁하나 의
스 에서
▁사건 을
▁이 게
어 는
▁혐 의를
아 야
서 가
▁힘 든
▁대표 적인
() ,
▁ 쿨
▁감 염
▁ 덱
한 다
▁4 년
▁주 식
▁맞 추
▁퀘 스트
▁이 들이
▁불 편
▁나 중에
미 를
▁죽 은
A R
· 중
길 을
▁성 향
차 로
▁목 적
심 히
▁가 서
임 금
▁이 란
▁블 루
il l
지 션
▁디 자
▁1 ~
▁분류: 대한민국의
미 널
▁ 긍
▁전 작
▁몸 을
▁추가 로
▁말 했다.<|endoftext|>
9 2
▁사진 을
▁집 행
냐 고
▁정치 적
▁이름 은
▁인 구
라 우
거 운
▁아 키
▁ 널
▁말 하는
치 지
▁일 은
▁원 하는
▁안 보
i e
▁다 루
▁거 리
▁기 여
기 자
▁인 공
( C
라 ,
▁그 럼
▁김 성
▁1 인
▁그러 면서
▁문 을
▁ 셀
가 와
▁다 행
▁' 이
▁때 도
▁ 멈
당 을
▁승 리를
▁미 니
하려 고
사 건
광역 시
▁ 롤
▁도 중
▁입 고
▁방 안을
I P
▁묘 사
▁불 리
▁거 짓
▁자 녀
▁실 질
장 인
▁성 적
▁정 식
▁기 계
▁나오 고
▁공 중
5 00
외 로
▁2 개
사 무
▁부 회
탄 을
했 다"며
▁부 문
장 관
르 트
▁본 인이
▁돌 파
정 상
▁선 물
▁국 토
정 으로
▁차 별
▁글 을
▁게임 을
▁근 접
▁편 이다.
▁ 잉
▁동 아
▁총 선
▁살 인
▁완 료
▁외 에도
▁200 0년
▁ 숲
▁평가 를
▁흔 들
▁메 르
▁파 티
체 는
▁징 역
▁사업 을
가 로
▁ 앙
▁시 기
호 의
▁직 전
▁바 닥
이 와
▁듯 한
+ ,/SP<|endoftext|>
어 ,
▁삭 제
▁ 랜
초 등학교
5 3
질 이
▁분 리
조 가
▁보 건
했 는데,
▁ 빙
▁인 수
▁꾸준 히
니 다
력 에
() 의
N S
▁ 랭
9 6
▁타 입
▁공 항
이 니
on g
▁최 강
렸 다.<|endoftext|>
▁대 로
▁이 승
▁ 멜
▁이 달
▁국회의 원
▁일 행
▁ 윌
▁출 마
하겠 다고
▁회 담
▁상 처
드 리
▁채 널
▁날 아
는 다.<|endoftext|>
▁소 련
지 자
분 의
▁배 틀
▁200 2년
▁단 독
▁하 다.<|endoftext|>
▁프 레
▁알려 진
▁ 옵
가 ,
발 전
▁철 저
▁규 제
▁그녀 의
( 19
모 를
서 에
▁포 인트
▁전 남
▁엘 리
▁파 이
▁충 돌
▁탓 에
▁못 해
사 카
즈 의
e a
직 을
( ?
구 나
▁ 붕
가 족
▁연 계
자 들에게
▁단 지
F F
적 이다.
▁변 신
▁목 숨
▁ 균
▁무 료
▁이 건
▁임 시
▁사 냥
▁보 이고
▁부 상
ar t
▁ 찌
▁확 산
▁ he
▁비 핵
표 를
▁대표 가
기 지
▁비 상
량 의
▁외 부
5 4
동 이
▁미 션
용 으로
ik i
8 4
금 은
▁선 임
로 그
▁탈 락
▁예 비
▁공 무원
▁모 아
▁ 콤
▁회 장은
▁ 킹
▁200 3년
▁ 탱
었 고
e c
▁조 종
▁때문에 ,
▁느 껴
시 오
▁폐 지
▁페이스 북
점 에
올 림픽
▁조 치
▁의 무
▁' 201
▁사 기
방 에
일 러
었 을
류 를
▁체 포
▁편 의
V P
서 의
- 02
% )
재 판
▁포 켓몬
▁김 정
국 을
▁당 장
' 와
▁집 단
▁반 대로
▁유튜 브
▁" 대
이었 다.<|endoftext|>
로 드
▁발표 한
▁경 상
▁본 래
▁유 도
신 은
▁얻 어
로 도
대 와
북 도
▁사이 트
일 의
▁시 내
워 크
▁인 기를
세 의
▁입 학
▁ 첨
▁2 루
( )<|endoftext|>
디 아
▁소 방
▁분류: 19
- -
▁전 년
스 카
▁북한 이
▁이 내
▁서비 스를
형 이
▁벗 어나
님 이
5 2
치 게
마 의
문 학
▁타 카
▁먹 고
▁' 아
▁최 대한
▁타이 틀
주 민
▁무 장
▁물 러
▁주 말
▁카 페
▁이 들의
▁자 격
비 는
▁등장 한
동 의
▁v s
▁대 단
▁기존 의
▁저 항
▁내 에서
▁ 캡
▁트위 터
임 이
▁가 득
재 를
▁동 원
▁한편 ,
▁모 르는
▁모 바일
▁게 시
락 을
▁최초 의
▁아니 고
▁유일 하게
▁않는 다.<|endoftext|>
▁지하 철
▁15 0
▁무 리
▁지원 을
▁요 즘
O N
▁소 년
9 1
▁말 해
▁아 는
▁클 럽
▁고 등학교
▁201 4
▁영 입
▁ 댓
ight =
▁상태 로
문 은
▁보 이지
▁보여 준
▁권 한
▁먹 는
시키 고
▁경찰 에
▁레 드
▁인 권
▁긍 정
소 에
▁파 트
▁뿐 만
▁매 일
▁ 쥐
▁ 춘
▁발표 했다.
I I
▁줄 어들
합 니다.<|endoftext|>
식 에
▁오 프
줬 다.
▁그 만
요 ?
▁집 에
▁ 켄
▁3 7
구 로
' 과
▁무 너
사 랑
협 의
( M
▁뉴 스
화 ,
▁라이 브
▁ 르
▁몰 아
▁간 단
▁요 리
화 와
▁바 른
▁상황 에
▁표 기
▁싸 움
▁내용 은
▁등 과
▁가까 이
▁스 위
▁아 베
관 의
전 은
▁하나 로
w iki
▁특 이
받 아
▁관 측
중 국
사 이
▁ 떡
: 00
▁즉 ,
▁경 고
▁부분 이
프 가
▁설 득
▁다음 과
▁가 로
▁싸 우
▁적극 적으로
라 .
철 도
것 도
패 를
▁장관 은
▁들 여
▁우 수
▁열 심히
▁19 2
▁보 낸
▁후 속
피 아
▁중소 기업
▁복 지
▁위 의
▁4 8
▁대통령 과
트 라
▁임 대
▁대 학교
▁했 다고
▁눈 을
ou r
▁몇 몇
▁마 침
▁202 0년
나 와
지 법
▁이 걸
▁무 조건
피 스
▁팀 의
▁ 셋
▁누 군
겠 다.
쪽 에
▁신 설
▁자유 한국당
연 을
▁ 텐
▁커 뮤
▁성 과
I N
▁무엇 보다
( T
▁하 였
안 은
시 민
▁뜻 을
복 을
중 한
s e
관 련
▁ 윈
▁탄 핵
소 는
▁밝혔 다.<|endoftext|>
▁지역 의
▁살 펴
공 원
% 의
었 지만
조 합
권 에
시 ,
▁규모 의
▁한 글
범 죄
사 인
( 약
▁아프 리카
실 에
렀 다.
▁I n
널 드
( A
▁구 분
▁프리 미
▁사건 이
▁지 명
▁상대 적으로
시 험
▁일 자리
▁등 급
구 ,
Z 00
가 고
▁가 리
▁ 멘
▁보 아
▁싫 어
▁탑 재
▁불 리는
선 에
포 를
든 지
▁그 에
서 ,
▁중 반
▁조 사를
▁동 맹
연 히
함 이
▁마 리
▁갖 추
▁광 역
▁긴 급
▁책 임을
석 은
▁거 듭
무 라
▁사용 자가
▁종 종
▁목 록
었 다는
▁지 시
▁창 업
▁감독 이
메 달
▁에 이
카 오
▁디지 털
▁워 낙
) :
물 의
▁발 휘
▁찾 는
국 에
A N
▁보 상
▁많 았
▁스테 이지
▁필 수
범 한
▁나타 난
ag e
▁해 군
▁혜 택
▁개 입
▁연 주
px ;
6 1
▁대 기업
▁잡 고
▁명 이
▁봐 도
▁라 디오
▁생각 을
▁- <|endoftext|>
▁노 출
▁이름 으로
▁이 익
▁개 막
▁미 세
▁ 들이
▁여 야
▁속 도
▁이용 한
실 이
▁치 명
부 ,
▁아 군
▁추 측
▁생각 이
▁신 체
▁작 용
사 항
일 은
시켰 다.
▁" 내
▁계획 을
8 3
▁무 사
페 이
▁심각 한
▁" 미
▁병 원
▁애초 에
래 도
상 태
" 라는
장 애
▁3 9
▁문제 로
▁가 깝
2 ,
▁다 운
▁카 운
싱 턴
▁1 개
▁주 소
▁4 개
이 지만,
▁문 학
행 정
마 가
등 급
▁흐 름
에게 서
레 인
▁댓 글
▁H P
스 탄
▁자 살
▁파 견
▁사람 들
크 가
▁ 핀
▁걸 어
▁ 댄
▁들어 간
▁인터뷰 에서
▁소 통
▁할 머니
▁굳 이
▁ 훈
목 을
▁ 객
▁빼 앗
▁경 향
▁( 19
▁그 저
▁바 란
▁시 나
▁수준 의
▁나 섰다.
▁특 유의
▁효 율
▁주요 기사
▁누 가
(... )<|endoftext|>
▁편 집
▁단순 히
▁싶 어
각 을
000 만
▁오 리
▁이유 가
▁에 어
▁안 내
p l
▁사 법
▁끝 내
다' 고
▁ 록
시 스템
▁대 답
▁오 픈
부 모
▁능 력이
▁ 텔레
▁붉 은
▁곳 에
보 호
식 의
▁동 의
▁A P
하 니
ac k
▁관계 를
▁ 큐
▁ 닥
/S F<|endoftext|>
▁연 방
i f
▁전해 졌다.
w idth=
▁여담 으로
이 야
▁마 이크
명 과
▁말 고
▁나오 지
F C
이 상
▁협 상
▁우리 의
▁(N P
▁옮 겨
포 르
▁셈 이다.
했 다
면 을
리 면서
▁관광 객
▁" 우
▁히 어로
수 와
▁혼 란
▁이 기
▁자 본
악 의
언 을
9 7
에게 도
▁보여 주는
▁국가 대표
▁무 한
▁일 러
D O
경 영
▁떠 올
▁예 측
축 구
▁없 어서
▁스 코
사 키
시 안
▁안 에서
▁업 그
우 를
▁보 였
' 이라고
▁ 왔다.
▁ ?
▁그 걸
골 을
▁데 이
▁줄 어
▁점 검
심 이
▁엔 진
▁물 건
▁ 융
▁지속 적으로
▁카 드를
' s
▁육 군
▁이 명
크 의
▁예 고
▁깊 은
▁노 조
드 에
재 가
조 정
스 키
▁width= 20
▁공 략
산 이
▁음 반
보 가
8 2
▁마 르
▁탄 생
▁ 엉
▁동 영
단 지
▁범 위
▁살아 남
▁힘 이
▁ 겹
기 준
지 컬
T A
▁ 렌
전 으로
화 로
▁네 이버
▁위 로
기 <|endoftext|>
▁ 값
▁내 는
▁"이 번
동 생
▁올 랐다.
▁떨어 져
▁점 은
▁과 정을
▁개 그
▁주 력
▁회 피
▁장 난
▁ 놈
요 <|endoftext|>
▁애 플
▁ 엠
자동 차
▁그 야말로
a b
▁1 위를
▁진 화
▁방 해
▁이 정
▁2 회
타 가
식 은
대 상
▁들어 서
▁비교 적
▁P C
▁다 크
재 단
중 학교
너 스
▁수도 권
1 ,
▁이 다.
▁제 가
▁청 구
▁콘 텐츠
으로 도
▁있 습니다.<|endoftext|>
▁외 에
▁개 의
나 를
▁요 시
▁못 할
▁" 한
▁고 급
▁ =
▁ 묵
▁밀 어
▁200 1년
▁ 섭
▁내 세
▁트 리
즈 를
▁전 력
▁어 둠
미 의
▁데 려
▁새 벽
지 구
▁올 린
▁맡 은
▁손 에
▁하 며,
구 조
▁입 은
함 으로써
▁평 양
▁5 5
▁내 에
▁개 통
▁한 다
▁짧 은
▁ 혀
공 화
▁7 5
▁연 예
▁아 나
▁어 울
▁후 ,
▁형태 로
▁3 ,
▁것 .<|endoftext|>
랫 폼
협 력
▁아 동
▁연 간
▁기본 적으로
▁공 부
▁미 술
드 와
▁사이 에서
▁지 닌
인 들의
▁착 용
▁김 종
▁2 위
▁" 사
▁이 쪽
우 의
▁가 치
▁질 문에
성 장
▁영 역
뿐 만
니 어
▁암 살
▁부 대
수 수
▁답 변
면서 도
▁인 류
▁임 금
▁있어 야
.5 %
▁이 슬
가 에
인 에
▁ 턴
했 다가
▁대 폭
▁전망 이다.
▁30 분
▁보 급
률 을
제 한
화 는
▁시 전
▁포 항
▁사용 한
▁모 른
팀 은
미 는
▁성 폭
▁말 한
▁차 이
▁예 방
▁5 개
달 라고
▁특별 한
▁나 의
or t
▁2 .
성 으로
진 다.<|endoftext|>
공 업
▁붙 잡
웨 이
르 의
▁근 데
아 의
▁놀 라
가 능
소 에서
명 한
▁살 고
잖 아
▁BSHO 03
▁쉽 지
소 의
▁야 마
▁기 동
▁오 토
▁최 후
비 전
▁세월 호
학 자
▁그녀 는
과 정
▁브라 질
▁기능 을
발 을
▁N C
▁거 두
지 며
판 에
▁선 호
▁정확 한
▁사 퇴
▁ 킬
▁제외 하면
▁사 장
▁8 CT_000
▁솔 로
▁아 웃
▁이 래
▁연합 뉴스
▁건 너
학 을
능 력
▁그 들의
▁때문 .
▁고 향
▁않 도록
▁체 육
▁패 러
▁자체 는
▁물 어
▁장면 이
▁때 부터
제 도
▁끝 까지
▁순 위
드 라마
선 은
s s
▁반 도
식 품
▁여 의
▁고 대
▁담 은
▁하 는데,
▁등장 한다.
▁높 이
▁ 겁
e w
▁거 대한
동 에
▁일 어난
▁201 3
▁붙 어
다면 ,
세 트
▁ 녀
▁쓰 레
라이 더
▁단 일
▁신 용
야 구
. "<|endoftext|>
점 ,
er s
▁인 생
▁전 사
▁그 만큼
드 ,
마 를
▁되 면서
▁자리 에서
▁공 을
▁ 픽
o g
▁내 고
▁주 거
시 와
▁소 리를
▁받 는다.
리 <|endoftext|>
▁팀 이
▁의미 가
하는 데,
케 팅
▁막 아
▁# <|endoftext|>
안 의
▁공 사
▁소 프트
바 람
▁자 원
연 금
▁모습 으로
▁ )<|endoftext|>
권 은
계 는
▁4 2
안 보
▁김 태
▁받 게
▁왼 쪽
) 으로
▁대해서 도
관 에
__02 /NNG<|endoftext|>
레이 션
▁ 콩
▁자 율
▁4 3
▁수 술
종 합
▁뒤 집
▁탑 승
▁스 케
▁인간 의
되 자
▁배 출
▁ 덴
▁플 래
▁1 억
▁ 펀
▁생각 하면
or d
▁부 진
테 인
비 의
▁거 론
▁흔 히
▁모 여
▁크 다.
▁분위 기
▁전 주
▁거 기에
고 가
터 를
▁영 혼
공 을
▁원 정
해 온
수 에
▁다만 ,
짜 리
▁본 인의
담 을
▁아무 런
위원 장
▁출 판
▁위 안
▁ 셰
▁편 성
▁4 4
h i
k r
▁무 게
▁오 버
▁흘 러
파 크
▁부 하
지 검
▁( S
▁만들어 진
법 인
만 은
▁계 산
▁접 촉
스 턴
▁듯 .
군 에
▁1 .
▁정 기
▁내 내
} }
▁성 남
병 을
▁인 기가
- 3
하였 고,
▁지역 에
▁ 춤
설 을
▁멀 리
▁반응 을
말 을
▁6 5
되었 고,
▁A I
▁금 액
상 위
8 6
▁사 령
▁해 제
▁ 밸
▁브 리
▁커 피
▁워 싱턴
▁생 겨
▁2 만
▁의 외로
▁ 낭
▁ ruby
▁위 기
▁무 대
터 리
▁가능 성을
▁위 하여
왕 의
▁겨 우
▁대법 원
▁되 기
▁합 격
씨 와
▁상 호
시 리즈
▁초 청
▁방 안
▁표 준
▁출 범
▁극 복
▁일 자
▁자 리에
▁많 았다.
부 (
▁ km
an t
▁기 울
▁의 하면
관 ,
▁선 배
u e
▁따르면 ,
평 양
y le
▁이 전에
세 로
곳 에
되 고,
▁ 덩
▁ 탁
▁있 으나
▁정 체
▁즉 시
▁공 통
▁검 색
▁확실 히
on t
▁심 리
A T
▁일 제
▁ 01
프 라
▁ 며
▁캐 나다
▁이 라는
▁길 이
▁머 리를
▁수 십
▁세 워
▁넘 겨
▁하 드
미 래
즈 가
▁서울 대
▁부 르는
▁통 상
▁채 택
물 로
▁만들 었다.
▁머 물
▁실 행
▁일러 스트
자 .<|endoftext|>
▁이것 은
▁해 주
( 3
▁총 리
.c om
▁3 차
▁올라 가
ou nd
▁모 집
용 이
사 령
▁포 지션
▁이야 기가
▁계 기로
▁마 주
▁화 려
▁준 다.
p s
▁이후 로
▁의 식
하면서 도
▁응 답
it y
▁곳 이
▁수준 으로
래 프트
▁테 마
키 의
▁늘 어난
. 12
▁때문 이다.<|endoftext|>
~ 3
▁그것 을
▁자 금
아 파트
▁간 의
베 이
▁소 화
▁할 인
제 품
배 우
▁종 족
▁여 부를
P G
▁호 소
유 가
▁로 드
▁이른 바
▁삼성 전
i z
끼 리
▁1 :
월 드
▁진 영
▁했 으나
▁복 잡
▁목 적으로
▁많 다.<|endoftext|>
▁응 원
▁스페 인
▁충 청
뱅 크
▁방법 을
▁플 랫폼
▁활성 화
▁거 절
혔 다.
▁주 지
▁서 버
▁맞 고
▁201 2
▁정책 을
▁에 너
▁" 최
▁포함 해
▁수 치
됐 다.<|endoftext|>
현 재
지 라
▁풀 어
▁마 시
/N P<|endoftext|>
▁득 점
▁" 어
소 녀
▁비 서
i th
▁되 고,
했 습니다.
▁관 람
▁시리즈 의
▁갖 춘
▁방송 된
▁생각 하는
▁아니 냐는
률 은
민 이
자 원
el l
계 약
럭 시
스 포츠
▁동 문
특별 시
▁프로 듀
민 의
▁가 을
상 과
▁건 담
i ve
▁출 입
▁낮 아
▁발 굴
▁수 수
모 리
u p
▁없 기
놓 은
▁사 격
▁점 령
▁미 친
답 게
▁하 던
( P
끄 는
▁ 란
▁주 차
▁4 00
부 에서
▁영 상을
i st
다 이
용 을
▁링 크
프 레
▁단 ,
▁충 남
▁그 럴
▁12 0
▁창 출
오 프
▁width= 30
▁게 이
▁올 리
▁저 는
▁붕 괴
▁경 계
▁한 때
▁알 렉
▁어 찌
▁오 리지
▁사람 들의
▁후보 는
▁언 어
▁시 코
▁다 름
▁뒤 로
▁박 정
▁이 라
▁운영 하는
▁자 가
▁생 성
하고 자
▁그 게
▁나 를
▁100 %
▁결 코
▁뮤 직
브 리
▁마 사
.... ..
▁진 술
기 록
▁ 폼
트 롤
▁인 지
▁타 임
▁199 9년
▁심 사
당 에
▁얼굴 을
터 가
님 의
기 구
▁특 검
▁폐 쇄
일 로
E D
▁이것 이
▁대 화를
▁" 오
까지 도
▁코 너
세 에
▁정도 .
▁공 산
▁콘 서
▁수 집
▁교 환
▁만들 고
독 교
▁개 방
▁이후 에
▁자 치
▁서울 중앙
▁보 안
보다 도
▁아름 다운
▁감독 의
▁구 단
) '
해 ,
법 이
▁생 기
▁10 %
마 스
▁부족 한
▁확인 할
▁얻 은
원 들이
▁나 쁘
▁커뮤 니티
▁신 인
/EC <|endoftext|>
형 의
되 기도
▁황 금
▁199 8년
역 이
▁해 소
▁이 스
터 테인
▁사실 은
▁포 르
▁예 전
자 유
▁역 전
▁더 블
▁방향 으로
n e
있 다.<|endoftext|>
▁전 차
▁초 등학교
론 이
모 가
▁없 지만
▁의견 이
▁드 라이
▁K IA
공 간
▁없 게
▁R e
사 용
. 11
▁대 우
▁생 겼
▁통 해서
인 들은
▁갤 러
▁비 록
▁부 과
▁도 널드
트 에
▁4 6
▁* *
▁쪽 으로
9 4
▁요 소
▁곧 바로
▁S NS
▁메이 저
하 의
▁최 우
▁기 부
▁이 중
에서 만
▁실 현
▁계 약을
트 와
여 자
▁주 최
대 사
▁거 야
트 ,
세 는
▁아 닐
연 이
세 이
주 인
.2 %
▁돌아 온
▁달 아
▁추 락
▁없 고,
. "
▁5 2
▁아니라 ,
망 을
석 의
부 장
▁4 7
▁쉬 운
해 주는
모 델
▁삼성 전자
회의 에서
▁가능 성도
▁동 네
P C
▁ 헨
▁삶 을
트 워크
▁캠 페
▁두 려
사 이트
▁법 정
▁ 끈
▁떨어 지는
▁필 리
▁한 마
▁활 발
▁김 동
▁밀 려
▁미 드
▁맞 은
▁해당 하는
만 원을
▁본격 적으로
l l
w w
▁시작 으로
함 에
▁교 사
▁이번 에
▁맞 이
▁의 뢰
▁연 재
▁대 만
▁시나 리오
▁국회 에서
▁뒤 를
상 ,
▁평 창
치 기
주 ,
책 을
▁수 립
▁장 갑
신 문
▁아 우
공 동
하 시
▁이슬 람
▁각 성
▁사람 들을
▁일반 적인
해 졌
사 람
▁4 1
▁1 번
▁자 료를
받 을
▁ 래
되 며,
▁강원 도
팀 이
치 에
▁의 도
▁조 용
▁ x
미 사일
▁당 초
▁행 위
▁같 다.<|endoftext|>
▁오른 쪽
라 리
프 리
o b
▁피해 자
▁했 는데
▁식 품
워 서
▁선 출
▁대 처
유 를
▁마 감
▁기 원
▁어 깨
▁6 개월
무 기
▁제외 하고
▁조 각
▁ 족
▁태어 남
▁( ,
▁죽 을
▁않 기
▁때 의
▁마음 이
전 거
▁종 로
▁당 한
▁1 조
류 가
줘 야
개 가
이 너
▁y ou
법 에
재 로
었 는데
이 므로
▁미국 이
▁이 슈
▁해 양
▁대 륙
▁결과 가
▁것 "
( B
▁빠 진
▁ |
▁프로그램 을
▁책 을
▁지역 에서
▁학생 들이
▁했 고,
▁연 락
▁재 료
▁아 빠
/E F
▁교 과
▁적 의
▁전 원
▁데미 지
▁지 식
진 ,
▁버 그
르 기
키 가
▁성 인
▁집 을
▁BT AA00
▁BS AA00
▁제 압
▁출 석
▁조 치를
▁패 션
▁내 린
▁등 도
▁에 이스
이 치
▁된 다는
삼 성
프 의
후 보
▁2 번
▁한 미
▁흡 수
▁199 7년
▁경 기가
▁나 이트
▁점 차
▁선 두
▁크 루
▁스 카
▁" (
▁예 능
▁다 섯
. 10
▁분위 기를
▁올 렸다.
▁방침 이다.
▁우려 가
▁명 확
▁ 찰
▁목숨 을
( K
증 권
세 요
자 금
▁막 기
주 기
▁입 을
▁하나 가
제 와
▁새 롭게
▁의혹 을
방 의
" 며
▁업 계
▁나온 다.<|endoftext|>
증 이
▁BTA E02
▁BSA E02
연 맹
▁ ★
▁구 현
▁I S
실 로
on e
▁비중 이
▁ 핑
▁팀 을
로 우
▁위원 장은
▁A 씨는
▁없었 던
▁서 술
▁근 본
▁어렵 다.
A M
공 개
▁이 틀
▁4 9
단 과
▁변호 사
▁신 문
해 가
▁바 르
하 라고
▁위 에서
▁현재 의
▁보여 준다.
E N
▁등 판
▁지 니
▁폭 행
면 에
낸 다.
진 흥
▁발 행
▁멀 티
산 의
호 ,
▁넣 어
▁강 하게
▁수 업
h an
▁평 범한
연구 소
서비 스
▁속 성
▁공개 된
▁들어 오
방 이
▁수 사를
버 리는
A C
▁서 브
▁- 3
경 이
▁기록 을
▁이 민
▁아직 도
운 영
▁베이 징
웨 어
P S
▁참조 .<|endoftext|>
자 도
▁여 겨
e e
토 리
역 으로
▁이 /MM<|endoftext|>
령 을
▁물 을
라 와
▁발언 을
▁말 도
▁와 서
▁페 르
적 의
▁우승 을
힌 다.
▁행 동을
a in
▁브 레이
▁모두 가
▁육 성
▁대변 인은
▁곳 에서
r y
▁테 스트
▁디 스
! "
▁끌 고
▁작 전
▁연 극
해서 는
▁오리지 널
▁맡 고
역 에서
▁재 생
코 리아
▁내용 의
▁중 학교
▁ 낼
▁중 구
다 보니
인 에게
기 까지
단 으로
▁50 %
배 를
홈 런
격 한
▁취 재
러 운
▁대 다
▁런 던
▁담 긴
. 01
▁가 고
하지 는
▁날 려
O R
▁모 자
검 사
▁he ight=
차 에
대 문
▁해 체
실 한
▁생 물
▁이 행
A S
E C
받 았다.
▁그 레이
▁걸 려
인 도
▁의미 를
▁세 상을
▁이상 이
▁통 제
▁악 마
▁골 프
▁수 영
▁좋 다.<|endoftext|>
▁다 수
▁속 도가
▁마지막 으로
▁나 쁜
▁입 주
▁온 갖
▁되 돌
▁마 크
▁특성 상
▁몰 려
▁고 발
화 한
타 는
▁부분 을
▁수 리
▁종 목
▁있었 지만
▁일 상
▁시 티
▁사 쿠
▁한 다"며
▁차단 )
▁알 았
판 이
▁' 미
▁시작 된
▁목표 로
연구 원
▁문제 에
▁주 제로
루 가
▁한국 에
▁말 할
▁20 대
( 200
▁전 공
▁구성 된
▁ 텍
▁트 레이
▁10 시
▁재 개
▁후 원
▁선수 들이
임 에도
▁ –
기 획
▁ \
▁ 릴
무 현
▁이 론
▁자신 에게
시 브
▁창 원
▁U +
▁진 보
▁테 이
모 로
.1 %
▁모 험
l y
▁마 케팅
▁조 지
▁걸 린
▁환 영
▁고 속
▁보 컬
▁받아 들이
때 문에
▁ 02
▁고 교
▁눈 이
총 리
오 카
▁없 애
아 웃
▁이 들을
▁파 리
▁옆 에
▁진행 된
▁조 절
하 므로
▁관계 가
▁상태 가
선 으로
▁있는 지
▁도 발
▁ 옹
▁유 로
3 00
▁사 우
리 자
▁3 .
▁그것 이
▁유 용
▁편 .
u b
시 스
▁자 이
▁ 쇠
▁미세 먼
▁차 원에서
▁F I
▁부분 은
순 실
▁" 김
▁충 북
▁쇼 핑
▁모 으
▁아 사
▁농 업
즈 는
하려 면
▁동일 한
▁피 아
▁임 무
▁했 다는
▁뒤 ,
▁구 글
▁E X
▁액 션
음 악
▁수 호
▁회 장이
▁무 력
장 한
▁치 고
▁체 력이
-00 4
▁폭 탄
▁나 갈
▁위 기에
▁주 어
▁성 우는
▁공 감
▁경찰 이
▁기업 의
▁4 차
니 ,
회 ,
▁질 문
요 ?<|endoftext|>
▁정확 히
▁넘 게
▁목소 리가
카 가
▁적 지
▁이미 지
▁부 품
▁수 학
▁꺼 내
관 으로
▁후보 가
▁정 착
색 을
▁상황 이다.
.3 %
디 션
지 능
▁원 을
▁신 분
▁김 대
▁자 극
▁3 대
로 스
▁전 술
{ {
▁선수 가
▁L v
▁6 4
▁둘 째
▁신 속
프 는
살 아
▁당 황
▁환 자
▁들어 가는
▁" 우리
▁일 종의
▁사 드
▁데미 지를
주 에
▁마 친
▁사랑 을
▁창 조
의 원
▁화 염
▁자신 은
b o
-00 000
▁두 번째
▁다르 다.
다 (
▁작 업을
▁김 현
o. kr
▁조 기
▁19 1
▁병 사
▁말 은
な い
▁않 고,
.4 %
상 황
▁이끌 어
▁감 정
코 의
▁집 계
아 시아
▁것 인지
▁그것 은
▁기 상
▁제품 을
▁' 대
▁추 적
▁ 팩
됐 다고
천 시
해 졌다.
▁학 습
▁치 열
▁분명 히
해 져
▁부 른
▁드러 나
▁목소 리를
▁김 민
▁파트 너
디 언
▁곳 은
▁수 /NNB<|endoftext|>
▁앉 아
▁넥 센
데 미
2 000
▁구체 적인
▁ 쾌
▁세 트
▁라 이트
체 에
▁미국 과
▁가격 이
▁증 명
▁백 악
/ IC
▁남 녀
곳 에서
중 인
여 야
▁대 장
향 을
▁전 후
▁" 북한
선 에서
크 래프트
워 드
법 은
▁인 증
▁이 웃
▁때 가
란 히
▁생활 을
▁대상 이
일 랜드
버 그
▁오 스트
▁패 치
유 럽
▁취 약
▁갤 럭시
▁그렇 다고
르 가
▁어려 워
▁공 모
소 한
원 <|endoftext|>
자 <|endoftext|>
▁성 과를
▁것 이라
▁2 배
공 단
검 찰
니 가
▁대 립
▁ 으
▁컨 셉
▁뭔 가
효 과
하기 에
▁ 냈다.
▁고 유
어 <|endoftext|>
▁그 들은
▁극 단
루 를
▁' 그
▁노래 를
글 랜드
무 역
▁ 닌
▁20 %
악 한
▁먹 을
투 표
가 락
톨 릭
▁감 시
▁떠 난
▁추 구
▁스 튜
▁언제 나
▁후 쿠
▁호 흡
대 출
▁김 재
편 의
S <|endoftext|>
▁만 남
( D
▁그렇 지
▁한국 인
▁했 을
▁ 03
▁납 치
호 텔
▁이제 는
청 이
▁전 직
▁( 1
▁이 성
▁불 을
▁관련 한
▁S p
▁기록 한
A L
▁전 부터
해 보
내 기
형 은
오 를
▁거 대
▁사람 도
( L
▁가 동
▁미 군
▁이유 를
I O
환 을
▁C J
? "
▁생 태
▁또한 ,
실 험
▁독 자
▁발 달
▁9 시
▁주 연
▁올 랐
▁아 울
결 과
미 야
▁했 지만,
▁참석 한
▁요구 하는
위원회 는
▁아 메
▁KB O
장 <|endoftext|>
▁아 스
▁때 에는
▁무 서
l d
▁ 캔
▁작 동
▁사이 의
▁ ー
▁199 6년
▁중 에서도
▁골 드
▁기자회견 을
▁씨 가
등 을
▁미 디어
아 ,
▁ 쟁
▁인 용
▁과 연
▁이상 을
평 화
▁상 상
리아 의
▁컨 트롤
▁파 이어
▁199 5년
▁오 오
▁BSEO 02
▁BTEO 02
▁정 비
▁반 박
속 도
.6 %
▁의 존
▁2 층
달 라
▁3 회
르 지
▁아니 지만
서 로
▁소 형
▁처음 에는
▁조 심
▁" 정
▁" 전
가 포르
▁저 격
리 케
▁ 슨
or e
/E T
▁네 덜
▁개 조
▁201 0
▁기 재
▁기반 으로
▁유 출
▁하나 를
▁에 스
▁최저 임금
▁않 지만
▁않았 다.<|endoftext|>
▁이후 에는
▁야 당
종 을
▁" 당
▁유 력
적 은
▁잇 따
▁플 라
직 원
▁" 국
양 이
소 리
▁3 위
액 은
▁실 무
▁보 관
평 을
▁선 박
▁꽤 나
.8 %
▁제공 하는
▁결 합
▁들 은
▁대체 로
국 에서
▁교 황
▁옵 션
시간 이
▁몰 래
겨 진
▁점 프
.7 %
▁상 담
▁공 직
환 이
처 리
▁최 악의
▁코 믹
▁모 티브
▁재 산
통 합
▁유 래
▁막 을
▁S h
심 의
▁있 겠
▁30 %
났 다.<|endoftext|>
▁원 인
/ X
▁최 다
실 ,
' 도
▁통 계
▁상대 가
▁이용 할
현 대
종 이
▁st yle
부 산
한 의
▁경 유
▁로 켓
~ 4
▁시스템 을
▁ 즈
▁분류: 미
▁상 업
▁넘 어가
▁재 능
번 에
▁전 까지
스 팅
▁세 이
베 르
▁것이 었다.
▁베 이스
▁내 지
▁존재 한다.
▁2 0년
▁스 티
▁화 학
▁창 작
들 ,
▁매 각
▁노 인
▁고 백
▁5 9
▁한 나라
▁궁 극
▁지 자
▁일반 적으로
마 리
▁향 상
▁피 의
▁가능 하다.<|endoftext|>
▁접 수
. /SF<|endoftext|>
d ing
▁검 증
▁대 리
▁완 화
자 료
수 석
▁파 일
▁한국 은
▁일 방
▁정 지
ht t
▁ re
▁강 경
▁변 화를
▁집 에서
데 이
▁시 범
린 이
건 이
쟁 이
▁가 야
오 의
라 엘
▁나 아가
▁몸 에
DO 02
▁오 랫
▁확률 로
▁스 웨
▁1 층
▁기 회
▁마음 에
▁개 별
▁처음 부터
주 차
▁총 리는
· 일
권 에서
▁만들 기
▁참여 한
▁ 빵
▁기 독교
▁전 형
▁드러 났다.
▁201 1
▁한국 어
▁승 강
▁당 사
고 의
▁보 완
▁동 작
▁노 력을
▁비판 했다.
▁국민의 당
▁무 관
▁입 력
버 트
실 점
▁이명 박
▁이 같이
▁쓰 지
린 다.<|endoftext|>
▁승 객
V E
▁대표 팀
.9 %
▁복 합
▁그럼 에도
버 렸다.
였 고,
▁민주 주의
▁용 의
▁5 4
스트 로
조 직
▁축 소
▁진 정한
▁보면 ,
▁동 반
▁재판 부는
버 리
▁아 야
▁충 전
▁합 동
고 속도로
▁박 사
정 당
▁배 제
▁가 해
구 와
▁이 영
물 에
▁2017 -
화 점
▁폐 기
▁하 다가
▁( IP
-00 5
▁있었 고,
건 의
▁협 박
주 일
C C
▁나 카
여 명이
버 렸
▁뽑 아
기 인
▁' 제
▁눈 길을
나 미
▁이 종
▁전 라
비 로
▁아무 래도
지 사
▁페 이
= "
▁하 더라도
" 는
시 한
▁어 떠
봐 야
관 과
박 물
▁호 주
전 략
▁합 쳐
국 과
▁천 안
▁도 움
▁없 다"며
지 마
즈 키
군 과
부 대
G M
▁신 한
I D
격 이
▁너무 나
▁원내대표 는
▁하 위
▁블 록
▁모습 은
▁서 서
▁살 짝
▁밖 으로
▁ 힌
▁필요 하다.
▁이어 지는
▁현 행
. 03
▁공 장
▁이 라고
▁업그 레이드
현 의
민 은
▁의 지를
재 는
하 러
▁체 계
스 킬
▁철도 역
▁서울 특별시
▁시 위
▁인 하
메 이
치 며
▁가 상
▁방송 을
와 서
▁서 초
▁소비 자
고 도
▁있 음을
▁흥 행
▁f or
▁프리미 엄
▁사건 의
A +
▁넓 은
e at
▁5 6
▁상태 다.
▁저 장
▁항 의
구 청
▁때 려
력 도
▁자 기가
▁정 황
▁다 리
▁방 지
체 로
병 이
심 한
▁활 약을
▁그 다
▁않는 다는
토 가
라 <|endoftext|>
▁이 처럼
내 며
▁자 전거
▁하 다
활 동을
! wiki
r ad
~ 19
▁다행 히
▁대 하여
▁style ="
▁4 ,
▁작품 을
하자 면
정 규
로 로
집 을
▁시 달
▁제 정
▁벌 어진
▁ 둥
▁걸 로
부 문
in d
기 만
▁지 분
▁널 리
I S
▁선생 님
▁적 어도
▁ 닫
았 을
▁적 발
▁딱 히
▁행 사를
▁이 지
▁따 뜻
▁V S
▁선 진
▁공 무
▁뿐 이다.
▁대통령 을
▁갈 수록
▁매 달
네 시아
▁계속 해서
먹 는
▁방법 이
지 <|endoftext|>
▁ 쥬
▁' 인
▁궁 금
카 의
▁2 :
▁터 키
요 ,
▁이상 한
dd dd
▁집 권
▁관 통
▁같 아
) .<|endoftext|>
(이 하
▁캐릭터 가
U N
▁아이 를
I T
2 <|endoftext|>
파 를
조 는
혁 신
▁일 찍
▁소 식을
▁일 시
▁버 티
p h
경 은
▁오랫 동안
▁스페 셜
▁들어 온
분 쯤
▁합 니다.
지 인
▁아무 도
▁상 반기
▁않았 던
▁오 바
o ve
영 은
당 에서
y s
▁ 냈
▁유 키
▁시 상
u re
▁어 지
▁양 산
거 리가
▁지 어
▁5 1
▁T h
g e
루 스
▁ 죠
▁누 적
▁조금 씩
현 은
▁돌아 오
▁부 처
▁k t
▁방 사
▁없 음
▁옛 날
▁히 트
▁ 곽
▁익 숙
▁다니 는
양 의
이라 서
▁비 디오
▁본 인은
▁' 사
▁약 한
토 를
▁ i
▁스 프
▁양 성
▁대학 생
되었 으며,
▁ 폰
되었 고
▁꿈 을
것 이
▁경 비
▁본 선
감 한
타 이
▁비핵 화
▁적 도
▁가 치를
▁악 화
▁지금 도
가 스
▁어 른
했 으나,
▁초반 에
▁레이 저
▁있 으므로
▁미국 은
▁맞 서
▁않아 도
제 ,
a v
▁비 례
게 도
▁손 해
▁개 설
▁반도 체
타 운
▁하나 인
소 로
▁태 어난
(? )
▁한 ·미
▁하 기도
으 려
▁통 화
▁공 천
오 가
▁B l
▁ 까지
▁눈 치
있 던
▁남 부
▁실 천
▁스 펙
▁해 방
▁자 산
자 고
▁베 스트
▁세 력
이 사
▁권 력
▁존재 하는
▁양 국
▁4 대
▁현재 까지
타 의
키 로
▁되 찾
▁결 의
▁붙 여
▁아닌 가
▁세 대
▁여 객
▁3 루
▁로 스
5 000
현 이
▁데 리고
▁뛰 어나
그 래
▁카메 라
▁아울 러
▁결 정을
▁엄청 나게
▁이 주
▁사람 들에게
된 다는
하기 는
▁만 날
화 학
▁심 한
역 ,
▁홀 로
직 한
건 강
▁싱 가포르
지 .
▁법 원
데 스
. 02
▁아 오
▁옷 을
▁영 원
▁형태 의
▁현 상
▁지역 을
지 고,
▁적 에게
+ ./SF<|endoftext|>
였 다고
▁맞 지
마 이
▁좀 비
▁당 신
▁했 다"고
ct ion
O S
▁부 터
코 가
▁ 퓨
▁정도 가
건 축
▁5 3
클 럽
여 행
서 도
▁아니 다.<|endoftext|>
▁판 타
▁한국 에서
▁나 아
▁새 정치
▁떠 오
드 라
▁이 혼
▁화 재
색 이
▁듯 .<|endoftext|>
" ,
▁시 장은
o k
▁예 외
▁해 설
▁못 하게
▁최고 위원
▁그 에게
▁잠 수
▁일 이다.
▁지 옥
/ /
위 키
▁없 다
▁예상 된다.
▁근 육
됐 던
▁카 카오
다" 라며
부 르크
▁합 병
까 지만
▁금 리
A P
통 을
▁199 4년
▁삶 의
▁도 달
” <|endoftext|>
▁저 렴
등 학생
▁A r
▁메 가
AA 000
토 의
i v
▁몸 이
치 와
▁" 한국
▁뮤 지컬
▁듯 하다.
▁지적 이
▁" 다
급 의
물 은
.c o.kr
▁풍 부
▁즐 길
▁인 사를
▁아 라
▁무 효
실 은
액 을
에 ,
▁다음 날
▁유 행
▁점 도
▁M C
기 념
▁축 하
▁마 약
▁귀 족
영 이
▁향 한
▁증 언
▁9 9
( R
▁자체 를
년 간
▁3 만
▁이 끄는
진 과
▁기 회가
▁메 뉴
▁아 시안
▁하나 는
함 과
▁여의 도
▁이후 에도
▁부 사
▁산 하
8 00
▁공 약
▁시 기에
▁" 저
▁터 뜨
▁ 층
n g
▁상 임
▁3 번
▁주변 에
__02 /NNB<|endoftext|>
인 민
▁상 무
▁동 기
▁긴 장
머 리
▁결과 ,
▁버 튼
▁용 인
▁카 오
▁어 차
심 으로
들 이다.
▁평가 가
▁애 매
っ て
▁김 상
▁승 부
▁8 강
▁배 신
▁김 경
▁같 다"고
살 을
▁연 애
▁교육 을
형 으로
았 다고
▁과 도
e st
져 야
▁원 자
▁지금 의
▁S P
▁강 의
▁목소 리
▁대 놓고
▁수 능
▁중 화
▁내 야
▁대 거
▁장 르
▁알 리
▁대 공
▁아니 라고
크 는
▁잡 은
러 가
▁차 기
▁오늘 날
▁언 니
▁수 백
▁분위 기가
하게 도
▁타이 밍
▁밸 런
▁시점 에서
▁사용 한다.
렸 을
▁잠 재
▁기 아
고 속
▁일 대
▁소 리가
▁간 부
▁노 트
▁있었 다고
▁상대 를
▁매 니
1 <|endoftext|>
▁정도 는
양 을
하 긴
역 사
▁G S
▁공 주
▁1 사
▁상대 의
▁공 작
.2 5
/ET M<|endoftext|>
정 과
▁실 종
▁살 려
▁당 일
▁듀 얼
일 리
였 지만
() 을
▁ 롱
▁독 특
▁보 지
~ 200
▁무 기를
▁휴 대
▁게임 의
피 해
▁학 부모
번 호
우 주
씨 에게
▁일 각
▁고 전
기 에는
▁유 우
▁말 로
▁멸 망
▁영 국의
▁명 중
▁마 치고
▁늘 었다.
▁아 쉽
▁지나 치게
▁알 파
▁공개 했다.
▁연 령
▁케 이스
▁업무 를
▁분류: 일본
( 4
▁기술 이
▁귀 국
회의 를
▁형 제
▁찾아 가
▁의 사를
거 리는
▁거 다.
▁원 거리
▁( C
▁중 에는
졌 고,
▁시 리아
▁답 했다.
▁화 이트
▁피 부
▁다음 달
▁"지 난
정 ,
▁달 하는
▁외 모
.0 5
▁5 7
식 에서
▁트 랙
▁그녀 를
미 니
▁대해 선
as s
▁해 명
크 라
▁필리 핀
▁강 요
소 속
▁자 아
▁시작 한다.
▁오 로
i an
주 지
▁8 5
a st
▁3 000
터테인 먼트
림 을
▁적 응
▁말 았다.
▁들어 갔
▁들 었다.
▁일부 러
▁후 에는
▁베 르
▁해 상
▁원래 는
▁발생 하는
▁시 사
▁클 린
연 의
▁필 살
어 .
▁현 장에서
▁건 립
▁코 미
▁가 속
▁죽 이
회 말
았 고,
▁평 생
▁중국 이
해 왔다.
▁역 사를
▁공 군
▁맞 게
▁제 임
▁치 료를
해 지는
· 고
▁ 넷
▁호 남
▁노 무현
▁적 합
▁ on
▁김 기
친 다.
▁일 도
▁세 운
▁유 발
▁검찰 에
▁내 리
▁헤 어
▁빨 간
▁범 행
▁ 랩
▁카 즈
▁그것 도
▁BSA B01
▁BTA B01
▁동 부
▁폭 력
▁동 시
차 의
▁한 일
기 능
▁삼 국
▁계 승
▁용 산
▁사고 가
장 에게
비 ,
▁주 한
치 ,
▁점 이다.
▁리 포
장 도
▁프 란
▁봐 야
명 <|endoftext|>
▁심 판
정부 가
▁오 빠
졌 다고
▁이 거
▁" 여
화 에서는
▁잘못 된
▁단순 한
조 에
▁본격 적인
▁들 을
화 문
▁교 류
▁돌 입
▁곳 으로
▁중 간에
▁심 의
▁적절 한
▁탈 퇴
▁앞 둔
▁치 는
▁어느 정도
▁남 긴
▁입 증
▁봉 사
▁찬 성
▁쓰레 기
문 제
▁찾 은
▁청 주
▁당시 의
전 과
▁6 시
▁소 멸
▁법 적
▁얻 는
▁엑 스
▁견 제
▁법 인
▁ 셔
티 어
전 사
▁ .<|endoftext|>
▁' 한
▁개 헌
e )
▁최 신
3 ,
a th
▁만 났
하여 ,
▁연 말
▁정 면
▁눈 물을
▁생각 하고
▁점 수
▁현 역
▁팀 은
▁5 8
▁피해 가
▁' 무
하 라는
▁I T
▁당시 에는
▁구 청
히 고
관 계를
▁황 제
▁1 .5
는데 도
▁자 는
▁시 장에서
▁Y ou
▁기 체
▁아무 것도
▁ 겐
▁돈 이
▁밴 드
▁취 득
▁추 억
▁10 만
▁사 유
▁둘 이
▁당 부
▁지원 하는
▁와 중에
▁바이 오
렸 던
▁출 장
- 4
▁출신 의
친 구
▁ r
▁동 해
▁가 톨릭
▁보 며
▁김 진
( F
▁주 관
▁차 를
비 와
▁이스 라엘
▁스웨 덴
▁이 르는
▁0 9
▁잃 은
▁그녀 가
▁얼 음
상 품
▁영화 를
▁잡 을
리 나
▁최 선을
봤 다.
▁제 로
▁대부분 이
▁1 시간
▁자신 들의
▁5 000
: :
▁총 괄
▁ 델
전 ,
도 에서
le t
▁사이 버
▁합 리
▁문 자
▁반 란
▁둘러 싼
▁한마 디
▁크 고
왕 이
라 기
▁장애 인
절 한
▁털 어
▁스킬 을
▁또 다시
▁N o
▁6 6
행 위
비 에
방 어
▁단 속
하여 야
▁반면 ,
다(...) .
ar k
▁좌 우
▁소 수
▁경제 적
▁트 레
▁F A
▁초 과
▁확률 이
▁추 격
▁후 지
O D
산 물
▁다 룬
▁ 룰
▁푸 른
약 품
▁테 크
▁마 나
▁신 임
▁여성 의
▁난 민
▁동 남
아 는
▁수 __02/NNB<|endoftext|>
▁진 지
문 재인
▁차지 했다.
테 크
▁드 디어
es s
▁인공 지능
▁199 0년
▁수 를
▁여 성이
▁축 제
▁단 축
는 가
▁상 향
▁오 사카
u d
로서 의
▁보 일
▁커 버
생 명
▁시 는
▁6 개
▁한 /MM<|endoftext|>
국 으로
▁패러 디
둘 러
투 를
가 구
업 계
▁오프 닝
▁극 장판
질 의
▁들 었
화 하는
▁경험 을
▁키 워
▁부 부
▁할 아버
▁드러 난
▁ ×
유 키
▁방법 으로
( G
▁아니 라는
브 라
▁발 음
▁규 칙
▁마이 클
하였 고
▁잡 는
▁들 려
다” 며
pl ay
# <|endoftext|>
▁대 량
▁아 티
▁맡 아
▁와 이
▁정부 와
▁3 개월
▁ 끔
역 에
▁질 병
▁일본 어
트 에서
▁보유 한
다가 ,
▁의원 의
▁' 오
▁6 00
산 시
해 질
▁철 거
▁공 기
▁기업 이
▁200 8
분 간
▁이 시
▁18 0
하 다"며
▁정치 인
▁화 성
▁200 7
▁택 시
▁구 멍
▁게임 이
▁유 기
▁하 반기
▁4 강
▁주 먹
▁개 성
▁이름 의
▁강 릉
늦 게
▁덕 에
▁ 젠
▁전 화를
▁이상 으로
▁보 병
노 총
▁전문가 들은
자 마자
터 의
티 드
▁등 등
▁스타 일
▁어려 움을
▁누구 나
▁경험 이
▁의 결
▁칭 찬
버 린다.
▁데 다
▁레 전
▁미국 에서
▁윌 리
시킨 다.
▁주 기
루 의
마 크
▁주 장을
▁아버 지가
▁장 점
▁얘 기를
해 왔
▁트 로
▁C D
▁미 야
▁ 쿄
▁세계 의
▁FI FA
카 를
▁관 여
리 온
▁편 입
▁별 다른
2 )
공 학
▁서 부
oo d
▁김 용
▁다 녀
▁진 단
▁' 비
▁순 식
▁실 내
▁K 리그
▁말 이다.
▁200 9
동 물
▁가 스
i re
▁소 울
▁' 신
까지 의
케 이
u st
▁한 자
▁불 꽃
▁똑 같은
▁클 리
정상 회담
▁ 료
오 고
▁고려 해
▁추가 된
돼 야
▁자이 언
체 계
▁9 5
억 달러
▁고 령
▁맡 았다.
▁보 존
▁세 부
▁찾 을
▁M A
회 장
경기 에서
있 게
▁0 8
▁후 배
층 의
느 라
▁쓰 이는
▁가 짜
▁무 렵
▁봉 인
▁죽 는
▁신 입
▁보유 하고
▁11 시
▁라이 벌
▁은 근
교 를
▁장 식
▁북한 은
인 터
▁못 한다.
해 준
전 에서는
▁19 0
▁변 화가
▁간 담
▁재 무
이었 지만
▁패 널
▁드 물
▁손 님
▁필 드
▁제 4
희 는
▁그 들이
▁참 전
▁거 리가
▁어차 피
▁정말 로
▁연 관
▁역 임
▁우 수한
▁8 4
▁영업 이익
▁목 격
▁0 7
리 안
▁재 활
기 기
둥 이
6 00
▁모 니
▁지 목
▁접 속
▁안 되는
▁통 보
▁위 기를
▁현 금
력 ,
▁장관 이
▁ い
▁ruby =
~ 5
▁그다 지
▁예 선
e g
되었 던
L C
▁소 식
주 면
▁신 의
▁추 모
__ 03
회 와
▁찾 기
▁풀 이
석 에
▁실제로 는
▁갈 아
▁전체 적으로
▁분 쟁
철 수
▁방문 해
▁청 문
시키 기
연 대
고 한
시 절
▁미래 를
▁혜택 을
미 ,
▁줄어 든
성 한
억원 으로
▁베 어
영 의
▁2 시
▁국가 의
▁세계 에서
인 인
차 량
례 를
▁199 2년
▁괴 롭
▁순식 간에
▁제 이
▁프 린
▁누 리
▁( 199
▁P S
라이 언
▁마침 내
▁성 적을
▁나 가는
한 다"며
▁골 든
▁연 상
▁위험 한
▁3 D
연 한
▁개 시
실 의
졌 던
E S
▁고양 이
BS )
과 ,
족 의
▁초 월
파 가
▁식 민
▁관 할
차 별
▁4 .
▁고 소
▁경 기에
▁ ;
사 들이
▁한 계
oc k
들과 의
▁드 립
▁멈 추
할 때
▁의혹 이
▁러 브
평 균
▁열린 다.
리 우
▁7 시
해 양
▁규모 가
▁사용 해
▁김 씨는
▁융 합
▁사 정
▁녹 음
▁검찰 이
▁불 명
기 에서
▁코 리아
▁ 펴
▁임 신
: //
구 치
▁그 와
▁서 포
▁인 민
▁달 린
d is
- 0
▁습 격
▁절 차를
우 승
▁브리 핑
▁사례 가
▁플 로
▁태 어나
▁스 킨
e <|endoftext|>
▁세계 를
희 가
쇼 핑
조 사를
▁측 정
▁제 약
▁2 50
▁가 구
▁국방 부
▁ 다.<|endoftext|>
▁사 장은
▁비 하면
/X S
▁않아 서
▁부 각
▁허 위
▁이 은
▁연 금
▁시 장에
▁ 00
▁실 력
▁부 상을
▁텔레 비전
▁입장 에서는
▁않 겠
▁믿 고
.0 7
▁분류: 201
▁( M
▁끊 임
▁채 로
▁웃 음을
▁배경 으로
▁레 인
▁나 섰
▁1 심
된 다고
▁16 강
▁위 키
▁주 행
▁없 으면
▁속 도를
▁199 3년
▁직 무
▁나 도
▁S S
▁어떠 한
▁주인공 이
▁일본 에서
였 고
▁사 립
▁커 플
▁대한 항공
▁의 지
▁금 메달
파 로
주 와
소 ,
▁관 찰
▁ 닉
▁보여주 고
▁클 로
▁단 어
▁리 버
▁기 후
▁발 을
▁시간 에
▁첫 번째
▁장면 을
▁되었 고,
생 산
▁증 권
마 는
▁복 수
▁증가 했다.
▁오 염
▁몰 랐
▁부 적
우 ,
▁ 컵
▁적 시
▁5 ,
▁' 고
령 이
마 법
들에게 는
▁기 분
/J X
니 의
▁인도 네시아
▁도 심
까 ?
▁기능 이
판 매
▁시 가
플 러
학 급
▁찍 은
위 ,
▁여러 가지
▁어 두
▁물 고
▁던 져
해 진다.
▁이 나
파 의
▁요 금
▁이미 지를
▁무 산
▁들어 갈
▁물론 ,
▁지 내
▁화 가
께 서
▁보 냈
▁직 장
▁클래 식
지 난
▁통 산
( 전
▁분석 했다.
▁한 참
보 로
▁실 시간
▁지 진
▁치 러
▁안 습
▁결과 는
수 원
▁똑 같이
▁편 이
▁이번 에는
▁중 계
분 야
p er
▁' 가
▁용 병
▁볼 넷
H E
▁시 키
▁느낌 이
▁음 식을
스트 라
액 이
▁세 상
.0 8
▁카 르
▁선 제
▁ is
▁공격 이
▁U S
▁중국 은
▁차지 하는
▁ 웅
회 초
려 야
▁잠 실
▁위 치를
▁공공 기관
정규 직
당 과
▁공연 을
▁감안 하면
▁지 연
▁부담 을
▁결 론
▁가 시
▁출 산
▁남 겨
▁d e
▁' 어
▁3 :
▁난이 도
▁, #
조 리
▁된 다고
셔 널
▁맞 춤
▁중 동
▁있었 고
▁가 치가
터 미널
▁사 로
▁10 여
ig n
▁이용 하는
▁역 으로
▁네덜 란드
▁보 좌
링 을
렬 한
가 며
▁스트 라이
▁수 송
▁아이 디
하 에
방 향
▁던 전
▁외 무
소 송
▁화려 한
▁일으 킨
▁드 는
oo k
▁그래 픽
▁' 공
프로 그램
▁포 스트
과 도
▁적극 적인
▁최근 에는
▁승 인
▁득 표
▁타이 거
보 건
▁학 원
▁토 대로
▁방 식을
랭 크
▁3 연
고 에
▁집 어
▁친 박
▁군 인
조 원
▁서 양
▁자신 과
▁" '
▁대 개
▁여러 분
위원회 가
▁메시 지를
( 현
▁S T
합 의
▁부 서
▁불 교
’ 을
아 를
▁아 들이
( 大
방 에서
▁유 전
학 적
▁이 모
영 업
▁한 동안
. 04
.0 6
.0 9
▁어 서
u c
▁P D
▁쪽 이
▁불 이
▁열 었다.
▁전쟁 을
▁특 허
급 을
▁E U
▁있었 는데
( E
선 언
b er
▁휴 대전
▁가격 은
▁ 펠
▁선 전
▁다 수의
▁끌 려
▁했 고
▁묻 는
▁I I
! "<|endoftext|>
▁주장 하는
▁1 대
▁ ン
▁비 가
책 임
자치 단체
▁녹 색
▁술 을
▁네 트워크
() 에
▁징 계
달 아
( 5
▁10 개
▁일으 키
▁하 니
▁데 스
▁개발 한
▁7 2
히 로
▁무 난
om e
감 은
▁0 4
졌 다는
▁배 달
▁회 장의
▁크 레
▁0 6
▁메 달
▁법무 부
▁회 전
▁잉 글랜드
▁조 언
▁충 격을
판 은
▁후보 로
스티 벌
▁이 수
▁캐릭터 를
m ent
▁시 장의
▁ 템
▁시 야
( N
▁기 습
▁199 1년
▁즉 각
사 <|endoftext|>
▁명 을
▁반응 이
▁S M
국 인
▁건 조
▁대표 의
O C
▁시 장이
살아 있는
▁무 죄
▁데이 비
▁주 장이
▁언급 한
금 리
태 를
▁체 제
하였 으며,
▁급 증
▁이 렇
▁2 사
i x
억 원의
미 술
▁투 어
퍼 스
▁처 치
▁한 강
졌 을
▁ 멍
라 노
▁네 가
로 소
▁비판 을
▁고 생
목 이
▁6 3
교육 청
▁어 째
▁부 작
자 키
▁침 해
▁지 낸
▁경 주
▁자 매
▁조 준
▁성공 했다.
▁실 망
▁여 동생
▁미 안
▁내 렸다.
하 더라도
▁투 명
지 않
등 록
▁활용 해
▁채 권
▁6 8
▁빌 려
▁포 착
▁8 시
▁금 속
▁벌 써
dis play
▁1 루
▁구속 영
▁연 설
▁1 01
▁매 주
B A
대 통령
▁입 단
▁나 간
▁100 만
종 은
▁신 호
▁팬 들의
보 단
▁방 패
▁아니 었
다 란
▁성능 을
/ 32
▁해 금
▁정신 을
▁노 예
▁하 겠
도 우
▁이어 진
▁부 른다.
▁파 란
▁귀 여
▁이것 을
▁되 자
▁타 워
▁그러 자
처 를
▁집 으로
▁싸 우는
▁자연 스럽게
주년 을
▁편 리
▁때문 인지
에 다
습 니
▁시 대의
▁역 을
▁벌 금
레 나
▁담 아
국 ,
▁친 환경
▁홈런 을
▁아이템 을
막 을
▁한국 을
( H
▁올 리는
▁모 른다.
▁이 득
N <|endoftext|>
류 의
▁등장 .
여 성
▁순 수
체 인
▁수준 이다.
텔레 콤
▁며 칠
온 이
파 이
어 져
▁내 보
-00 3
데 다
▁예 약
▁장 악
▁진 정
▁확인 됐다.
올 해
▁이 자
어 요.
▁현대 차
치 료
▁M S
▁스튜 디오
▁없 던
▁좋 을
선 ,
4 00
비 용
▁고 수
▁사용 하면
더 라
곡 을
▁남 쪽
e ar
이트 를
▁관련 기사
공 의
이나 ,
업 이
▁' 스
▁화 물
▁" 일
▁파 이터
▁랜 덤
경 의
▁입 법
/N R
▁사건 에
▁현 상이
▁일본 은
▁안 드로
▁뜨 거운
▁간 호
결 을
▁BTB Z00
▁BSB Z00
▁물 질
티 아
▁모 임
▁거 라고
▁관 중
▁서 구
▁폭 풍
▁광 화문
▁# !wiki
▁방 위
▁유 입
▁오바 마
▁끌어 올
r an
면 적
▁A n
6 ,
▁연 봉
▁방법 은
▁계 기가
프 랑
▁가 계
외 교
▁죽 음을
▁시 의
▁한국 과
이었 으나
으 려고
▁점 유
▁외교 부
r ound
명 )
m er
▁태 풍
▁사 후
▁자 식
▁불가 피
▁존 중
▁마 녀
▁뒤 늦게
▁동안 )
당 히
▁" 공
▁스 카이
▁되 는데
▁훈련 을
▁높 게
▁이 집
권 과
이었 고,
만 ,
▁" 고
▁준비 를
▁부 드
경 에
▁윌리 엄
▁작 가의
▁효과 는
보 스
▁불 거
▁고 성
▁제 국의
▁그 날
▁손 으로
▁있 다"면서
바 닥
▁독특 한
▁# 000
▁다 를
▁분야 에서
▁마 츠
▁부담 이
▁베 네
▁성공 한
▁컬 러
-00 6
박 근혜
▁정 글
▁영향 으로
▁플레이 어가
▁투 쟁
▁width= 100
▁M P
▁수요 가
자 들과
▁한국 당
▁포 스코
▁198 7년
상 공
매 매
▁기 어
▁내 다
등 의
▁북 쪽
▁측 이
질 환
이라 면서
▁모 리
▁분류: 살아있는
▁방 치
' <|endoftext|>
했 는지
▁사라 진
▁ 벼
센터 에서
▁오 해
업 에
▁전 세계
▁한 쪽
▁가 이
▁6 7
▁나 설
▁색 깔
▁집 안
▁음 성
▁(NP _
▁부 채
인 간
▁깊 이
았 다는
리 즘
▁있었 으나
중 공업
▁점 수를
▁빠져 나
대 교
▁회 계
▁부분 에
▁전체 의
▁채 워
속 성
▁아니 었다.
절 을
리 다
었 는데,
▁진 료
▁인 력
▁사고 를
▁198 8년
▁' 나
계 열
s <|endoftext|>
▁식 물
▁5 .
▁새 끼
만으로 도
소 설
목 으로
i al
동 아
▁해 안
온 다.
터 는
편 이
i te
▁제 법
팀 의
▁중 장
▁진 상
스트 를
▁' 전
▁영 양
해 지고
▁단 기
포 가
▁10 대
▁성 립
▁소 요
▁" 앞
▁대 외
D 01
▁북 부
미 디어
▁0 5
혁 명
▁시 장을
▁제임 스
▁실 력을
의 료
▁분류:미 국의
▁관련 ,
행 이
▁있 긴
▁페 이지
▁함 정
▁교 수가
▁ 험
-0000 9
행 한
망 이
▁있었 는데,
-0000 5
▁국내 외
▁철저 히
4 ,
▁인간 이
▁어 든
▁적 대
▁비 율이
▁사무 총
▁가 량
▁카드 가
▁블 로그
▁앞 세
팅 을
▁대 대
지 수
▁2 ~3
▁받아들 여
▁성격 이
▁차 라리
▁재 벌
구 에서
인 권
▁5 ·
▁수 면
바 른
▁두 드
▁코 드
▁메 탈
▁헤 드
▁기록 하며
항 을
▁자리 잡
▁이끌 고
가 운
▁스트 레
코 는
▁더 보기
▁어디 까지
▁파 라
▁이루 어진
선 과
▁상 장
▁공격 력이
▁위 주로
▁착 수
▁이후 의
았 지만
▁무 언
학 의
레 일
R A
▁이어 질
▁유사 한
▁장 수
▁고 속도로
p ort
은행 은
▁그 간
마저 도
서 와
▁8 8
▁것이 란
() 이
▁크 리
군 사
경찰 청
▁비 율
▁판 정
▁사건 은
▁것으로 ,
.0 %
▁매 력
▁2 <|endoftext|>
() 를
▁동 양
▁녀 석
생 의
▁1 명
▁width= 25
▁오 직
ar e
▁아니 냐
▁캠 프
작 을
▁사로 잡
어 요.<|endoftext|>
▁지역 은
▁프 라
▁ 숭
- 10
▁오 지
▁배 려
▁이 대
▁연 대
정부 의
▁문화 재
▁석 유
★ ★
▁영 문
▁버 프
▁이 리
▁빛 을
관련 기사
▁급 격
i o
민주 연합
▁곳 을
으 론
건 ,
▁무 덤
▁박 물
▁팬 들이
▁사람 에게
▁시 켜
▁고 문
밀 한
▁포함 된
▁쓰 면
i p
▁챙 겨
▁내 구
▁완벽 한
▁기 대를
미 나
▁모 은
▁담 겨
▁사 회의
” 이라고
▁그러나 /MAJ<|endoftext|>
호 와
▁최 순실
▁방향 을
▁거 리를
▁지 지를
▁18 9
▁' 마
00 00
▁찍 어
▁경우 에
▁지니 고
벤 처
-0000 4
▁전 무
▁하 거나
▁출 간
점 의
▁경향 이
▁선 사
▁붙 은
▁기억 을
받 지
▁참여 하는
▁가능 성은
법 상
IO 01
욕 을
▁ 율
▁인 스타
▁ 줬
▁교 회
름 을
▁본 다.
▁요 새
▁태 도를
▁담 배
▁일부 를
▁깨 닫
버 스터
▁ 켜
▁이 겨
봉 사
장 (
▁나 루
▁형 식
였 다는
▁겨 냥
역 의
▁0 .
▁방어 력
▁오 스
▁감 옥
▁괜찮 은
드 립
▁이뤄 진
▁승 격
▁제2 차
▁결과 에
▁동 계
그 러
▁부 실
▁이하 의
▁많 고
▁대 략
▁6 2
▁위안 부
▁주 재
편 에서
역 <|endoftext|>
▁메르 스
▁무 대를
시 고
티 즌
동 으로
협 정
▁입 수
슬 러
▁고 구
▁시 에
▁비 싼
카 는
▁아이 가
▁의 문
▁회 수
▁2 대
▁대 항
▁국내 에서
▁전체 를
r om
키 를
▁씨 의
▁시 ·
▁여 왕
스 에게
▁계 급
▁아 랍
▁불가능 한
▁노 르
▁출 현
▁D e
▁보 게
▁이용 하여
단 ,
▁말 레이
▁지 능
보 드
▁현 황
▁준 공
▁스크 린
▁있 으나,
▁벌 인
▁말 하면
위 기
▁첨 단
▁프로 토
▁평 택
▁패 시브
이었 다고
▁왜 곡
▁어 릴
세 한
법 원
▁ 젤
▁암 흑
00 여
▁했 는데,
▁역사 상
▁카운 터
▁미 치는
▁사망 한
▁콘서 트
i us
▁김 포
▁영 광
▁기 도
수 산
▁7 7
의 가
▁공 시
▁처음 이다.
▁198 9년
▁않 다는
▁별 도의
▁박 살
▁우 연히
▁자세 히
▁2 부
▁다루 는
▁종로 구
▁없 으니
인지 라
▁7 년
▁보고 서
민 족
▁않았 지만
▁1 /
▁참석 해
▁가 라
/V A+
인 천
▁ 톱
▁중 순
▁움직 임
▁주 주
▁사 거리
▁쓰러 뜨
자 산
▁해 적
티 나
교 사
▁행 위를
▁특 집
시 청
▁재 현
▁스파 이
▁저 작
-0000 8
▁ j
▁아 리
경 쟁
트 랙
▁마지막 에
▁분 열
▁하 수
길 이
▁매 장
▁아이 들이
▁피 고
▁입 원
▁울 트라
▁일 원
▁최우 수
▁북 핵
동 은
▁혁 명
▁총 리가
▁이 듬
▁ 킨
▁7 4
▁3 학년
▁보 내는
것 을
▁세 금
▁인 재
▁것 일
▁실 적
프 리카
· 이
켰 다.
▁대표 하는
▁추정 된다.
당 하는
▁노 사
▁1~ 2
O M
▁고 개를
▁아버 지의
▁끝나 고
▁컨 텐츠
사업 을
진 에
▁N H
m an
-000 6
군 ,
▁" 가
▁안 양
▁대책 을
▁이 병
▁열 차
▁아 일랜드
▁소재 로
▁썼 다.
끄 러
N A
▁전 에는
▁사용 하지
▁연 료
▁U n
g |
▁차량 을
됐 다는
▁시 대에
▁T e
▁얻 고
▁쿨 타임
▁복 원
▁실 업
▁정부 에
▁원 전
생 이
▁해 킹
! )
노 조
대 구
니 는
웠 던
▁충분 한
▁허 가
▁제 어
개 ,
유 치
▁압 수수
▁힘들 다.
▁부 총
▁여 부
▁이 글
▁한 다면
▁일 하는
▁돌 격
타 입
# x
▁겪 고
▁농 촌
▁보 면서
▁거 친
순 위
어 요
▁지방 선거
으로서 의
n am
▁데미 지가
▁문제 의
▁기본 적인
f t
였 으나
전 한
타 워
~ 6
▁그 로
▁있었 다는
▁편 이다.<|endoftext|>
▁에 드
i es
▁심 장
▁않 다.<|endoftext|>
미 와
지 대
▁증가 한
▁매 체
▁발생 할
’ 를
▁김 해
▁까 다
o v
마 루
마 에
판 에서
▁제 5
비 디오
▁딜 러
▁혼자 서
미 터
▁카 타
론 의
▁인 형
▁동 북
▁6 1
▁해 병
▁듣 는
판 에서는
저 히
▁S U
▁과거 의
▁강 제로
▁나라 의
▁어려 울
▁운영 하고
▁버 려
▁ 락
▁평가 했다.
▁1 호
▁갖추 고
▁5 만
소 와
▁6 년
영 ,
) 도
▁재 배
▁이외 에도
억원 ,
▁분석 한
시 하는
▁갈 라
▁비 트
▁유 형
▁근처 에
▁3 0년
이 든
내 지
▁사이 가
▁" 자
▁레 오
었 으나
▁앞 선
▁국토 교통
졌 고
드 <|endoftext|>
▁토 모
▁완 공
전 투
타 수
▁하 야
▁이로 써
▁원 인이
▁아나 운
한 을
▁적 혀
▁캐 스팅
▁유 권
▁받 기
법 으로
▁학 살
▁C P
타 자
▁비슷 하게
▁격 투
▁상태 를
5 ,
▁ 났
▁결 제
▁네 티즌
-00 8
▁저 질
▁독일 의
▁트 윈
▁사 토
▁경기 는
▁곳 이다.
▁김 수
▁활용 한
( 0
우 기
▁착 각
▁출 처
▁시 원
▁팬 들은
▁그 건
▁곡 을
고 로
__ 05
D P
▁변 형
▁공격 에
▁크로 스
▁가 벼
▁격 파
-0000 6
▁성능 이
▁개 교
▁7 6
▁구 출
▁3 px;
랑 이
▁사랑 하는
▁생 일
▁기획 재
▁노 란
▁별 도로
▁동 참
박 한
▁버 리고
된 다"고
▁날 짜
적 ,
▁나 이가
▁그러 한
▁얼굴 이
했 다면
▁바뀌 었다.
▁수 습
▁이듬 해
▁모르 겠
▁ 컷
▁넣 고
▁사 운드
▁"지 금
티 가
▁캐릭터 의
당 해
▁유 효
▁압도 적인
▁비 싸
▁음 주
습 니다
on d
피 를
▁그 라
▁교 장
하기 가
▁" 기
▁모 래
▁노 벨
▁조건 을
▁가 문
▁198 0년
▁카 나
▁뿌 리
▁5 시
바 라
id e
리 얼
▁도 우
▁한국 이
▁C l
▁주 전
▁해 운
백 을
▁아 가
▁그런 지
▁섭 취
건 으로
▁실 수
▁제공 한다.
▁사용 하고
▁ 튜
▁괴 물
▁도 서관
만큼 은
▁지 은
권 ,
해 지
▁" 중
▁그러 니까
다니 는
▁' 자
▁무 척
▁여론 조사
▁단 점
▁바른 미래
가 량
바 다
▁리 얼
▁커 지고
▁입 장에서
편 을
▁블 라
▁200 6
주 행
▁첫 째
▁면 접
▁공개 한
당 할
▁내 각
름 이
▁금 강
▁있 다가
▁당 해
▁간 접
ff ff
었 기
▁( VP
▁중 독
▁일 관
▁감 정을
▁비교 해
소 비
조 로
K B
스 톤
▁자동 으로
▁않았 을
어 와
▁운 동을
▁수 색
▁13 0
인 사
▁종 사
▁B M
드 레
묘 한
▁가 려
▁정도 다.
▁코 치
O P
▁느낌 을
▁양 쪽
네 가
▁올해 는
타 점
▁다이 아
▁바 꾼
▁결 성
트 릭
or y
▁' 불
▁안 으로
물 질
▁A l
▁보 복
▁무 소속
로 봇
▁일 치
▁P ro
▁A T
▁무 인
▁스 폰
판 의
▁조 별
▁미 만
▁늘 고
▁미 스
▁일본 이
범 위
하거나 ,
? ?
메 이크
▁연구 를
▁수준 이
▁수록 곡
▁상처 를
화 할
시간 을
위원 장은
▁쫓 아
▁김 모
▁전투 에서
▁여 유
▁1 학년
▁혹 시
로 나
▁마 구
▁6 9
▁매 입
▁동 성
▁작 가가
▁노 후
▁재 직
▁갖 는
▁관 세
▁11 0
▁잡 지
식 과
통 상
__03 /NNG<|endoftext|>
곳 을
▁농 구
로 와
▁일 에
▁돌 진
▁조 례
인 지는
츠 키
▁힘 으로
▁절 망
▁북한 에
▁N ew
▁ 엇
▁행 성
▁댄 스
▁닥 터
er e
▁쓰 인
▁매 매
▁갑 옷
학 원
▁지 불
▁창 의
▁학 술
았 고
ic k
▁격 려
▁의미 로
▁커 다란
▁하 얀
거 리를
은 ,
대학 원
▁발생 했다.
▁것 입니다.
▁열 렸다.
▁상 영
도 르
▁유니 폼
▁3 시
m 2
현 ,
▁핵 실험
▁것 ,
라 면서
▁피아 노
▁뛰어 넘
감 과
▁공간 을
심 사
▁발견 된
▁권 총
▁잃 고
▁주 간
▁발 의
. )
▁비용 을
▁' 내
▁프 라이
▁반 격
리 고,
▁2 학년
▁걸 고
렸 고,
▁개 인의
디 가
▁챔피언 스
▁전 방
▁있었 을
▁난이 도가
▁ 렉
▁플레이 오프
당 하고
됐 고,
▁버 린
▁벌 이고
▁정 류
▁여러 모로
교 회
▁p ad
' 이다.
▁손 가락
▁소 위
측 은
다 리
▁법 안
▁추 세
▁D J
위원회 를
▁판타 지
었 다
▁포르 투
호 로
▁국정 원
▁보 물
층 이
▁동영 상
▁가 만
▁일 정을
▁기준 을
▁아 끼
▁파이 널
▁명 백
로 에
드 에서
▁논란 을
일 )
▁떡 밥
▁ it
▁게 이트
▁신 기
▁여 신
미 국
un g
▁이 길
실 점으로
▁미세먼 지
▁불 렀
▁부 근
▁불 만을
▁신 라
디 스
▁서 해
'이 란
▁폴 란드
▁전 성
▁당 신이
▁차 원
예 산
▁유 해
▁비 고
▁근 대
▁항 소
▁받아 야
▁최후 의
석 ,
▁있어 도
▁노동 자
포 먼
▁기 절
실 히
▁후보 를
▁달 라고
▁보 냈다.
온 은
▁회 의를
▁투 자를
▁( 2
▁브 루
▁물 건을
▁모 르고
▁수 여
스 레
▁스 미
▁준 우승
▁이후 로는
▁단 단
▁크 기
▁총 을
▁권 고
▁영 구
▁요구 했다.
00 만원
-0001 9
▁마 리아
▁대 원
나 카
▁조사 됐다.
우 와
▁목표 를
- 12
야 의
▁더 해
만 명
▁소송 을
▁되 는데,
▁드 리
▁눈 물
▁유 나이
니 와
▁질 문을
▁있었 기
T he
▁레이 더
▁가면 라이더
연 은
▁유 족
▁숨 진
▁비 정규직
생활 을
▁중심 의
B +
▁쪽 은
▁신 선
사 한
htt ps
▁" 나
주 )
▁갖 춰
▁게 재
▁교 도
▁중 립
▁그 랜드
▁오 피스
▁창 립
▁끊임 없이
▁그러 면
▁한 층
▁떨어 뜨
▁미국 에
j p
▁전략 을
▁4 번
비 스
▁M VP
ic e
환 으로
▁위 장
▁들어 갔다.
▁반 려
▁콜 라
▁늦 게
▁몽 골
▁도 박
▁받 으며
상 한
데 이터
a w
▁출 동
▁재 난
▁비 즈
리 언
▁민 정
u g
님 을
▁장 학
▁' 유
되었 으며
▁시작 해
▁외 에는
하 자는
▁아 기
▁A 4
U S
▁제 도를
▁요 코
▁안 의
키 스탄
자 책
▁나타 나는
-0001 8
실 과
즈 와
개 국
▁ 끄
▁멋 진
▁보건 복지
▁오래 된
▁음악 을
▁그렇 지만
▁마 술
▁신 형
▁않았 다고
치 면
통 일
▁중 에서는
▁마 인
트 럼프
▁많 지
▁야 생
▁모 션
▁잇 는
▁드 랍
▁어 드
▁t v
에서 부터
들 로부터
▁스 포
▁케이 블
▁변호 사는
▁내놓 은
진 으로
▁패 키
▁출연 한
▁빠 르
▁" 남
02 36
▁문서 :
▁존재 하지
▁배 포
▁드러 냈다.
▁건 국
▁패 치로
p t
▁편 .<|endoftext|>
▁3 건
스트 가
▁유 독
▁한나라 당
청 년
▁S e
토 록
▁회 사의
자 면
▁거짓 말
슈 타
▁써 서
▁체 크
▁3 인
▁작품 의
▁티 켓
~ 8
▁상관 없이
▁비 주
▁히 데
▁말 까지
▁사건 으로
▁시간 은
ac kg
▁나름 대로
▁확실 한
▁어떻게 든
▁다 들
' 에서는
▁가 난
▁w ith
▁트 럭
▁협 상을
▁메 카
▁레 어
▁물 이
▁사업 에
▁전 당
▁적 어
p e
ackg round
▁보여 줬
▁천 연
그 라
▁신 동
▁전 담
▁자신 도
▁죽 인
▁A R
▁달 고
▁2 세
▁내 의
▁전투 를
▁임 기
▁이벤 트를
로 워
▁1 군
▁이라 크
▁전 철
▁유 대
▁나 면
▁2 기
▁이 룬
특 히
▁명령 을
패 로
▁위원 장이
o y
▁사 내
▁진행 된다.
▁2 연
▁유 승
▁여 행을
조 치
계 에서
치 면서
▁가 드
버 리고
▁출 근
달 라는
▁위치 해
▁쓰 기
▁삼 아
▁합 성
담 당
에 겐
▁골 을
▁플레이 를
▁브 로
▁김대 중
▁장 군
색 으로
▁스 틸
위원 장이
▁개 업
▁양 의
감 에
▁구 미
▁2 명
▁중 재
▁협 조
▁C N
▁학교 에
D 0236
▁' 기
박 스
이 게
▁도 는
하면 ,
디 움
▁충 족
타 와
▁무 대에
▁갑 작
▁연 기를
사 도
세 포
▁국가대표 팀
했 었다.
▁응 급
▁정 무
▁" 무
이 면서
에서 ,
▁알 바
운 이
▁보 이며
▁절 대로
▁만 나는
준 이
▁7 CT_000
테 르
▁생각 보다
▁아마 도
글 로
침 을
▁연 휴
or ld
▁정규 직
▁계 좌
/JK S<|endoftext|>
/IC <|endoftext|>
되어 야
▁사태 가
음 에
ol d
( 199
▁절 차
▁인스타 그램
▁시 급
▁예산 을
ar y
▁사고 로
▁죽 어
일 드
7 ,
면 이
▁퍼 포먼
▁본인 도
▁성 추
▁9 8
▁ イ
-0000 7
-0001 5
▁이쪽 은
인 <|endoftext|>
▁클린 턴
편 에
▁안정 적인
산 ,
▁국민 이
ou t
▁올라 온
▁작품 이
레이 터
▁사용 되는
▁정 수
▁가 질
s ,
▁대 가
▁시즌 을
주 교
▁전 인
▁비서 실
▁1 분
~ <|endoftext|>
▁S C
▁방문 한
▁불 펜
대 행
▁환 승
▁지 출
우 지
▁드 림
▁시민 들이
▁우 울
▁공 익
▁임 원
▁장 례
▁부정 적인
노 스
니 를
하자 .
▁10 분
▁공식 적으로
▁둘러 싸
▁동 방
E M
▁가 맹
준 다.<|endoftext|>
▁안 심
산 에
▁이전 의
▁목 포
ac e
▁학생 들의
▁안타 까
▁반대 하는
▁연 도
위 와
▁힘 입
▁단 행
▁침 묵
▁박 지
다 면서
▁생 기는
위 에서
▁아르 헨
어 리
▁1 <|endoftext|>
▁장 교
▁흥 미
▁남 성이
체 험
▁도 서
제 작
추 진
ding :
▁앞으로 도
▁마법 사
▁박 스
▁종 이
▁추정 되는
등 이
하 가
▁화 살
▁만 다.
▁수 천
▁지속 적인
▁식 의
을 때
▁도 덕
▁나타 났
▁느끼 는
▁뜻 이다.
▁화 를
▁소 식이
▁처 분
▁총 기
- 11
▁세계 적인
▁자유 롭게
▁나와 서
▁이 치
▁저지 른
▁바란 다"고
▁20 여
인 한
▁부 임
▁배 정
▁긍정 적인
▁진행 하고
하자 ,
돌 이
▁진행 하는
포 구
크 스
▁수 급
밀 히
▁도 중에
렸 다고
▁발 전을
▁갖 게
▁많 아서
▁남아 있
▁움직 이는
▁똑 같
▁부 지
▁곤 란
졌 지만
▁소프트 웨어
사 회의
▁나 은
▁수준 을
▁블 러
▁이후 ,
트 <|endoftext|>
▁라이 프
▁이어 졌다.
▁6 ,
▁더 빙
▁미 칠
▁피 할
▁하 였다.<|endoftext|>
▁스 태
페 이스
요 한
im e
1 50
▁청 소
하 마
▁않는 다고
▁발 급
O L
속 에
격 으로
▁이익 을
러 시아
▁듯 이
▁줄 여
▁속 으로
되 게
▁폭 로
▁P l
▁소 장
▁비판 이
▁아쉬 운
▁유지 하고
▁후보 자
' .
▁힘들 어
▁특 성을
▁높 이는
▁것 보다
▁2 주
▁철 회
: 30
▁다 짐
▁낮 추
▁" 유
▁7 8
▁실질 적인
▁신 화
▁유 희
이었 고
▁특이 한
▁방 출
▁매니 저
에 너지
▁깔 끔
▁솔 직
▁서울 의
▁자 꾸
료 가
▁기소 된
표 가
되 던
▁가 이드
▁C om
▁타 케
▁"내 가
습 을
▁pad ding:
▁바 가
▁주변 의
순 환
림 이
▁식 당
▁기 사를
▁헌법 재판
▁" 현재
▁날 개
▁전 신
▁빨 라
▁한 창
▁만든 다.
시 <|endoftext|>
▁아 케
리 에서
ou l
a )
본 을
▁아 바
▁아 파
▁스 승
▁휘 두
▁당연 한
린 의
▁유명 하다.
▁놓 은
▁외 계
▁늘 려
▁실 버
▁( K
l ine
▁나 란히
▁그 들을
▁지 향
▁잡 혀
▁현 장에
ac t
▁마이 너
영 상
▁고 마
▁설치 된
▁모 색
▁재 단
B M
▁등장 했다.
▁N PC
민 ,
▁소 셜
간 다.<|endoftext|>
무 가
▁200 0년대
▁피 를
? "<|endoftext|>
여 객
/JX <|endoftext|>
▁시 대를
▁헤 이
▁뇌 물
▁3 명
▁도 주
-0001 4
▁임 무를
▁언 젠
▁진행 할
O <|endoftext|>
▁과 제
▁일 명
T E
▁김 지
설 이
▁여 당
▁태 평양
▁세 상에
▁타 격을
의 로
▁진행 되는
▁있 기에
▁모니 터
▁관련 이
▁중 도
신 청
▁영 토
▁결과 적으로
▁진행 한다.
▁않았 다는
▁ し
▁인 상을
▁부 패
▁대 상을
폭 력
▁4 회
▁후 에도
▁전형 적인
( W
▁튀 어나
▁한 진
님 은
' 고
었 다"고
▁랭 킹
▁물 려
▁감 지
ar g
▁리 메이크
▁춘 천
▁라이 온
화 하고
▁전 파
재 의
( 6
▁간 혹
▁리포 니아
▁속 의
▁인 원
▁무 작
금 의
▁생각 한다.
▁습 득
▁좋 게
▁화장 품
▁막 는
▁1인 당
▁사람 들도
▁사 전에
▁플 레
▁말레이 시아
▁7 3
▁합 니다.<|endoftext|>
다 !<|endoftext|>
▁유리 한
▁되 도록
▁측 근
▁바 다.
▁체 력을
▁좋 겠
▁모 를
버 려
동 과
▁것 인가
▁대미 지
▁0 .5
▁강남 구
▁기 각
」 <|endoftext|>
▁주 제
▁신 세계
▁상품 을
인 들
▁않았 고,
▁대 사를
▁싸 움을
으 러
▁4 시
희 의
▁심 하게
▁정도 .<|endoftext|>
▁스프 링
▁배우 는
▁치 유
▁시민 단체
▁서 민
▁아이 스
▁타 자
▁9 CT_00
검 을
▁알렉 산
계 로
▁감 각
1 10
포 럼
▁소 지
▁앞 장
▁정 통
▁열 쇠
s )
▁지 리
▁시작 하는
▁억 제
▁말 하고
▁하나 도
( 18
- 5
준 비
▁서 명
▁다음 에
k y
▁의 회
근 로
▁ an
▁과거 에
▁대표 와
▁품 질
미 네
▁즐 거
ak e
▁신 중
▁승 진
▁대회 에서
▁있었 지만,
▁결 심
▁' 최
재 생
▁방 에
- 19
▁기 지
인 들을
카 르
-0001 6
▁수 련
▁초 창
▁침 입
▁집 회
▁가능 성
▁돼 지
7 00
노 의
▁당 신의
민주 주의
▁능력 은
▁없었 다.<|endoftext|>
▁부 천
▁상황 은
▁스타 트
식 ,
▁방송 에서
▁랭 크
▁유저 들이
▁철 학
용 차
코 드
▁2 억
▁6 ·
▁' 수
▁일본 에
-- -
▁않을 까
▁거기 다
▁2 03
▁부 상으로
▁중국 과
a e
정 지
▁198 6년
▁고 기
▁1 분기
▁정 령
▁최소 한
용 은
▁" 제
▁명 시
▁그림 을
▁따뜻 한
▁국 경
▁학생 들은
즈 ,
▁역사 적
▁되었 고
▁물론 이고
협의 회
▁마 스크
▁14 0
츠 의
▁그 중
▁분야 의
▁마 리오
▁( )은
▁말 라
▁기원 전
▁활용 할
▁비 대
루 는
▁H e
노 가
▁것 만
▁주민 들이
T BC
B 00
▁은 하
▁기 대한
노 우
▁만나 게
법 의
통 이
▁중 의
▁오스트 리아
스 포
▁김 병
티 를
▁금 호
색 의
▁제작 한
▁인 접
나 고
▁신 성
▁차 원의
었 지만,
▁나라 를
▁불 어
▁내 게
견 을
▁뜻 하는
▁갈등 을
▁' 지
▁남 양
▁복잡 한
▁위 대한
▁초 래
▁씨 를
▁신 앙
▁때 에
운 동을
▁높 여
환 은
▁속 도로
▁특징 이다.
▁극 대
▁비교 하면
팀 을
▁대통령 에게
▁서울중앙 지검
플 러스
▁협 약
▁계획 이
u .
▁" 국민
▁하 필
▁챔피언 십
o st
▁7 1
D B
m ,
▁카 를
▁면 에서
▁부 를
오 리
▁영 등
▁담 고
▁승 점
정 신
다 의
CT V
▁밝혀 졌다.
대 체
대 장
▁과학 기술
더 스
▁중요 하다.
https ://
산 화
회 )
▁넣 은
▁박 성
이 긴
거 든
▁관계 로
▁식 사
▁안 철수
할 수
▁슬 로
▁노 부
위원 회의
▁네 이
▁O ST
▁거 둔
숙 한
▁경찰 청
▁정확 하게
▁자 문
오 로
3 )
▁2 인
▁받았 다.<|endoftext|>
▁면 역
경찰 서는
용 의
▁부 당
▁고통 을
함 은
▁4 위
공 이
준 은
▁보 라
▁야 스
▁읽 는
▁해 주는
다시 피
▁대 치
공 식
▁친구 가
▁생 길
스 런
▁입 장이
▁"우 리는
심 은
▁단 편
▁' 보
▁즐 기는
▁이 념
더 욱
브 를
▁가 졌다.
▁지자 체
왔 다.<|endoftext|>
▁화 제가
▁등 ,
▁부 러
▁당 국
공화 국
▁데이터 를
▁등장 한다.<|endoftext|>
▁ 촌
작 전
’ 는
되었 다고
▁면 세
· 경
· 김
탄 이
▁선보 였다.
▁트 렌
▁그러 다
▁된 다"고
▁넘 치는
▁외 환
▁H D
왔 던
is s
▁당 내
점 과
▁마 도
▁마 라
▁맛 이
▁무 상
집 에
▁스 키
면 의
작 은
▁추 석
▁인물 이
긴 다.
▁분류: 200
() 가
운 드를
이 도
▁완벽 하게
▁교육 부
▁완전 한
▁" 모
▁중 복
론 은
전 기
던 가
▁참고 .<|endoftext|>
▁퇴 직
▁뒤 에서
▁줄 었다.
▁영화 의
면 에서
▁지키 는
▁b ackground
▁분 기
▁여 수
반 을
동 맹
▁죽 여
▁구체 적으로
▁넘 어서
보 며
야 ,
▁치열 한
▁기 숙
▁불구 속
▁주목 을
▁되 어서
▁200 5
▁진 실을
▁내 리는
만원 ,
▁레전 드
is h
▁성 장을
되 거나
▁8 개
▁폭 주
▁ 았다.
. )<|endoftext|>
줘 서
▁" 수
역 은
▁경 선
▁땅 을
▁일 로
1 )
▁아 서
▁건 의
▁부 장판
▁SK 텔레콤
▁철 수
▁구조 를
구 리
~ 10
▁캠페 인
▁1 기
층 을
▁중국 에서
▁b e
▁잇따 라
▁인 종
처 분
▁상 하이
▁나왔 다.<|endoftext|>
▁각 자
▁니 시
▁세계 에
▁스피 드
하 우스
아 리
환 의
( I
/N P+
▁떨어 졌다.
▁세 포
▁분 당
L v
▁희 귀
▁미 츠
▁법 조
▁' 일
개 요<|endoftext|>
스 피
▁7 ,
t o
스트 는
감 사
▁전 세
습 니까
▁4 만
▁가운 데,
두 는
▁나 갔
▁리 듬
▁불 참
하였 으나
▁라이 더
▁금 방
▁아버 지는
▁짓 을
▁측 의
▁5 회
오 와
▁4 ·
회 관
▁힘입 어
▁생 겼다.
▁김 광
추 어
▁두려 워
▁포 트
▁인터뷰 를
▁특별 히
▁선 도
▁파 는
단 에서
▁노동 당
" 이라는
하 늘
▁서 식
되었 을
▁바 보
▁198 5년
수 )
▁권 리
시 장에서
▁내 정
어 버린
▁강 동
▁요 괴
▁ 뷰
▁8 00
A D
▁주 류
▁됐 다"고
▁전체 가
▁유 의
▁시 그
▁토 끼
▁중 부
▁나오 면
▁싸 울
▁ 럭
▁차 이를
▁그 쳤다.
i b
들과 는
▁동 쪽
▁설 정이
▁잡 기
▁위원 장
▁강 철
▁주 둔
▁신 흥
메 가
서 야
▁백악 관
지 기도
▁미 스터
호 에
▁7 9
▁재 발
등 한
제 공
▁페 스티벌
▁기다 리고
▁전 진
겠 지만,
▁어 그
▁못 했던
▁어 제
▁아 트
들 만
받 침
작 의
L L
▁진 학
액 의
나라 의
▁담당 하는
▁객 관
사 거리
▁베 를
/V C
간 담
▁군 대
S K
▁정 복
▁1 시
th er
▁대 충
or m
▁틀 어
▁조사 한
유 예
▁간 에
▁종 전
도 서관
▁선 포
▁프랑 스의
i le
▁여 학생
▁날 이
▁크리스 마스
것 은
할 지
▁진 심으로
▁콤 보
▁이 식
▁실시 한
▁동 굴
풀 이
▁국가 가
▁M e
▁16 0
ic h
▁처 럼
타 이어
진 핑
▁이외 의
▁서 류
▁건 네
▁설 문
▁정 찰
▁전 의
▁숨 어
▁말 하며
자로 서
▁m e
▁" 신
▁30 대
en s
▁위 탁
리 조
▁진 압
▁가 공
▁소 중한
▁미 나
하기 를
▁어디 서
씨 에
▁송 파
▁무료 로
학년 도
리티 컬
▁구 사
▁공 원
코 ,
업 무
▁진행 한
바 의
▁이어 지고
▁( A
▁중 견
▁아메 리카
O U
타 ,
▁순 천
▁민 중
▁ に
▁수 사에
▁현 장을
▁이 태
▁선수 들의
▁재판 에
▁ 튼
매 를
▁방 탄
▁ )는
▁순 으로
-0001 7
으니 까
▁상 의
교 과
▁바 퀴
▁싶 다.
▁야 간
▁장 비를
▁새정치 민주연합
산 은
비 트
키 퍼
▁대 안
▁가 사
▁' 김
▁슈 팅
▁위치 에
장 치
-00 9
아 와
▁편 안
h y
▁목 을
금 으로
▁- ---
청 소년
▁약 간의
▁E P
▁소 총
▁김 일
▁한 두
준 의
▁어머니 가
품 이
▁7 개
라 이트
▁신청 을
하 길
감 도
▁비 극
▁어디까지 나
▁깨 달
( 아
▁참석 했다.
▁벗 어
▁대부분 은
능 력을
a z
▁번 도
임 은
조차 도
▁후 손
( J
▁카 라
▁제주 도
신 교
두 에
▁제 네
▁200 4
▁전쟁 이
▁쿠 로
▁보 증
▁배 터리
▁강 도
한 이
가 시
▁9 6
▁구성 되어
좋 은
jp g|
▁A C
▁아카 데미
▁" 너
▁부 착
▁번 호
▁사회 주의
▁아 머
▁ 쳤
▁이 즈
▁김 승
▁ or
▁서 쪽
▁조 명
체 제
▁영 상이
▁신 이
▁tv N
▁에너 지를
▁잡 았다.
▁말 아
▁유 령
▁크 라
형 ,
oo g
▁무 기로
스트 의
▁다 스
자 나
발 이
▁조 리
▁라 운드
커 가
▁본 부
▁전 동
▁규모 로
▁자 국
히 /MAG<|endoftext|>
▁C EO
급 으로
o h
천 군
▁한 데
▁트 랜
준 표
▁3 층
▁유 동
위 안
▁이번 이
▁국 도
' '
▁장 치
▁시 선을
▁시스템 이
▁스 캔
▁사진 이
▁수 술을
▁무엇 을
- s
· ·
▁포르투 갈
폰 을
▁청와대 는
모 의
채 널
▁기 용
▁ 령
운 을
야 .
▁특 화
타 카
▁리 가
▁쓴 다.
▁일어 났
약 한
▁생각 할
▁분류: 199
▁못 하면
02 0
▁구 원
/EF +./SF<|endoftext|>
▁경 력
ord er
하자 .<|endoftext|>
▁( 0
▁측면 에서
-00 7
▁쌓 아
▁토 지
▁환 자가
▁박 영
주 도
▁리 스
▁ 첩
▁배 를
아 트
슈 퍼
▁후 계
▁갈등 이
석 에서
▁위험 이
▁다 리를
▁개 척
▁2 .5
▁마 드리
▁인 구가
~ 30
▁주 사
▁정 밀
▁촉구 했다.
▁밝 은
▁관 료
▁장 거리
▁것이 고,
라 에
▁당 신은
▁시절 의
▁유 인
▁포 장
~ 2
-00 2
▁대 사가
▁없 지만,
▁보 낼
▁공격 하는
▁죽음 의
▁다 카
행 사
▁호 응
당 시
토 는
▁등 이다.
었 으며,
▁이 같은
▁ 大
▁노 멀
머 스
▁전 격
▁선 을
▁요구 를
▁생각 한
( 오
▁청 약
▁최강 의
청 문
▁ 니다.
▁아 저
후 의
▁5 G
화 폐
루 션
트 맨
▁나 고
i ver
▁바닥 에
▁루 트
▁클 라우
▁유 격
죠 .
▁디 젤
▁간 신
▁태 극
들 인
▁보 너스
▁공화 당
▁태 그
다' 라는
▁천 재
▁대표 를
관계 가
▁마 땅
▁일어나 는
회 로
1 로
▁구 상
▁환 상
중 간
노 트
▁ は
▁참 사
▁침 략
▁분류:일본 의
▁다 는
복 합
▁소 닉
베 이터
▁높 다.<|endoftext|>
▁199 0년대
▁분석 이
▁간 주
▁올 스타
R E
▁로 버트
▁사용 이
▁바꾸 는
▁제 7
▁판 문
▁KBS 2
▁출신 인
▁농 민
건 에
발 의
으로 만
▁되 며
▁행복 한
▁막 대한
▁돌아 와
하 를
▁북 측
▁ 》
막 이
▁차량 이
인 치
▁8 2
미 애
▁물 에
▁머 리가
▁한 명
▁단 위
협 상
▁제조 업
▁안드로 이드
운 의
▁어 면
▁윤 리
동 에서
/E P+
▁수 의
벌 레
▁더 더욱
▁G M
박물 관
공 장
▁문 화를
▁끝 났
▁여 지가
▁논 쟁
▁내 비
▁통 치
사무 소
▁않았 고
▁아 들을
▁은근 히
▁테이 블
▁실 력이
대 원
▁"최 근
▁이 례
▁보 다는
▁신 조
무 장
다(...) .<|endoftext|>
▁중 고
▁전반 적으로
▁경찰 의
▁의 정부
▁과 시
▁당 하는
▁간단 한
▁번째 로
▁나쁘 지
장 비
▁" 비
▁소 감을
로 서는
▁조 회
▁변 동
▁구 제
▁미 치
▁어둠 의
▁자 택
항 에
▁1 부
▁나 지
필 드
에 이
년 에
▁자 제
▁2 시간
▁취 향
▁개발 을
▁스킬 이
▁5 %
▁18 8
▁왜 냐
▁류 현
▁흐름 을
▁불 확
▁읽 어
▁정보 가
▁5 분
▁되 기도
권 으로
▁몰 라도
▁소속 사
나 가는
▁로 그
▁수 소
커 스
▁되었 다고
영 을
▁종류 의
훈 이
가 면
▁논 리
▁상 급
세 ,
▁동 화
▁ 램
▁L e
▁올 릴
▁끝 날
▁일 일
▁길 게
▁먹 은
L E
▁1, 2
▁ 론
▁고 등
▁일자 리를
이 어서
▁대 성
▁얻 었다.
▁필요 하다는
/NN B+
역 과
▁곳 곳에
▁있을 지
공 연
▁안 타를
석 과
▁다 닌
▁폭 격
▁작품 은
▁도착 한
득 점
▁이 른다.
▁설명 을
건 은
티 스
▁프로듀 서
열 을
▁ 퀴
▁선택 할
창 을
▁2 번째
▁하 향
▁후보 의
am e
▁하 트
▁고 작
▁봤 다.
요 시
▁불 린다.
▁유치 원
▁경 호
▁세 우
( 한국
▁시 인
▁들어 와
▁형 식으로
▁뮤직 비디오
▁선보 인
▁의견 도
▁1 ,000
▁성 별
▁장 을
▁압수수 색
▁입 건
▁ 는다.
훈 은
▁C G
▁필요 하다고
▁성 사
냈 다.<|endoftext|>
H z
▁간 다.
▁맞 춘
▁풍부 한
▁보인 다"고
▁김 주
▁둘 은
제 국
▁제 6
▁1 라운드
/NR <|endoftext|>
▁비 리
3 <|endoftext|>
▁무서 운
신 으로
▁" 조
▁다음 으로
▁' 시
▁기록 이
세 요.<|endoftext|>
도 미사일
반 이
▁언 덕
있 어
반 의
사 단
▁200 2
청 에
▁부 수
▁C CTV
▁자 라
▁이미 지가
문화 재
마 스터
▁급 여
▁영화 는
▁일 주일
번 이
▁당 했다.
▁존재 를
운 전
▁1 천
▁모 터
였 을
▁위 성
허 가
▁코미 디
▁국제 공항
▁잊 지
게 이
▁' 국
드 래
▁11 9
란 을
▁고구 려
ic al
겁 게
▁독 재
▁198 4년
백 화점
▁비용 이
광 주
▁C on
렉 시
▁이 젠
▁저 그
▁8 6
▁독 점
· 2
였 기
▁집 착
란 이
▁L A
M A
▁사용 하여
▁( 이
▁스트 리
▁현실 을
▁근거 로
▁환경 을
▁오 키
▁작중 에서
터 널
▁무시 하고
▁넣 는
만 간
당 했다.
▁측 에
a x
마 와
노 이
wiki /
소 방
ww w
▁문 의
▁왕 이
▁초 록
a ve
E FA
▁구 해
참 여
▁이 사회
▁균 형
▁양 측
확 인
▁국 왕
. 15
은행 이
▁디 아
그룹 은
▁중국 에
▁관계 자
▁지나 지
비 한
▁9 7
▁9 CT_000
▁거 울
M P
▁포 탑
▁ 닛
▁경상 북도
▁입 국
든 가
▁선거 에서
▁마법 을
▁판결 을
위 해
▁나오 기
▁영 장
▁정 해
an ce
▁마 다
I G
▁정 원
▁유 전자
▁' 정
▁이해 할
▁지방 자치단체
군 으로
▁손 흥
] <|endoftext|>
▁묻 자
시설 을
▁희망 을
▁ な
▁모 인
▁기존 에
▁팬 덤
언 이
en ce
▁"오 늘
▁40 %
▁대미 지를
▁공 룡
▁디스 플레이
▁광 복
츠 를
▁기 가
▁하 차
▁크 리티컬
" 를
▁유 죄
르 며
▁예정 이다.<|endoftext|>
▁지 형
▁걸 맞
▁알 아서
▁디자 이너
▁일방 적으로
▁상 실
풍 을
▁무 지
▁유 망
▁자랑 하는
▁신 도
작 이
▁바이 러
▁화 력
센 트
▁규모 는
▁연 사
주 며
▁김 준
▁타 는
다 나
▁수 감
테 이
▁없 다면
▁가까 워
▁출연 해
▁출시 된
▁끝 으로
▁한 계가
▁유 재
인터 넷
번 ,
▁영향 이
▁다 큐
▁1 승
▁클 레
▁일부 는
▁T HE
{{ {
권 도
▁어렵 게
▁배 운
스러 워
V D
▁소 규모
▁싫어 하는
축 제
처 가
▁만 만
▁안전 한
▁약속 을
▁에 릭
▁높 았다.
▁능력 치
▁중 대
보 이
▁병 력
▁외 면
배 상
고 와
▁날 카
▁가깝 다.
▁처 형
▁터 져
학 회
▁연 루
▁( 영
▁모 스크
▁시 카
7 )
▁배 가
작 가
포 로
▁침 공
▁별 개로
▁메 리
야 가
▁의원 을
▁농 협
iz e
처 는
▁' 부
▁서서 히
4 )
- 15
▁글 이
▁보 편
▁끔 찍
▁건 물을
가 격
-0002 5
▁별 명
▁빼 고
▁사랑 의
▁정 체를
▁태 국
▁캐릭터 로
, 9
▁골 키퍼
▁땅 볼
▁오 를
▁판 정을
▁일으 켜
▁b y
▁D LC
▁( )는
하 루
▁팔 을
▁대 가로
▁배 상
▁몰 락
▁제출 한
▁확 충
츠 가
ac h
▁없 으며
▁참 모
이 기에
선 생
▁인 디
▁웃 음
▁용 도로
라스 틱
▁억 울
▁바 라는
▁B GM
▁북 ·미
▁회 사가
▁진 실
▁찾 고
하 우
▁하나 씩
▁운 송
▁원 본
▁대 목
다 를
▁클래 스
▁사용 자
▁막 장
▁생각 한다"고
렸 다는
▁휘 말
▁" 나는
▁답 답
▁폼 페이
▁입장 이다.
▁걸 리는
▁상태 에
▁미국 을
기 소
▁막 내
· 보
▁사 막
▁마 산
▁W W
▁가족 이
▁또 다른
▁어 리
▁협 력을
▁복 구
▁세 븐
▁먹 어
▁중국 을
세 와
리 라
▁가르 쳐
일 반
쿠 라
▁최 하
▁정상회담 을
▁점 에
▁과도 한
▁지 는
선거 구
▁소 집
▁아 픈
▁오 류
▁포 스터
▁진 주
▁MA X
▁증가 <|endoftext|>
사 기
어 에
▁개인 정보
ow n
▁그러 므로
~ 1
nam u.
▁무 적
▁보 석
▁남 겼다.
코 와
▁직접 적인
( 10
▁3 점
▁때문 .<|endoftext|>
-0002 4
▁정의 당
▁현 직
▁멜 로
▁커 맨
▁않 으며
▁야 외
타 나
▁복 무
▁풀이 된다.
▁' 우
▁내 장
▁( )<|endoftext|>
/S N<|endoftext|>
▁병 행
▁맞 다.
▁나 서는
▁합 의를
▁차 관
커 를
▁밝혀 진
▁오 카
저 스
▁사실 이다.
▁국민 연금
▁싸 워
▁안타 깝
먹 을
▁한 달
▁8CT_000 7
namu. wiki/
▁시 드
/JK B<|endoftext|>
▁힐 러
▁어두 운
삼 진
론 가
▁양 자
▁그 거
▁느끼 고
▁추진 하고
▁개발 에
▁S c
▁사업 이
란 의
닉 스
▁과정 에
▁재 건축
리 던
디 는
’ 의
▁극 장
▁거기 서
▁무 의
▁유 아
일 과
~ 7
생 물
▁인 하여
▁선수 는
▁200 3
▁그리고 /MAJ<|endoftext|>
▁어 마
▁달리 ,
▁이 경
▁장 성
이 한
억원 에
▁2 .0
▁체 감
▁클 라
▁선수 를
▁모 조리
오 지
▁항공 기
▁한 해
시 피
▁혐 오
▁출신 으로
-0000 3
▁안 고
▁참가 한
▁8 9
▁조사 에서
▁영향 력을
▁경우 에도
▁병 역
▁J TBC
됐 지만
체 와
▁ .3
▁본 편
자 (
▁8 1
▁뒷 받침
▁연구 원은
▁오랜 만에
질 랜드
▁풀 려
▁발 간
▁꼽 힌다.
▁필요 하다"고
크라 이나
▁출 국
풍 이
고 기
▁사 형
▁육 상
▁러시아 의
신 과
교 의
▁8 3
프 와
▁0 .3
라이 브
▁해 고
들 보다
▁표현 을
▁보내 고
▁분 할
플 렉
16 0
▁게 이지
▁특 혜
▁존 경
▁손 잡
▁끌 었다.
▁ 톤
▁원 의
▁움직 임을
▁이 가
▁ か
링 이
▁15 00
▁저 런
교 안
▁정확 히는
문 에서
▁이상 은
▁미 카
▁써 야
▁다 고
▁진행 했다.
▁검찰 의
믹 스
때 는
▁성공 적으로
5 )
▁I C
▁급격 히
▁발 라
▁페 널
▁비 하
결 정
▁0 .2
가 ?
▁아래 로
사 우
▁지키 기
디 의
▁원 인을
원 전
▁차 트
▁무 방
냐 며
▁고 스
▁빛 의
▁만 일
▁가격 을
▁2 의
▁ う
▁패 스트
계 와
▁점 ,
클 래
▁제 안을
▁업 종
중 심
하 진
▁딸 을
▁꿈 꾸
프 ,
▁한 양
▁이어 서
▁가 담
▁5 대
위원 은
/EC +,/SP<|endoftext|>
▁아니 고,
▁정 한
신 도시
▁최대 의
였 는데
▁귀 찮
여 명의
법 과
▁수 주
▁사 찰
▁언론 에
▁벤 처
▁길 어
▁방식 이
▁죽 일
럽 게
전 대
▁내 외
▁벨 기에
▁어린이 집
▁숨 겨진
▁총 장
▁즐 겨
▁정도 를
6 )
▁원 활
▁아 쿠
▁공동 으로
▁주 시
▁골 목
폭 탄
▁메이저 리그
L G
▁창 설
페 라
▁매 치
강 을
기 아
▁허 락
▁위 축
▁스 톤
경 기에
▁198 2년
▁여 섯
▁강 행
번 의
▁8 년
▁전망 이
▁첫 날
화 )
▁죄 다
▁관 리를
▁팬 들에게
꺼 번에
▁신뢰 를
▁망 가
▁생 략
▁특 기
▁들 면
내 에
▁아이 들을
▁이 원
▁내 일
▁없 으며,
로 만
가 에서
▁서울중앙 지법
▁사람 과
▁ 갔다.
▁L ove
인 트를
▁남 기고
▁반 성
▁대단 히
▁198 3년
a h
▁경 매
▁제시 한
e ct
사 실
코 를
▁벌 였다.
E T
▁후 퇴
▁순 환
▁휴 식
애 니
▁농 담
▁나 중
분 으로
( 제
▁비중 은
▁얘 기가
들 <|endoftext|>
은행 의
민 을
조 작
▁어렵 다는
▁' 세
월 한
▁터 치
▁ 탕
상 담
▁자 존
▁이전 에는
▁보 육
▁경쟁 력을
과 대학
▁강 서
출 연
02 33
▁팀 에
▁니 콜
▁( F
▁군 주
▁맞춤 형
테 랑
회 복
▁신 장
▁전망 했다.
▁회의 에서
▁되 며,
▁시 공
림 의
▁키 리
▁마 왕
디 지
▁들어 올
했 습니다.<|endoftext|>
O T
▁한 꺼번에
▁법 을
▁뒤 에는
체육 관광
열 이
토 와
국제 공항
▁개 량
▁우 호
먹 고
▁5CT_00 16
▁올 리고
▁고 가
▁스타 크래프트
▁올해 의
▁식 량
▁선택 한
▁행 사에
▁편 지를
▁욕 을
▁나 나
▁메 모
▁이곳 에서
해 줄
▁가만 히
▁전 함
받 았
투 수
▁ 읍
__ 04
살 이
▁민주 화
▁주 가
버 릴
▁자 를
금 지
는 지는
하면서 ,
▁땅 에
▁모양 의
하 다면
▁대다 수
▁8 7
▁피 격
카 ,
투 스
▁운영 을
통 제
▁세 르
▁마 쳤다.
가 게
▁학 과
▁왕 국
▁얻 기
▁가벼 운
▁말 한다.<|endoftext|>
▁G T
▁시 즈
▁짓 는
▁계 절
▁그 해
▁A S
. 13
미 로
▁게 스트
▁C F
중 이
▁결정 적인
▁간신 히
▁사 마
도 <|endoftext|>
▁대표 적
▁후 임
▁믿 는
▁BT DO02
통 은
▁아 크
▁프 랜
대한민 국
▁BS DO02
라 비아
▁프리미 어
▁9 2
▁지 혜
▁국가 안보
▁확인 한
▁5CT_00 17
G B
/VC P+
▁S D
▁금 감
태 평양
▁로 맨
▁대표 적으로
▁스티 븐
▁탈 북
▁병 원에
▁명 문
련 의
안 과
▁공 수
▁부 장
학 ,
당 ,
▁원 장은
▁조 약
▁차지 하고
▁코 어
▁준 다.<|endoftext|>
▁개 를
an n
▁당 국은
무 는
▁감 상
▁기간 이
▁누구 도
▁자체 의
▁일어 날
▁기 분이
▁M y
▁팔 아
▁성폭 력
▁이 순
▁소개 했다.
▁유나이 티드
▁북한 을
▁의미 한다.
싸 움
교육 을
되 는데
▁내 수
▁초 보
부 채
▁저 주
▁지도 자
틀 랜드
되었 다는
▁순 서
▁원자 력
변 호
▁가 지는
▁권한 을
부 인
이 <|endoftext|>
▁불 평
▁아 테
▁정상 적인
▁못 했다.<|endoftext|>
▁학교 에서
▁오피스 텔
▁두 루
층 에
위원회 에
▁임 상
카 페
▁게임 에서
▁1 %
▁자 발
값 이
미 르
다 )
a <|endoftext|>
▁높 고
▁토 요일
▁메 타
▁에 르
사 법
합 을
차 (
▁들어 간다.
A 0233
▁정 유
G A
농 구
▁헌 터
-0002 8
▁좋아 할
-0002 9
▁천 천
▁놓 여
▁왕 의
▁학생 이
▁비즈 니스
나무 위키
만원 으로
냐 ?
▁우려 를
▁전 수
▁자 의
▁상 주
▁SK T
전 시
▁감 동
코 <|endoftext|>
▁파 크
▁할 지
▁도 저히
경찰 서
으 려는
▁인 식이
방 으로
▁치 킨
▁있 느냐
▁토 마
▁안 산
▁" 박
▁검 거
▁아이 콘
30 분
화 <|endoftext|>
▁구 하기
▁입 찰
미 <|endoftext|>
▁' 동
eat .
▁들어 오는
▁분류: 198
사 관
▁벌 이는
▁해 수
양 은
▁다 이어
뉴 얼
객 이
발 로
경 ,
▁감 수
▁유 성
주의 를
▁해 임
카 운
▁침 몰
▁데이비 드
J O
▁시 진핑
っ た
▁작곡 가
피 안타
되 지만
▁작 가는
▁저렴 한
▁계획 "이라고
▁누군 가
▁배 후
자 연
▁포 털
▁들어 선
▁사 장이
▁높 였다.
▁3 ~4
필 더
▁키 우
하는 게
▁머 리에
▁옹 호
▁시설 을
▁시내 버스
▁아티 스트
인데 도
메 르
▁잠수 함
▁죽 고
린 은
▁' 모
▁남 한
▁알 리는
▁하 계
하 듯
▁" 시
▁ .2
▁스위 스
▁+ 1
운 용
▁책 은
▁듯 하다.<|endoftext|>
▁반 사
▁해 리
▁강 연
▁국내 에
▁최 적
태 가
▁전기 차
▁해 피
듯 한
▁설립 된
▁보 너
▁ 랜드
▁미국 인
▁걸 그룹
▁시 중
▁더 /MAG<|endoftext|>
▁ )은
▁비례 대표
▁추 산
▁군 의
▁어려 움
▁6 회
▁초 중
▁기 사가
▁전 락
F 02
▁서울 에서
▁데 에
▁구 경
▁칼 을
협 약
▁가 문의
▁없 는데
▁성 격을
▁맞 대
▁얻 게
▁늘어 날
▁여 기는
갔 다.<|endoftext|>
용 품
▁자 금을
방 은
▁인 질
▁장 점이
▁당 분간
▁서울 시는
하자 마자
기관 의
▁' 강
워 즈
▁카 와
것 으로
▁과 목
명 에서
▁동 행
) 라는
▁이 화
▁병 력을
언 론
▁발매 된
임 대
▁결정 했다.
▁우 익
▁사업 은
▁한 반
▁직 원이
▁시 정
▁나라 가
더 러
▁모 모
▁다이아 몬
' 인
▁이어 져
▁감 추
됐 다"고
배 가
▁적 당히
▁됐 다.<|endoftext|>
▁어지 간
파 는
▁5 위
▁감 축
ol l
▁직 전에
쳐 서
▁계열 사
▁세 이브
▁속 하는
산 으로
▁레 알
▁감독 을
이었 다는
▁신 생
▁조 만간
8 )
▁공화 국
▁창 단
▁자신 들이
구 간
▁그러 다가
대 비
▁위해 선
▁시 계
▁S R
▁지키 고
▁비 율은
▁7 00
▁혈 액
기 (
▁6CT_00 51
마 켓
▁열 릴
▁시작 할
▁냉 장
▁맛 을
▁안 동
▁개 장
▁쪽 에
추 가
▁리더 십
▁의 해서
▁게임 에
) )<|endoftext|>
자 본
▁9 4
▁197 9년
▁당부 했다.
▁성 명을
▁잘 라
▁일부 가
▁지 뢰
▁전 력을
▁구 별
되 는데,
▁막 고
작 으로
전 차
▁싸 운
되어 서
▁인근 에
▁기자 들과
▁주인공 은
▁돌아 가는
자 료를
무 성
▁통 하여
▁주인공 의
기 금
▁입 사
병 의
▁기획재 정부
▁드 라
▁어머니 는
벽 을
▁미 네
▁I M
▁당 첨
▁주민 들의
▁대 조
커 의
투 어
▁대 피
▁ 싼
-0002 6
▁지 고
기 나
▁이 씨는
저 우
I VE
▁모델 로
교 수
▁세 웠다.
▁수준 에
C G
곳 이
▁' 소
▁권 유
▁의 장
▁예 로
▁일본 인
18 0
▁198 1년
▁조 국
▁이 윤
▁귀여 운
억 원이
▁대단 한
▁각 본
▁ 뱅
미 지
▁기간 에
▁' 한국
dddd dd
기 )
▁외 곽
산 과
▁정책 에
어 .<|endoftext|>
세 스
파 이어
▁보 충
분 석
면 으로
P M
▁교통 사고
▁이 인
▁권 력을
8 ,
▁바람 직
》 의
▁수 험
▁각각 의
네 스
밀 리
. 17
하지 도
▁2 명이
▁매 번
▁발 탁
워 치
▁BM W
전 선
▁지역 으로
▁확인 하고
보 지
▁BTB E02
▁BSB E02
▁강 화를
ow er
▁음 원
▁학교 를
▁( https://
경 기를
▁아르 바
▁시 골
▁g oog
▁때문 이라고
▁사회 에
▁시절 부터
▁논 의를
▁어 딘
▁한 은
▁참여 할
▁나 빠
▁대학 원
두 로
(...) .
▁여론 이
s h
▁매 직
▁외 의
▁면 제
▁3 <|endoftext|>
▁요 소가
▁작 사
▁날 아가
▁가 기
▁범 위가
▁평 이
▁존재 가
- 16
▁베를 린
▁( P
▁파 울
▁국 세
▁지 점
▁아름 다
▁조용 히
▁멤버 들이
▁바 에
▁교 섭
▁기억 이
X +
▁나이 에
▁리 스크
▁받 으면
▁4 :
▁문제 와
▁전체 적인
▁사태 를
까 ?<|endoftext|>
▁ 룬
~ 9
▁f ont
▁성폭 행
▁역 량을
▁불 량
▁마 비
▁거래 를
보 에
▁몬스터 를
/JK O<|endoftext|>
▁뛰 어들
▁증 폭
저 가
곳 의
▁드 레
▁드 론
▁정 해진
▁소 외
▁된 다면
let ag
▁goog letag
▁빅 토
▁뒤집 어
▁9 3
▁쉽 다.
▁결 론을
▁조 달
▁표 정을
▁무사 히
▁미 루
상 승
▁출생 분류:
는 지,
▁정 차
" 을
▁재판 을
▁메 모리
al e
▁남 는
디 를
t le
케 이션
▁펼 쳤다.
▁겪 는
▁던 진
▁기 름
센터 를
▁합 계
▁영화 가
3 000
C D
▁모델 을
▁세계 적으로
하였 으며
▁고 조
▁참여 해
▁5년 간
속 을
( 15
이 동
▁짐 작
소 시
▁했 으나,
▁역 <|endoftext|>
▁이야 기는
사 에게
▁영원 히
기 본
▁승 부를
re am
리스 의
▁찾 지
▁그런 /MM<|endoftext|>
▁조 항
▁오로 지
되었 는데,
▁미드 필더
▁산 림
▁보여주 었다.
▁수 차례
▁안 티
I M
▁8CT_00 22
장애 인
마 한
▁유 연
▁터 미널
▁대 지
사 스
▁이 닝
▁유럽 의
▁( B
▁숨 겨
▁번 에
문 으로
청 의
선 <|endoftext|>
▁3 번째
▁아 즈
▁분 산
. jpg|
▁시절 에
월드 컵
▁박 종
▁남 자가
▁당시 에
▁차 세대
▁지 표
▁중 형
▁5· 18
▁예정 인
▁기대 하고
▁신 고를
▁줄 을
▁사 안
▁마 그
▁과 장
▁상 반
초 를
.... <|endoftext|>
▁J R
하 신
▁아이 폰
▁사례 를
골 프
▁발 효
러 브
명 에게
견 이
마 ,
▁저 소득
▁( ...
▁납 품
▁아버 지를
▁불가능 하다.
▁독립 운동
▁건강 보험
▁도 내
ou s
▁속 한
들 고
▁남 을
▁일본 군
▁서로 의
▁처음 에
▁ {{{
취 를
▁' 성
▁검 사를
▁약 화
▁이 의
▁경쟁 력
▁장면 은
미 한
5 <|endoftext|>
초 간
히 지
료 로
▁있 다며
▁귀 환
▁않 지만,
르 를
부 족
▁고 무
▁한국 에서는
▁차 이는
▁편 곡
▁폭 염
in k
▁차 가
체 스터
▁두드 러
▁투 기
▁지역 구
거 를
▁서로 를
▁파 고
지 나
▁확실 하게
속 도가
재 정
민 과
▁ !
플 래
▁15 년
▁모습 도
▁치명 타
있 고
▁아마 존
비 서
▁바른미래 당
처 벌
▁2 라운드
. 14
▁만 났다.
▁상 륙
▁사용 된
) 이다.
▁만큼 ,
▁좌 절
▁밑 에
E X
▁이 긴
보 증
▁알 레
▁즉 위
▁미래 에
- 03
아 아
▁쌍 둥이
un d
▁발표 된
▁숙 박
▁김 선
▁번 의
▁제외하고 는
▁신 사
▁ 쇄
▁좋 고
▁유 혹
▁신 축
▁브 레
▁엘 리트
▁비중 을
▁이뤄 질
▁보여주 며
www .
▁것이 며,
▁캡 틴
▁관 해
▁ at
▁' 더
▁돌아 왔
▁끝 나는
시 에서
▁워 크
▁질 환
▁생각 은
▁경상 남도
▁바람 이
여 대
▁비 유
▁코스 피
▁" 새
▁설명 이다.
▁맞 을
두 를
▁1 세
▁지 냈다.
▁세 인트
▁지나 가
▁s h
▁전 역
▁박 상
▁경쟁 을
▁포 럼
▁세 력이
▁철저 한
▁돌 연
▁과정 이
▁유 학
▁체 인
▁영 남
▁' 해
▁A M
a ,
▁자이언 츠
▁방 북
/V X+
▁의 식을
▁홍 준표
▁진출 을
n t
플 라
▁코 코
탄 의
음 은
▁이 메
병 으로
D 00
희 ,
▁모습 이다.
▁노 선을
판 으로
▁극 히
보 의
▁비 타
고 리
▁전 멸
▁들어가 면
십 시오
▁터 널
. 16
▁대비 해
▁연속 으로
▁조사 에
▁디 버
▁고 도
▁수 렴
▁논의 가
▁권 리를
▁이 었다.
▁오 르는
▁손 상
▁알 지
▁제공 하고
렉 션
▁공 인
▁돌아 다니
▁데 는
. 19
▁끊 어
▁" 일본
▁싶 지
▁활동 에
포 스
▁안 나
▁건강 한
▁용 서
하 느냐
▁돌 고
▁N o.
/ 3
▁주 된
▁우리 /NP<|endoftext|>
렸 고
▁타 율
▁뒤 인
▁BT AA000
▁BS AA000
▁이루어 져
▁요 약
▁G r
▁세 탁
▁이용 해서
▁아 까
▁제 갈
▁이것 도
▁나타난 다.
▁경기 장
▁여 성을
까 진
▁건 드
▁레벨 이
▁도 구
동 )
▁느 린
▁승리 로
규 칙
원 (
포 의
▁카드 의
▁인간 을
▁수 시로
▁또 ,
▁피 터
▁언 더
os e
▁법 칙
▁포 스
o ol
▁하 려고
명 이다.
▁가능 할
보 장
▁싶 다"고
▁프레 임
▁나 다.
차 이즈
▁수익 을
줄 이
▁스 이
미 에
▁재 임
인가 ?
▁부 가
▁기업 들이
N G
▁맡 게
▁가 요
( O
▁전 송
▁연 다.
료 는
▁사 단
▁이 현
슨 은
JO 04
분류: 나무위키
▁탄 약
▁안 전을
▁태어 났다.
re e
주 군
학 습
▁없 도록
▁품 목
네 이
고 지
▁실 용
▁루 이
▁3년 간
▁감소 했다.
집 이
▁인 프라
~ 20
▁막 상
L <|endoftext|>
▁초기 에는
▁b order
▁당 의
▁197 0년
▁개 선을
슬 링
▁쓰 인다.
▁2 조
디 자인
▁실 은
의 의
▁중국 인
그룹 의
▁믿 을
▁삼 각
▁빌 딩
▁김 씨
출 을
현 실
비 서관
없 다.
a i
번 을
/ h
적 한
▁일 요일
▁본 질
▁외 야
▁운 항
▁커 리어
▁예정 된
▁연 인
▁이곳 에
▁신경 을
빌 딩
▁( 3
▁수 확
▁수 단
▁정 성
프 라이
▁,# dddddd
▁사 직
▁원 유
▁198 0년대
▁방 한
▁늘어나 는
▁셋 째
▁놀라 운
▁폭 스
or k
▁캐릭터 는
▁유 가족
▁"대 통령
나 기
▁대 사는
▁1일 부터
▁군 단
▁가 디언
▁해 산
han i
급 여
8 000
▁그 레
▁노 리는
▁아이 언
( 7
-0001 3
▁결혼 을
▁스페 이스
▁마음 으로
B J
X X
▁부모 님
》 ,
▁심 화
. 18
▁드러 내
키 아
▁자랑 한다.
수 <|endoftext|>
코 스
▁주 제에
he ight=
▁4 000
가 <|endoftext|>
▁추진 하는
" "
▁더 이상
▁ 으면
비 행
▁골 라
▁판단 했다.
ter n
▁공격 할
▁육 아
▁기자 간담
▁바르 셀
▁유저 가
▁페이스북 에
▁정 식으로
▁상 하
▁구 할
▁신경 쓰
5 %
▁주 었다.
▁장 남
▁문 서를
▁웹 사이트
▁죄 송
이었 기
▁기자회견 에서
쾌 한
▁팬 들
· 정
리 (
▁엔 터테인먼트
청 와
▁검 출
▁토 요
▁집계 됐다.
▁통 화에서
▁근로 자
6 000
▁그림 자
캠 프
하고 도
▁호 의
강 의
▁" 해
▁폼페이 오
▁떨어 지
▁나오 면서
▁부 친
▁미 사
▁파 업
게 는
▁조 롱
▁죽 이는
▁전 임
▁선 행
▁전투 기
년 의
와 도
▁무 용
▁인사 청문
놀 이
▁이 마트
▁준 수
▁타 락
▁방침 을
▁엇 갈
독 립
▁U EFA
되었 으나
▁ 에게
▁일 간
▁이 천
▁하 시
▁카 트
나 서
▁헤 비
▁청 탁
물 과
▁( D
o ver
▁단 점이
네 의
빌 리티
▁나 폴
▁많 을
범 이
▁면 담
▁거 세
▁키 우는
▁E x
▁쿠 키
▁스 텔
▁허 나
▁지 칭
학 기
▁달 한다.
▁병 원으로
▁넘 기
▁아이 의
▁말 하자면
▁이 준
▁뉴 질랜드
ig h
▁의 하여
▁도 모
▁만 루
온 의
▁명 품
공 정
▁일각 에서는
▁ 람
받 는다.
▁집행 유예
셔 서
급 이
▁지 사는
▁휴 가
▁- 10
▁권 장
▁투 구
나 라는
함 으로
이었 는데
▁흑 인
▁개 신교
주 자
▁이 들에게
▁감 싸
▁24 시간
▁즐 기
▁부정 적
▁공 지
▁사 카
▁회 사를
▁은 폐
▁서초 구
' t
p p
hani .co.kr
▁" 문
▁보여 줬다.
▁겪 은
▁효과 로
▁지 붕
▁호 위
▁측 에서
▁c h
▁좀 더
▁얘기 다.
▁코스 닥
하 하
▁차지 한
▁구 형
▁초 점을
▁나머 지는
▁태양 광
▁박 진
▁벌어 지는
▁이번 엔
as e
▁천천 히
▁3 명이
▁사라 져
블 로
크 ,
▁LG 전
▁동아 시아
▁제목 의
▁대통령 에
am p
▁25 %
▁회 사는
▁찾아 온
▁지나 면
▁회 상
센터 는
▁구 역
▁올 바른
▁30 여
초 <|endoftext|>
▁상 용
즈 니
▁루 이스
▁민주 노총
▁앞세 워
▁인물 이다.
과 거
뮤 직
▁이 고
▁보 이지만
▁역 사가
▁프리 큐
▁K O
▁빛 이
버 드
▁구속영 장을
▁라 틴
▁정권 의
▁지적 도
▁ と
원 인
▁본 회의
농 협
칭 을
▁우 크라이나
한 데
스 페
! !<|endoftext|>
크 와
▁브라 운
▁어째 서
별 로는
문 과
() 는
▁조건 이
▁' 도
▁재 검
▁18 6
▁7 회
▁여성 은
냐 "고
▁국 적
▁진행 되고
▁사회 를
독 한
었 으며
▁게임 은
교 도
-0002 7
본 부는
▁5 천
▁말 라고
▁조건 으로
▁비 로소
감 으로
▁나타 내는
▁실 수로
▁나 눈
▁진행 될
▁가 죽
세 요.
▁국회 에
▁갤러 리
▁플 라스틱
▁활동 이
테 러
▁유지 하는
▁in line
▁의 상
& D
아 키
▁도 끼
지 상
▁행 정부
▁표 명
▁사 귀
▁쓰 여
▁루 시
▁춤 을
신 에
▁지원 이
▁미국 ,
▁상징 하는
▁살펴 보면
▁면 이
▁식민 지
▁쇼핑 몰
레 가
▁보 이스
▁아이 들
▁교과 서
▁떨어 질
▁답 이
▁부분 에서
▁전망 된다.
▁크 림
▁승 차
▁트 레이드
▁비슷 하다.
. 20
자 이
▁어마 어
▁m y
▁않 다고
▁상 기
변 을
▁응 용
쳤 다.<|endoftext|>
▁죽 이고
▁딸 이
공 무원
본 다.
미 노
▁적 힌
익 을
▁유 적
▁요청 했다.
▁한번 에
▁것 들이
▁선수 로
▁분야 에
▁포 수
▁피 로
▁합 작
▁12 시
차 게
▁무 선
▁부 시
▁참여 했다.
▁받았 다고
▁' 노
▁주장 하고
▁초반 에는
▁시 를
▁연 쇄
박 을
▁면 허
▁직원 들이
퍼 런
▁추가 바람
▁초 등학생
▁불확 실
▁유 포
▁네 오
▁유럽 연합
집 행
▁리 스트
▁요구 한
▁인물 로
▁구 로
▁의원 과
▁포함 되어
쉽 게
▁노 리
E B
▁O r
▁막 판
▁ 았
▁모습 에
▁8 ,
▁좋 았
▁별 도
▁시민 들의
▁무 거운
다" 라는
시간 에
▁너 의
맨 이
bo ard
▁1 .2
▁전 승
▁한마디 로
▁군사 적
▁고 시
▁마 신
▁8 회
수 출
▁패 스
▁눈 앞
릭 스
▁기 를
us h
▁보고 서를
▁아래 에
▁왕 자
▁국 산
▁환 자의
▁뜻 이
▁물 류
▁ た
( f
됐 고
▁하나 ,
▁최소 화
회 계
▁전 제
▁활동 하고
▁해결 을
엔 터테인먼트
9 ,
▁w h
▁입 지
▁점 심
▁지원 할
▁공간 이
▁임 진
▁낮 다.
▁구 름
▁이 진
▁해결 할
▁달 리는
▁경제 가
▁M F
▁상 한
▁학 력
▁더 구나
▁맞 으면
▁대 동
▁수 직
빨 리
▁가 리지
19 0
▁집 필
▁판단 을
▁등장 하지
▁형태 를
▁모 았다.
▁선택 을
▁철 강
년 이
개 선
▁사회 복지
▁가족 을
▁총 리의
이자 ,
마 치
▁입 는
▁연 수
▁스 턴
▁수상 한
▁놀 이
▁시 위를
▁키 가
▁모두 를
▁걸 릴
▁내 릴
기 '
▁컨 설
▁15 %
▁나서 야
▁20 분
▁전라 남도
▁업그 레이
m s
▁버 프를
▁드 럼
▁사 살
▁무 승
▁간 편
▁A 씨가
▁광 명
▁지역 이
말 이
▁주 저
▁군 산
▁17 0
▁총 알
▁맥 주
ik e
▁병 원에서
▁발 렌
▁내 달
▁밸런 스
▁시청 률
▁사항 은
나 <|endoftext|>
▁주 축
였 지만,
▁휴대 폰
▁행 사가
▁추 종
▁머 리카
▁피 가
브 로
▁거 는
▁콘 셉
00 <|endoftext|>
▁ %
창 조
▁자 폭
▁누 르면
▁( 198
▁오 면
/MA G
▁화 해
으면서 도
▁제공 할
철 이
▁개 관
▁8CT_00 25
▁중 지
▁F l
▁B e
· 북
▁프로 필
▁콜 로
▁W e
▁총 장은
▁공정 거래
▁그 랑
▁배 송
맨 의
▁모양 새
▁함께 하는
▁태 도
시 장의
▁언급 했다.
박 이
사 들은
▁숙 련
▁이내 에
▁했 다"며
▁호 평을
▁범 위를
▁일본 을
▁고 쳐
▁니 코
- 17
▁조 연
▁박 원
▁새 해
▁우 회
▁크 기가
▁지 냈
▁스타 디움
메 라
▁짓 고
▁억 지로
▁고 립
▁납 득
▁판 정이
집 에서
▁되었 을
타 니
▁정부 를
▁않 으며,
요 금
▁캐 논
기업 의
▁청와 대가
▁이해 가
▁무 섭
ruby (,
▁기업 에
▁아직 까지
▁불 렀다.
▁" 인
▁당 하고
▁드라이 버
였 는데,
볼 넷
▁18 7
▁디자 인을
- S
▁8CT_00 39
▁기간 을
▁"이 런
▁피의 자
( 영
▁주민 들은
▁들여 다
1 000
▁고 ,
개 인
as h
리케 이션
시 장이
▁파 생
▁결정 할
▁ ん
▁청 춘
▁좋 다고
▁그러 던
▁위원 장의
보 병
▁이유 다.
▁이번 에도
arg in
▁몰 고
▁보 였다.<|endoftext|>
▁주 어진
▁조 율
▁마음 의
▁곡 이
▁도 약
▁의 지가
▁개 체
▁후반 에
▁P r
▁촉 진
’ 에
리 바
▁모 의
▁크 지
매 치
루 ,
됐 을
▁주 자
드래 곤
▁성 매매
▁착 공
4 000
▁있어 ,
▁8CT_00 20
▁안 녕
▁노 력이
령 의
▁토 너
- K
▁경우 엔
콜 릿
지 노
▁실 태
▁또 /MAG<|endoftext|>
▁같 지만
▁김 명
▁10 명
▁공 백
정책 을
▁존재 한다.<|endoftext|>
▁빛 나는
남 부
▁예정 "이라고
▁이 다.<|endoftext|>
▁3 억
▁실 책
▁문 명
▁정보 통신
T S
▁못 했
팩 트
▁지방 의
▁2 천
▁스코 어
▁반 해
▁서 둘러
▁정 우
▁생 방송
▁U N
저 의
수 지
▁소 문이
제 재
량 과
▁임 직원
▁나누 고
▁구 리
▁블 레이
▁것이 고
▁성 적이
▁사용 하기
속 이
▁지 시를
▁중 이다.<|endoftext|>
▁마 블
▁아 틀
▁이 세
시 스코
인지 ,
▁평 을
지 던
ize :
▁사 양
▁" 주
학 부
▁제재 를
▁하 겠다"고
▁연 동
▁간단 히
▁기 기
▁상 생
스 틱
인 들에게
▁유지 할
2 50
렸 지만
▁것이 기
▁실패 한
· 전
▁조 세
▁실질 적으로
▁특히 ,
▁박정 희
각 이
▁기 둥
▁' 진
▁194 5년
레 의
린 을
▁브 렉시
▁몰 라
▁본 사
▁수 업을
▁생각 하지
▁공 부를
▁리 드
▁줄 이
▁이집 트
▁발 로
▁학생 들을
▁캡 처
▁되 지만
▁끝 이
▁하여 금
계획 을
▁취급 을
고 용
재 산
▁꼽 히는
▁대 접
▁ 줘
▁때 와
▁때 보다
▁엄 격
▁바라 보는
▁" 부
▁판매 하는
▁품 고
▁실 전
속 으로
모 는
▁박 용
▁조별 리그
▁보 강
▁기록 하고
▁한 타
러 의
즈 <|endoftext|>
▁둘 의
▁오 락
▁초반 부터
▁여기 저
▁ 니다.<|endoftext|>
속 히
▁평 일
▁생 명을
공 사는
▁책임 이
▁포 위
통 화
▁생각 에
▁위 주의
법 ,
▁찾 았다.
▁먹 으면
종 으로
▁중 이던
▁3 분기
▁신 년
2 의
▁ 었다.
▁코믹 스
▁ 려
▁행 사는
연 ,
자 문
▁자 진
수 준
혹 한
▁염 두에
▁나 치
▁모 순
▁양 도
▁후보 자는
▁자유 를
▁3 분의
야 만
바 가
▁레 스토
세 종
▁노 리고
▁마 디
▁원 천
▁따 져
1 20
▁파 격
▁같 다고
▁대 의
▁시작 했다.<|endoftext|>
▁' 여
▁수 류
ul t
▁버 리는
▁지 위를
▁확 신
▁반 짝
▁관측 이
▁상승 했다.
▁채 팅
대 회에서
▁걸 친
▁되돌 아
▁기 쁘
▁안 /MAG<|endoftext|>
ro w
▁작 전을
능 력이
▁전 까지는
rad ius
▁추 후
▁대 행
▁증 상이
▁백 성
▁대표 이
▁하 에
찬 을
▁얼굴 에
▁검토 하고
▁끝나 면
▁함 부로
▁추 방
되 도록
▁납 부
간 이
▁사 흘
▁세 력을
▁있 나
▁고려 하면
▁상 세
▁않았 다"고
▁청 원
▁인 적
레 를
▁의혹 에
▁성능 은
▁소 음
▁싶 다는
수 요
▁채 무
▁하나 .
츠 는
- 6
행 위를
▁퍼 져
▁격 추
▁대 면
▁문제 도
▁하늘 을
▁중국 ,
▁한 ·일
해주 고
차 ,
· 유
▁비 해서
2 로
▁주요기사 "
▁10 5
· 1
▁생 애
선수 권
▁여 는
▁사건 과
정 원
훈 의
▁되 겠
▁드 루
▁th at
▁피 에
목 적
▁확 립
▁음 료
▁U+ 11
▁성공 을
▁세 금을
토 니
▁비 전
▁최 상
복 이
▁벌 여
등 장
( 8
▁유 가
し て
앤 젤
▁온 천
▁인천 공항
▁SU V
▁거 리에
▁베 테랑
▁고스 란히
기 계
▁카 미
▁카 드는
▁트 라이
▁읽 고
▁어머니 의
▁나선 다.
▁손 꼽
- radius
▁석 탄
▁제품 은
▁응 시
▁가지 게
조 ,
▁공격 으로
▁ >
기 .
▁9 1
▁방식 의
▁쫓 겨
▁가끔 씩
▁밝히 고
니 스트
▁사이 드
토 론
17 0
* *
I ON
원 들의
▁국 어
04 0
▁무 라
▁마 코
▁2 군
▁농 림
▁바른 정당
시 에는
우 러
▁치명 적인
▁자율 주행
▁기술 로
▁기 점으로
왕 을
▁두 는
▁트리 플
바 지
▁현 상을
▁그러 니
▁경우 를
▁키 스
폭 이
였 으며,
후 반
▁아니라 면
▁심 심
▁중 ,
▁출 력
▁정 준
▁기준 이
▁찾아 볼
▁삼성전 자는
▁엘리 베이터
신 고
▁전략 적
▁웨 스트
이었 지만,
현 을
▁아닌 ,
▁모델 이
▁고 지
▁오 고
-s ize:
▁강 아
▁M ar
▁비난 을
▁제 치고
▁보도 에
▁저 하
▁필요 로
▁바 랍
▁처 분을
▁동 구
▁필요 할
▁정책 이
▁배 급
}} }
03 0
▁C V
▁줄 일
▁맞 물
▁2 분기
수 입
▁포 토
▁가 중
자 '
▁모양 .
▁셈 .
▁이뤄 지지
▁기 병
▁100 여
▁준비 하고
▁익 스
▁물 품
▁했 으며,
▁I P
▁명칭 은
▁KT X
▁기 성
▁남 기
▁식 사를
▁정 동
▁바 위
퇴 근
#x 11
i ent
▁프로 야구
▁W ar
바 겐
▁한정 으로
▁패턴 이
▁수 염
display :
▁밤 에
u k
그 리
▁히어로 즈
▁소 중
시 타
▁피 하기
▁선고 했다.
수 리
re ss
▁사쿠 라
▁후속 작
▁나 에게
▁정 교
▁펼 치고
▁추진 할
▁많 기
▁3 배
오 ,
달라 "고
▁상 술
▁찍 고
▁나 노
▁백 화점
바 나
▁원내대표 가
▁미 성
와 이
▁조금 만
▁휴대전 화
▁강 등
▁심 해
▁살 던
▁출 루
▁들어 서는
▁40 대
사 리
▁정도 였다.
나 갈
▁I t
▁김 연
▁리 처
앨 범
▁오 마
▁리 우
재 ,
▁선정 된
거 야
모 드
러 니
▁않는 다면
▁"앞 으로
▁기술 은
O W
▁W h
과학 기술
▁연 세대
▁치 매
강 화
홀 에서
슨 이
▁벽 을
▁밥 을
▁상 속
▁하루 에
▁맞 았다.
보 수
▁않는 다"고
위원회 에서
▁관계 없이
▁슬 롯
▁회 동
▁크리스 탈
▁관계 는
▁등 극
라 !
▁여 자가
▁신 발
▁사 제
네 마
▁여 전
적으로 도
▁단 위로
▁체 중
▁가족 과
▁마련 해
▁사냥 꾼
▁자 회사
▁197 3년
▁높아 지고
▁일 환으로
▁1 등
▁움직 임이
▁언급 이
▁규 정을
석 으로
▁전 과
▁목 적을
▁자 영업
▁드 문
▁유닛 을
테 이션
▁드래 프트
▁어 렸을
▁남아 있는
오 버
난 다.
▁거주 하는
▁푸 틴
비 치
터 로
스 틴
▁리 뷰
▁포 로
▁동 대문
▁세 이버
▁클 릭
▁맺 고
▁합 체
▁70 %
▁이 송
▁범 행을
니 시
▁주한 미
~ 12
▁맞 붙
( 한
지 니어
▁후 기
▁나누 어
분 ,
▁쿠 데
도 전
▁인 명
▁비주 얼
▁제시 했다.
▁항소 심
▁' 남
▁입 시
▁바이 올
▁제 8
▁물 었다.
▁토 로
- 20
▁우 즈
▁금융 감독
▁원 주
▁상당 의
▁차 로
▁호 수
▁드라이 브
가 서
r ight
▁CN N
▁청 산
▁효 율이
▁어 색
i er
▁" 안
G C
▁사용 한다.<|endoftext|>
▁자 사
▁F TA
▁협 의를
곡 이
▁( T
▁강 점
te d
▁후 술
00만 원을
▁D F
▁디 스크
▁제작 된
? /SF<|endoftext|>
우 며
농 단
삼 거리
▁줄 이는
▁도시 의
▁합 법
▁연 락을
란 드의
▁처음 엔
▁경제 의
▁성추 행
▁너 는
▁타이 어
▁주 역
▁저 자는
() 은
▁박 수
영 웅
▁발견 한
▁전쟁 의
D D
내 에서
▁왜냐 하면
▁블라 디
▁나오 는데
▁벌어 졌다.
중 이다.
▁선거 구
멘 트
4 <|endoftext|>
편 으로
하 곤
▁문화 체육관광
▁ le
계 약을
▁칼 날
▁팔 레
▁202 0
▁' 반
▁교 수의
▁하나 다.
( 고
카 드를
▁수 강
▁찍 는
▁약 점
▁콜라 보
유 닛
▁저 희
▁와 일드
▁달라 진
▁조 현
▁수 사가
▁논란 에
▁동 서
▁막 강
째 로
▁어 택
▁미 치지
m e
▁가족 의
▁등 재
▁취 하고
▁이 끈
▁진짜 로
▁" 201
변 이
▁오 라
천 의
7 000
▁카 자
▁border -radius
야 는
▁소 극
▁유 물
▁사실 에
▁의원 들이
▁성 을
▁상 시
▁부 유
▁증가 하고
청 을
▁P art
시 스트
▁적용 해
▁만들어 낸
▁인 쇄
▁반 전
▁200 1
▁경쟁 이
A I
▁탐 험
▁노 려
▁사 육
사 들의
▁죽 기
▁적 립
▁ る
~ 15
▁해 마다
▁마 키
▁우리 에게
▁주목 된다.
▁충 성
▁심지어 는
▁width=100 %
▁세 번째
손 으로
▁시 노
▁이 르면
▁매 력을
▁포기 하고
▁관리 하는
▁아이 들의
▁의미 하는
▁옆 에서
▁언젠 가
▁탄 탄
형 과
조 와
▁비 틀
트 넘
▁단 백
▁피 어
▁우리나라 의
o on
▁M an
▁김 윤
▁미래 의
▁1 의
▁군 은
▁모으 고
▁남 의
▁촬영 한
▁후 회
▁사 임
채 를
화 해
▁최근 에
▁왕 복
▁필요 성을
▁활동 하는
' 이라
▁시 기를
▁높 이고
▁모스크 바
▁탄 압
▁기록 은
▁손 쉽게
▁숨 을
▁플레이어 의
▁미 라
▁있었 다"고
▁사용 을
루 <|endoftext|>
V A
al ign
▁어 르
▁지지 율
▁무 기가
▁탐 사
▁친 한
▁통 행
in t
▁필요 는
" 의
용 ,
조 한
소 수
▁공 사를
▁직접 적으로
놓 는
파 워
히 트
▁상황 .
▁규모 를
▁열 려
▁석 방
▁괜 히
▁전 원이
▁종 점
▁밀어 붙
▁봤 을
▁그 들
▁사항 을
▁사 각
▁있었 으나,
▁뜻 으로
▁유 산
▁것 입니다.<|endoftext|>
▁문화 예술
▁블 로
▁정신 이
▁6 .
▁물 량
▁치 면
▁정신 적
▁악 의
▁하 라
▁해 보
▁모 로
▁시험 을
▁요 정
▁이루 는
로 써
▁고 집
▁감독 과
▁역할 이
▁중 세
▁4 명
당 신이
▁D M
▁가 졌
▁싶 다고
▁1 점
▁3 개의
사 장
▁진행 됐다.
▁레스토 랑
▁백 인
▁죽 지
아 르
째 를
▁내용 에
▁제 자
▁인 피
분 은
▁파 르
▁요구 하고
▁사 자
▁이루 고
▁추구 하는
▁여 파로
▁주 무
▁절 감
▁평 화를
리 칸
▁기반 을
▁마 냥
▁트위터 에
다 거나
▁일 산
▁50 대
▁봉 쇄
▁탱 커
▁요청 을
▁ {
음 의
▁이유 도
▁받았 던
소 리를
▁프랜 차이즈
족 이
가 면서
▁" 불
▁f rom
▁덤 으로
▁붙 인
총 을
▁“ 이
N +
▁자 부
▁플래 그
▁히로 인
▁D S
총 장
▁11 2
▁유승 민
▁신 부
▁토 크
바 르
베 리
▁인 가
▁네 임
주의 자
▁내 걸
▁악 몽
▁난 다.
드 린
▁미 뤄
▁난 입
▁편 하게
▁미국 으로
▁시 킨
▁불과 하다.
▁코 난
▁논 문
▁길 에
▁' 다
▁남 해
( V
과정 에서
▁어 이
▁어울 리는
▁아사 히
▁선호 하는
or n
▁일 정한
에 스
작 품
▁보 행
경 과
▁대 인
▁젊은 이
▁지원 한다.
▁모 르게
▁슬 라이
리 기도
▁공격 은
해 준다.
▁제 휴
▁W orld
참 모
▁3 .5
▁교육 과
▁자 리가
펙 트
▁최 상위
면 은
▁의 학
▁삼국 지
▁토 벌
▁보여 줄
▁( R
▁제기 한
형 에
r on
▁생각해 보면
▁내 부의
" 이
▁삼성 은
▁튼 튼
▁50 여
▁이 광
▁잠 정
▁흡 혈
A E
▁도 대체
으 려면
▁격 리
▁' 원
▁' 주
▁상 식
▁이벤 트가
▁S F
▁0 .7
호 <|endoftext|>
찰 을
보 안
음 으로
▁화 산
노 는
~ 199
▁CP U
▁무 더
▁끼 고
▁건축 물
동 원
▁상태 였다.
▁하이 브리
테 이너
▁재 학
▁- 5
▁관계 에
▁사 정이
▁전반 에
▁마 루
▁명 절
들에게 도
· 공
( 신
▁안정 적으로
네 <|endoftext|>
▁80 %
▁극 우
▁플 랜
나 간
네 .
▁이외 에
▁우 유
▁( L
▁지 경
- <|endoftext|>
▁여 부에
▁197 8년
▁전반 적인
▁남 동
방 해
▁선수 들을
▁기술 의
▁고용 노동
금 과
심 에
▁사 과를
▁도움 으로
00 99
▁인 테
▁판문 점
세 서
값 을
▁흐 르는
▁분 이
▁김 창
▁상대 방
▁편 이라
블 록
농 업
▁당 원
▁대상 은
길 에
▁상 자
▁하나 만
▁넣 을
▁뿐 ,
▁참여 를
▁더욱 이
족 을
ation al
-0002 3
▁벽 에
▁세 무
▁시 라
▁명 목으로
▁캐 리
▁WW E
▁공격 력을
▁통 틀
펀 드
형 사
진 한
▁인 문
씨 ,
Z 02
▁군 대를
▁스토 리를
▁꼽 았다.
▁데 다가
▁버튼 을
희 롱
▁한 계를
도 어
a il
작 업
▁건 지
▁민 원
▁평 가는
▁설 정을
이었 는데,
ir l
▁산 불
▁직 면
▁style=" display:
▁밖 에서
소 프트
▁선수 의
신 ,
▁쏘 아
▁지 주
▁" 올해
▁인 격
게 이트
▁허 리
▁집 이
었 다가
( 9
▁예정 이라고
▁3 50
권 에서는
▁달 했다.
▁실 정
▁font -size:
▁제1 차
러 는
▁압 축
간 을
▁대 여
▁산 책
▁한 방
▁용 이
▁것 /NNB<|endoftext|>
먹 은
▁' 1
▁오 세
▁삼성 물
▁호 평
▁" 원
주의 적
▁대 회를
▁조 카
▁브레이 크
▁관 악
나 이트
▁압도 적으로
로 마
▁것 ”이라고
▁시절 에는
▁손 이
▁border-radius :
▁올라 가는
된 다면
- 14
▁3 60
▁차량 은
▁타 쿠
▁시 너
▁수 치가
▁앤 드
▁퀘스트 를
() 으로
▁요 원
▁선보 인다.
행 동
▁사 물
되었 지만
돈 을
▁대 수
▁무 기는
▁예 수
오 스
▁귀 가
▁돌 이
▁우 리를
▁당 할
▁# FF
내 야
▁쿠 바
▁들 지
▁추가 되었다.
▁편 에
▁관 점에서
( 대
페 르
▁캐릭터 .
능 한
▁공 방
락 이
일 으
저 를
글 라
▁발견 됐다.
▁2 개의
▁체 류
▁인정 하고
이었 을
베 이스
▁다큐 멘
매 가
▁대학 의
▁적합 한
▁초 콜릿
▁인 구는
▁역 사의
다"면서 도
메 리카
▁공 허
▁상 가
피 가
▁국민 을
겼 다.<|endoftext|>
들 목
▁의 장은
하나 ,
교 류
▁B BC
클 리
▁요 리를
▁부 추
▁정부 에서
▁구체 적
▁보여준 다.<|endoftext|>
하 되
▁" 마
▁비행 기
▁2 위를
▁심각 하게
▁엘리 자
영화 제
발 표
▁적 정
▁손해 배상
▁던 지는
▁특수 한
▁뽑 는
__04 /NNG<|endoftext|>
▁고 장
시 대의
▁중국 어
% 포인트
▁알려 지지
▁대우 조선
상 <|endoftext|>
▁관 절
▁많 다는
▁도시 를
▁밀 집
▁제한 이
당 국은
▁두 들
오 염
원 )
▁암 호
투 쟁
▁지휘 관
▁참 으로
▁따 온
▁장관 의
▁불 만
▁구 슬
▁멤버 들은
방 지
▁이득 을
▁감 정이
▁수 월
▁높 이기
▁주 체
▁페 미니
▁유 료
▁불 만이
▁마음 대로
▁" 현
티 의
▁어 필
▁의 문을
▁교 차
▁회 장을
▁확보 한
▁예 언
▁연구 개발
▁잠 을
▁저 택
▁무력 화
▁영 주
▁노선 이
▁아니 기
타 마
▁사령 관
▁없 지
▁강 하다.
/ 2
면서 ,
▁발 령
시키 며
▁검 을
▁테 라
▁놀 란
▁답변 을
글로 벌
▁광 고를
board .
▁V er
▁윤 석
중 의
▁안 성
( 12
포 트
▁소 문
▁분 해
▁백 제
▁물 가
▁공 성
▁생긴 다.
▁애매 한
마 일
▁눈 으로
▁아나운 서
▁스 리
하 셨
▁위 력을
y )
▁사 우스
▁하 도
▁서 대문
▁우 위를
시 장은
전 <|endoftext|>
▁너 희
▁불편 한
▁내다 봤다.
훈 ,
▁자 위
▁늘어나 고
▁직 장인
▁전 교
▁가져 다
▁' '
바 야
▁오 기
▁말 과
▁연결 하는
▁실 린
겠 다며
▁않았 기
만 달러
▁마 무
▁기업 을
n et
▁4 인
▁실 점
▁김 원
▁하나 이다.
▁선언 했다.
▁코 르
십 자
▁주의 해야
신 도
board. namu.wiki/
▁시작 됐다.
아 무
▁지 분을
사 이드
▁9 회
▁전투 에
▁→ <|endoftext|>
▁받 기도
▁좌 익
▁상 을
전 설
슨 의
▁퇴 장
▁터 트
▁지난 주
▁황 교안
스 도
▁심 상
▁프란 시스코
▁국무 총
▁약 물
▁간 섭
▁떨어 진다.
들에 겐
▁건물 이
결 승
토 ,
▁있을 까
교 가
▁세 우고
가능 한
▁모 욕
티 는
▁프 렌
머 가
▁총선 에서
▁현대 자동차
▁기 점
▁선수 들은
▁그렇 다면
▁떠 나는
▁질 의
▁환 율
체육 관에서
▁" 트럼프
▁동 점
▁낙 하
보 도
▁로 빈
▁9 ,
▁적 게
▁처벌 을
▁F or
코 올
▁9 개
▁방식 은
▁주 니어
▁떠 났
! )<|endoftext|>
초 ,
▁배 당
하 /XS
▁다른 /MM<|endoftext|>
▁수수 료
▁박 찬
▁2 TV
▁KBO 리그
청 구
증 으로
링 크
여 름
▁멘 탈
▁원 인은
▁와 중
▁입 대
▁드러 낸
: 10
▁상대 는
기에 ,
▁마련 한
밀 하게
▁과거 에는
▁지켜 보
▁부회 장은
▁원 더
▁인 식을
on s
▁도 요
( 김
점 검
▁되 게
▁살아 가는
상 가
주의 의
▁북한 과
치 아
▁무 리가
저 런
너 의
▁사람 으로
▁E n
스 )
커 녕
영 과
▁목 적이
키 와
▁돌아 갈
었 습니다.
제 일
D S
▁떠 났다.
▁소속 의
▁침 투
별 한
▁편의 점
▁요구 에
▁실 수를
▁완 결
▁오 케
▁사무 실
▁챔피언스 리그
▁사회 가
▁경 부
▁일으 키는
▁ ま
▁시점 에
▁모 토
▁197 4년
▁E S
▁연구 소
▁상당 수
▁방 을
유 산
데 라
▁항 복
▁방송 에
시키 지
▁아닐 까
▁y our
- 18
▁너 머
▁이끌 었다.
▁시리즈 를
▁협 동
서 부
▁비 공개
▁겹 쳐
▁엔 진을
▁일행 이
▁시 대가
▁5 번
공 헌
▁공 헌
▁전설 의
▁공 론
▁세 웠
▁종 결
( ·
▁아래 의
▁3 세
▁시청 자
▁공 립
▁사 도
▁두 /MM<|endoftext|>
▁면 적
▁박 병
▁동원 해
▁위험 을
▁전투 가
사 태
버 렸다.<|endoftext|>
▁때 만
▁D NA
▁60 %
▁히 카
▁D VD
▁분 들이
▁공 업
▁inline ;
▁197 2년
▁인정 하는
▁바람 을
▁스타트 업
▁비 웃
▁문 장
▁일 일이
▁쳐 다
▁발 레
▁결정 에
em "<|endoftext|>
내 려
분 한
변 화
▁누 나
▁덕 분
▁전 두
▁마 린
▁김 형
만 화
판 과
적 이지
초 에
통상 자원
( 가
어 지는
▁프로 모
대 회를
▁P h
▁출연 했다.
▁정 진
▁선발 로
▁3 .3
▁N e
▁의 사가
▁더 군
▁김 유
() 로
행 복
녀 가
타 <|endoftext|>
우 라
▁없었 고,
코 어
시간 )
리 한
▁안 경
▁제안 했다.
- P
▁실험 을
▁반응 은
저 럭
령 은
▁197 5년
▁흔 한
▁주장 한
▁우 라
▁12 5
▁독 서
▁증가 하는
▁버 렸다.
▁이런 /MM<|endoftext|>
▁새 가
▁시 흥
▁센 트
▁도와 주
성 우
▁루 카
▁분노 를
▁안전 하게
▁반 환
▁가격 에
▁"그 런
퍼 드
▁최 연
▁어 나
부 처
▁차 이로
▁비판 하는
술 사
▁부르 며
▁애 국
▁나오 기도
▁맺 은
▁규 제를
▁위 력
▁곡 은
즈 마
통 의
▁1 위에
▁기업 은
▁김 희
▁알 겠지만
▁작성 한
▁6 CT_000
럭 저럭
소 나
▁넘어 가는
▁입 문
▁인물 분류:
▁고 래
▁미 소를
기술 을
있 을
▁약 을
▁살해 한
▁다시 /MAG<|endoftext|>
▁즐 거운
직 자
▁추 첨
▁회 사에
▁예 쁘
▁광 범위
량 에
▁친 일
▁순 수한
▁바이 러스
시 장에
▁분 포
▁단 어를
’ 이
▁활성 화를
속 의
▁모양 이다.
▁입장 에선
▁불러 일으
▁BTHO01 00
▁BSHO01 00
▁곳 곳에서
▁자 세를
▁언론 이
- 7
▁시간 의
▁강화 하는
▁모델 은
▁선거 에
지역 의
▁운영 에
( 주
가 기
▁포스트 시즌
▁주 면
네 트워크
▁되어 야
▁스 을
▁빼 면
▁입 구
▁주 식을
▁거 북
▁' 안
▁규 탄
▁피해 자가
▁지 루
▁거 지
▁책 정
c he
▁보스 턴
▁2 승
만원 에
▁이 럴
▁탱 크
▁" 성
이었 으나,
▁에 디
▁주 장은
▁제품 의
국 어
▁않 겠다는
▁이동 통신
▁카오 스
라 디오
▁유저 들은
か ら
▁충청 남도
▁민 생
▁ 엽
▁고 등학생
▁G DP
▁오 타
▁BSAA01 63
▁BTAA01 63
▁일 고
▁1년 간
▁단 말
그 레
병 은
▁해결 하기
▁하나 하나
9 )
▁" 진
▁" 세
▁양 이
사 )
▁포 괄
m argin
▁토 리
▁내 기
9 00
▁초 고
. S
▁카드 로
▁졸업 식
▁기 증
▁고려 대
▁준비 가
▁김 무성
▁안 겨
▁빌 런
▁지 워
▁제 9
▁교 차로
▁아버 지와
▁6 만
▁전통 적인
▁대 마
▁정상 적으로
▁친 척
ー ー
▁소 드
▁거 점
▁가능 하게
▁손 해를
▁급 식
훈련 을
▁미 소
▁O S
- 13
▁경 악
▁각 자의
▁물러 나
▁에 버
▁포 격
▁구조 조정
▁싶 다면
서비 스를
례 가
▁C S
▁선 물을
( 유
지 휘
▁나 츠
▁추 미애
▁( H
플 라이
▁있 거나
결 혼
▁차량 의
▁재 산을
▁' 선
▁세계 관
▁용 어
▁연예 인
▁거 라
겨 울
▁기 생
▁쳐 서
연합 회
즈 에
▁와 인
▁시카 고
▁' S
▁생 년
’ ,
▁작업 이
규 제
▁관람 객
▁덴 마크
▁경험 치
이라고 도
▁기업 인
이 팅
▁중 .
수 엘
▁문제 다.
▁약 탈
’ 가
▁재미 있는
결 에
F02 65
념 을
▁부 르고
▁검 정
▁규정 하고
▁엘리자 베
환 ,
드 림
▁" 상
심 과
더 가
▁극 중
▁' 조
▁강 렬한
▁발생 한다.
연합 뉴스
▁그 럭저럭
▁상대 에게
▁화 폐
합 이
▁예 전에
▁하 자.
▁다 해
▁평균 자책
동 계
▁아이 들은
▁일제 히
전 공
▁엘 프
w e
▁국제 사회
▁플 러
▁연 맹
주 에서
피 는
▁언급 된
하고 는
▁여 권
▁버 거
전 부터
▁오 디션
▁할 리우
전 도
▁196 0년
▁기대한 다"고
▁강 정
▁재 해
▁날 리는
봉 을
▁최소 한의
▁줄 곧
▁말 았다.<|endoftext|>
▁생 생
▁취 한
철 은
▁박 탈
열 에
▁불 사
▁노 스
▁박 사는
▁전 지
▁홍 성
졌 기
▁반박 했다.
서 에서
▁자아 냈다.
▁타 마
▁비 춰
r .
▁고 의
▁받아 서
▁없었 다고
/S L<|endoftext|>
블 랙
▁학생 들에게
▁대법 관
▁취 지
▁표 지
▁길 고
▁된 다
▁주 인이
스 와의
철 의
▁트 라우
롭 고
버린 다.<|endoftext|>
▁법 원은
▁부모 가
어 촌
▁무 슬
▁3 가지
▁타 당
▁3 분
▁들어 왔
▁조 치가
▁면 모를
9 000
▁하 려
▁2 단계
▁배 터
▁지정 된
리 터
▁바뀌 는
▁집중 적으로
▁일시 적으로
▁매출 이
살 인
대 <|endoftext|>
▁사업 의
▁복 제
▁프로그램 이
▁방식 이다.
너 가
▁조사 하고
▁이 창
▁마련 된
▁문제 점을
▁배 트맨
곡 으로
▁동 경
▁변화 에
▁시 로
▁소 상공
▁결과 로
▁남 지
만 원의
함 의
▁일본 ,
▁함 선
▁모 노
▁고 스트
▁아니 지만,
▁묘 사가
▁차례 로
▁마 틴
▁미 즈
유치 원
인 구
▁주인공 인
▁입 에
부 지
▁기 적
▁살아 있는
▁재미 를
구 적으로
▁한 류
▁서울 대학교
▁대표 로
▁데 이트
▁장 전
광 고
▁것 과는
해야 만
▁한 중
( 11
▁사이 로
▁데 드
▁확 진
더 의
타 리
▁파악 하고
▁원 으로
바이 오
▁질 을
▁모 범
컨 대
▁구간 이
▁아르헨 티나
▁( 4
▁" 중국
▁구조 조
메 시
▁커 녕
▁라 스
▁늘어 났다.
) /
▁코 우
▁아 지
ad e
병 에
▁내 다.
리스 가
캐 릭터
▁개 가
▁라 며
보 복
▁사 야
시켜 야
▁미사일 을
6 <|endoftext|>
▁스토 리가
m <|endoftext|>
▁차 고
▁분류: 서울
▁블 레이드
▁더군 다나
00 년
세 력
▁않 다"고
▁있었 으며,
▁만나 고
▁탈 당
들 까지
▁하락 했다.
▁정권 이
▁인용 해
D I
▁ 났다.
파 와
▁4 개월
▁K CC
▁M B
▁올라 오
▁사 천
▁한 방에
▁시 ,
▁곳 도
▁준비 한
▁양 보
▁준 수한
훈 을
▁와이 번
▁액 티브
▁테 니
디 에
기 보다는
+ ?/SF<|endoftext|>
▁어 우러
▁스테 이
▁사 가
▁판매 를
▁197 6년
▁복 용
▁집어 넣
▁어렵 지
▁동성 애
▁인정 하지
▁귀 엽
▁일본 과
▁터 진
색 ,
▁' 중
▁가라 앉
황 을
▁마을 을
들 .
ol og
▁촬영 을
▁추 경
▁실 효
▁권 위
▁활용 하는
▁초 기에
▁18 5
▁함 유
en ter
▁S ch
▁고위 급
▁ 랑
▁하 /VV+
라 미
▁한국 시리즈
▁것이 며
▁높 을
장 갑
세 )
▁공 존
▁인 생을
▁참조 .
▁부 합
▁이 별
▁행 보를
▁사이 클
▁요 한
▁아 시
▁성 동
▁있 음
▁없 으므로
▁무엇 이
▁달러 를
바 퀴
O 00
▁고 사
▁국무 총리
▁공 용
현 과
▁197 1년
▁자 격을
▁따 르는
▁플레이 어를
▁착 륙
L A
▁초 상
버스터 미널
▁멈 춰
▁BSA D01
▁BTA D01
▁되어 있
▁헤 르
▁높 일
▁' 연
▁T -
▁화 제를
▁발언 은
▁길 드
▁' 상
▁국가 를
대 응
▁빅 데이터
예 를
어 머니
▁영화 에
▁좋아 서
▁시 속
M OD
▁철저 하게
▁교 토
화 되어
▁하 우스
▁중 대한
▁스스로 를
봐 도
▁맥 락
▁운 이
▁유 카
위원 장을
▁자유 한국
v en
▁평 범
▁시 신을
▁스트 레스
▁패턴 을
피 탈
▁빈 곤
루 미
▁주 유
▁" 1
꾸 로
▁1 명이
▁알 렸다.
공 학과
▁했 기
밴 드
▁A .
▁이사 장은
축 산
n ow
과 에
원 도
▁김 도
▁싶 을
▁실 려
▁표 정으로
루 와
균 관
w ay
리 거나
▁원 로
( 16
전 력
▁조 언을
▁서 면
▁처 참
하라 "고
it ion
들 처럼
▁역 설
▁화장 실
▁박물 관
▁체 제를
▁승 무원
▁시즌 에
▁( I
▁말 투
▁늦 은
▁없었 고
▁만 화가
C S
합 니
▁해 변
▁이 대로
▁악 역
계 ,
위 )
콘 서
▁무시 무
▁안 된
▁뜻 한다.
8 <|endoftext|>
▁관 건
▁기 믹
▁소 용
▁로 비
7 <|endoftext|>
▁남편 이
였 으며
▁후보 에
▁히로 시마
▁국민 들의
린 다는
-0003 5
잡 이
▁O n
▁전 국의
▁운 전자
▁시민 의
▁데 몬
▁닌 자
▁경찰 관
▁출 격
▁아이 디어
▁장면 에서
-0003 4
신 한
▁세계 대전
- B
▁호 기
▁답 을
▁사진 은
시 장을
▁의 류
▁트 래
블 리
▁나누 는
▁정 반
▁산업 통상자원
▁펀 드
열 차
▁자 민
▁불 투
▁활발 한
▁아이 러니
▁부산 광역시
출 산
up er
▁아내 가
▁A F
▁나왔 던
▁극 심한
▁전체 에
레 드
▁만 성
▁현 안
▁오 이
▁장 병
▁마 운드
▁이사 장
▁로스 앤젤
테 일
" 로
▁20 만
▁때문 이었다.
▁대부분 을
▁모 금
▁야 쿠
▁많은 데
▁점 포
▁접 어들
▁압박 을
▁불 이익
호 흡
전 용
▁최 장
▁테 일
▁취 미
▁성 희롱
▁BT IO01
▁BS IO01
구 장에서
▁이 니
기관 이
극 장
▁패배 를
▁202 2년
▁대중 교통
더 라.
▁재 차
▁F M
▁동계 올림픽
수 (
다 던
전 환
▁쓸 데
▁스트 리트
▁한 복
▁나서 고
탐 정
왕 은
쓰 고
국 장
▁2 개월
▁원칙 을
▁과 잉
듯 .
▁발 전에
▁맡 는
cm ,
▁변 환
▁잘 /MAG<|endoftext|>
▁이런 저런
경 기도
되 므로
▁성 범죄
상 도
▁토 르
▁학교 의
▁쉬 워
▁위 촉
▁신한 은행
▁핑 크
물 리
▁김 치
▁국가 정보
▁행동 이
▁커 질
▁고성 능
심 판
▁4 개의
▁사회 에서
▁호 칭
▁따 지면
▁직 선
▁해 가
▁공격 수
나 ?
▁방안 도
▁작품 에
▁생각 했다.
▁저 축
▁주변 을
▁플 라이
▁웃 는
감 의
후 가
4 %
대 기
▁가져 온
▁적 중
산 에서
호 한
b l
▁업 로드
~ 18
▁파 손
▁유닛 이
▁이르 기까지
겠 지
출 판
▁후 유
. 30
▁호흡 을
▁움직 일
당 하게
▁엉 덩
▁내 주
; &
▁놀 랍
라고 도
-0003 9
속 에서
▁박 주
▁개념 을
▁삼 고
▁V R
· 사
▁둘 을
▁제공 한
▁사 서
▁" 연
면 허
▁해 골
▁컴 백
망 의
▁대응 을
▁그려 졌다.
▁A ll
▁넘 긴
니아 의
▁근본 적인
자 라는
▁미 쿠
▁보 이기도
▁새 겨
▁근거 가
▁일 하고
▁북 구
억원 )
▁디지 몬
번 은
▁편 지
▁윈 도우
▁소 니
▁4 명이
▁모두 에게
▁D .
▁쪽 에서
- A
▁" 피
▁개봉 한
e y
▁토 트넘
▁현대 중공업
, 8
▁협 회
▁스 쿨
▁자 란
▁유 한
▁민간 인
▁천 사
▁맡 았
▁유저 들의
▁민 병
위 험
▁위 헌
0 으로
▁디자 인이
원 들은
▁프로젝 트를
안 군
le s
▁곤 충
▁플레이 가
▁표 절
르 드
▁아니 다"라고
▁직 권
▁확인 했다.
▁전 ,
▁않 자
▁이 노
정 도로
▁3 부
▁불 의
▁문 이
▁요 소를
저 리
▁날 씨
) (
▁한 숨
▁싸 움이
▁에 그
분 양
▁헨 리
션 이
▁쏘 는
▁시즌 2
▁흡 연
센터 ,
▁" 강
▁든 다.
독 일
▁표 정
. :
▁분 담
▁2 분
아 프리카
▁야 권
▁대학 에
▁좌 석
인 력
-0003 8
효 율
인데 다
▁뒤 에도
o <|endoftext|>
▁해 준
▁추 출
▁반영 한
▁경 희
▁고 난
까 봐
대사 관
▁내용 으로
▁초창 기
▁영상 <|endoftext|>
▁2년 간
m 의
▁부 통령
▁설명 이
▁통일 부
e x
- 09
▁주장 에
근 이
▁사라 지고
▁불 필
▁서울 고
▁히 틀
▁0 .4
▁폭 파
- 08
▁에 반
▁생년 월
의 회
▁1 단계
▁공동 체
▁오 페라
▁졸업 한
쪽 에서
▁빠 졌다.
▁여 부는
▁개정 안
▁불리 한
▁못 해서
▁우 측
▁배 울
네 임
▁비상 대책
▁ 얀
▁표 창
▁일 기
▁영 동
▁ 쯤
▁포 도
엔 딩
플 로
▁대신 에
▁(https:// board.namu.wiki/
▁제품 이
▁5 차
층 ,
▁시 한
▁표현 이
팀 에
▁2 경기
▁왕 국의
▁플레이어 는
▁드 릴
람 회
▁이 도
▁대미 지가
▁트 롤
▁밀 리
지 하
▁입 양
01 0
( 17
▁무 단
▁형 편
▁감소 한
▁내 리고
▁분류: 동
▁페널 티
▁요 인
() 과
▁협 상이
▁한번 도
▁후 의
▁제 11
화 장
▁5 명
▁6 000
r ic
▁내 부에
▁매 수
▁발생 해
▁인물 .
▁시 체
▁앞 의
▁별 명이
▁가능 하다는
▁이하 로
▁잠 입
▁만 드
▁G P
▁수 성
▁혐의 (
▁" 노
▁느끼 게
입 구
▁김 혜
시킨 다.<|endoftext|>
느냐 는
▁번 개
▁지 구의
시설 이
c c
▁오 렌
▁칼 리
연 속
▁모습 과
그룹 이
▁문 건
▁조선 의
!! !
▁대상 에
▁전 향
울 산
▁1 .3
▁따 르
▁남북 정상회담
- C
가 인
▁구 독
▁본 명
시 도
▁중 첩
▁의미 는
▁육 박
▁시 키는
▁1 .6
▁그룹 의
▁개업 한
반 에
▁민 첩
▁외교 적
▁스코 틀랜드
▁업 체가
▁명확 히
▁아케 이드
▁부 속
▁쓰 게
▁막 혀
▁오프 라인
▁영 어로
▁작품 이다.
if e
특 수
▁동일 하게
▁지나 친
▁처 한
▁준비 하는
러 를
M C
▁이 방
▁졸업 생
▁없 습니다.
▁성 명
▁대회 에
htt p
▁있 다”고
▁성향 이
▁확인 된
▁이어 갔다.
▁ }}}
▁미 얀
▁포함 돼
▁강 간
▁착 한
▁아닌 데
▁하면 ,
(大 )
▁해명 했다.
▁기다 리는
▁구청 장은
류 는
로 <|endoftext|>
초 의
▁파 기
사 (
받 게
▁박 경
▁문화 가
▁20 세기
종 일
▁받는 다.<|endoftext|>
온 을
PG A
▁" 실
경 비
▁그 곳에서
▁구간 을
▁엄마 가
아 니
▁스 티브
▁다 가가
▁정 권을
니 케이션
▁포 획
▁주장 한다.
론 에
▁말 했
▁가 령
이 거나
▁하 마
▁태어 났
으니 ,
▁초 당
▁제 10
-0000 2
▁높 다는
▁목소 리로
▁아 레나
▁휴 게
▁최종 적으로
▁채 취
리 도
중 계
량 도
▁일 렉
M S
▁화 제
▁리버 풀
▁잘 하는
블 린
라 인을
▁가능 .
▁죄 를
▁원 주민
네 일
▁서 번
▁테 란
▁특징 을
▁임 용
▁들어가 서
▁아마 추어
레 는
▁부회 장
( U
s p
▁치 른
▁적용 되는
▁인 건
▁최 경
▁대표 이사
▁(영 구적으로
▁사 면
▁사이 에서는
▁(영구적으로 )
▁유 세
▁위협 을
▁8CT_000 6
▁퇴 근
▁노 골
▁나오 는데,
우 면
융 합
▁행 진
▁이상 인
▁195 0년
▁것 임을
▁확인 해
▁확 대를
들 끼리
▁깨 고
녀 의
▁엑 스트라
터 ,
▁아 츠
__01 /MAG<|endoftext|>
▁메 디
▁길 로
▁10 .
▁국가 주
▁늘 리는
le ft
▁내 며
▁' 하
▁S E
▁어려 움이
▁ al
・ ・
▁느 려
후 군
▁결정 이
▁저작 권
프랑 스
▁전용 면적
▁style=" margin
▁넘 버
▁패키 지
o x
▁인 턴
▁카 츠
▁적 폐
▁클 랜
▁주인공 을
▁A nd
더 를
▁신분 으로
▁빠 르고
지 주
▁부 부가
▁우 정
층 은
er t
▁뭐 가
▁장 미
▁학 문
▁일본 에서는
▁사용 된다.
동 (
▁정 례
저 축
▁중 학생
▁만들어 서
▁스 즈
▁뿌 려
▁출 제
▁실 적을
▁마 력
추 는
▁인 텔
▁낙 선
▁향 하는
▁증거 를
감 치
▁눈 빛
네 요
령 에
▁콘텐츠 를
▁동 결
▁보호 를
iver s
▁A FC
▁감 찰
초 가
▁조금 이라도
▁2 %
▁다운 로드
▁마법 소녀
주인 공
▁생산 하는
▁프 레스
▁197 7년
▁19 대
▁닌 텐
▁미 흡
▁원 인으로
보 조
▁설 비
예 정
▁짜 증
▁원 ,
▁앞 당
▁감 탄
▁"아 직
▁위 법
▁프리큐 어
▁심 사를
▁거 꾸로
align =
▁원 조
▁수상 자
▁개념 이
▁건강 을
▁실 사
▁귀 신
▁좀 처럼
▁린 지
▁전 경
▁12 개
;& #x11
▁판 사는
창 이
▁되었 다는
/NNG+ 이
▁공산 당
▁( V
지 수는
▁전 장
▁그러나 ,
▁적절 히
▁내 어
▁각 오
▁자료 에
▁' 에
▁겁 니다.
▁판 사
▁것 들을
▁없 다며
: 20
▁올라 갈
▁2 px
▁원 숭
구 니
▁불 태
▁기록 했다.<|endoftext|>
연구 원은
시 픽
m p
▁대결 을
▁사 죄
▁정 화
블 릿
▁곡 의
· 3
▁토너 먼트
▁리 는
▁과거 를
야 를
▁허 가를
너 는
▁학 사
▁진지 하게
▁1 집
▁조직 을
환 자
▁재활 용
▁코 스트
▁맡 았던
▁3 천
▁조 상
▁196 9년
▁서포 터
▁칼 로
▁강조 한
▁마법 의
▁제 도가
+ 1
▁과 감
방 위
▁좌 파
검 은
▁재검 토
▁BSAA01 65
▁신 상
▁BTAA01 65
▁변경 되었다.
▁등장인물 .
으 라고
▁분류: 영
▁설치 해
번 <|endoftext|>
▁애플 리케이션
▁계 정
O O
▁E D
▁결정 한
▁4 <|endoftext|>
▁( E
▁당 국이
▁넘 쳐
▁BTHO03 97
▁만만 치
▁텍 사스
해 운
▁했 습니다.
▁전 염
▁꾸 며
▁명 은
▁홈페이지 에
▁background :
▁요 미
▁ 봇
▁사 촌
▁녹 아
▁ 쳤다.
안 타를
▁소 폭
▁부 끄
다" ,
▁있 다<|endoftext|>
▁지 식을
▁1 호선
▁유용 한
▁극단 적인
▁강 민
▁P R
었 다"며
지방 경찰청
형 태
릴 라
▁신 도시
▁등장 해
▁블러 드
▁더 민주
▁순 매
▁적 었다.
▁악 용
▁St ar
▁혼 합
강 점
▁C C
화 수
다' 라고
▁어떤 /MM<|endoftext|>
▁F W
▁날 을
▁197 0년대
▁가로 막
▁재 사용
▁날 ,
▁거 미
▁별 의
▁월 간
▁설립 한
▁기다 려
▁리 치
▁벤 치
▁어 뢰
- 8
▁최 악
▁하 느
분 과
▁특 급
시키 면
▁있 기도
▁같 다"며
▁개혁 을
당 한다.
▁가능 하며
▁르 노
▁내 밀
▁아들 인
▁얻어 맞
▁잃 어버
크 리
▁버 스터
▁포 인트를
▁송 도
상 으로는
▁평 타
입 니
오 <|endoftext|>
일 수록
▁증가 ,
▁회 고
성 <|endoftext|>
▁196 3년
▁혼란 을
F M
▁텍 스트
대 신
▁남 성의
▁멸 종
벤 져
▁그렇 다.
▁맨 체스터
지역 에
/EF +,/SP<|endoftext|>
▁자신 감을
▁1 편
▁드 롭
▁누 워
▁상 점
공 사가
▁상대 방의
an c
▁인 프
▁다 닐
▁보 상을
▁꽃 을
▁여기저 기
▁( 주)
나 타
▁정 체는
▁폭 이
▁어디 에
▁정책 의
▁도시 철도
▁하 남
▁style="margin :
기 게
했 으면
▁지지 하는
▁인류 의
▁않았 지만,
청 사
느냐 "고
▁목록 <|endoftext|>
▁제1 회
▁제기 했다.
▁안 된다.
했 기에
소 리가
로 이드
▁노 린
▁이어 가고
▁아 미
▁일반 인
▁너 를
▁Te am
전 까지
▁청와대 에서
광 장
▁width= 50
네 는
▁돈 으로
▁라이 언
▁죽 게
▁정치 를
▁내 면
▁아니 더라도
▁나오 게
▁실패 했다.
주 간
▁스파이 더
▁끔찍 한
▁카메 라를
▁선임 기자
▁사람 들과
▁T r
적 ·
▁소 홀
▁폭 탄을
▁' 우리
GO 00
▁오늘 은
' 다.
군 에게
정 하고
방 울
.2 8
취 업
▁기관 총
-0003 6
▁의원 들은
▁카 리스
▁듣 지
▁시 기가
사업 에
▁텐 데
무 로
▁엔 젤
▁웨 이
3 %
▁196 8년
▁선정 됐다.
죠 .<|endoftext|>
▁특히 나
▁퇴 임
▁조 우
▁바 나
▁아저 씨
▁하는 지
회 관에서
지 니
▁과 태
▁돌아 왔다.
▁자 막
▁0 .8
▁사회 공헌
▁이뤄 졌다.
파 에
▁극대 화
b le
동 부
▁적용 된
▁B B
▁자 원을
▁제작 진
▁라인 업
▁위치 가
▁"그 러
량 으로
l and
▁있어 서는
▁여담 이지만
▁꼬 리
-00 12
▁파 주
▁필 립
) "
▁검은 색
▁형태 가
▁핀 란드
▁안 돼
▁핵 무
구 장
레인 저
▁적 당한
▁사용 했다.
▁맡 겨
배 치
▁비 공식
▁진 술을
▁가득 한
▁하 도록
▁정 답
스토 리
▁" 도
▁전작 의
▁래 퍼
적 이다.<|endoftext|>
L S
▁씨 앗
▁발 목을
▁수 혜
▁c l
ffff ff
il d
내 면서
▁수 동
▁배 드
였 으나,
▁기 구
▁연구 에
▁펼 친
▁한글 판
▁유격 수
▁w e
▁초 에
준 ,
▁장관 을
( 정
▁혼 인
▁원 시
▁샤 를
▁대 주
▁자유 로운
▁장 소를
▁지역 사회
▁O P
르 바
▁역 의
▁토 니
돌 아
▁버 섯
▁문제 점
▁금 요일
▁매 진
▁D B
▁시간 과
▁지 침
▁10 ,
▁시리즈 에
▁모두 의
▁사라 졌다.
: 40
▁차 에
▁1: 1
▁연습 생
▁회 차
▁지 음
▁잡 힌
▁벗 어난
▁남 구
▁영등 포
림 은
▁특 정한
▁분류:19 7
▁지 킬
▁어 져
찌 감치
.2 9
▁빼 돌
▁재 개발
▁선거 를
되었 는데
버 전
▁직 결
야 <|endoftext|>
▁케 빈
▁정도 에
▁제 트
▁허 무
▁잃 어버린
▁공 이
시의 회
에 른
▁브 래
시간 은
▁질 투
as ter
사항 을
벌 이
▁스 팀
재 료
▁일 행을
직 에
▁위원 회
▁앞장 서
▁연 산
▁소속 으로
감 ,
▁거 라는
▁강조 하는
▁은퇴 ,
▁시 크
▁줄 이고
▁발표 를
▁독 도
▁전라 북도
▁1 장
▁인간 은
소 총
▁내용 이다.
▁증거 가
▁전 력이
▁가 축
d .
제 약
.2 6
▁베네 수엘
” 고
▁교 전
▁탐 색
▁출시 한
▁구간 은
▁가능 해
▁누 릴
▁솔직 히
H D
▁남 자의
▁심 어
▁사망 했다.
▁원 이
▁떨어 지고
▁일어 났다.
▁R PG
▁제기 됐다.
▁신 곡
방 안
▁김 세
is e
산업 의
▁취 지로
실 장
▁방탄 소년
들 에서
▁올 렸
▁제 독
▁A 씨
▁11 5
▁정 세
축구 연맹
▁공 영
마 르
▁겨냥 한
▁주 머니
▁리 조
했 음에도
하자 고
▁마을 에
▁업데이트 로
두 가
▁했 었다.
▁규 명
걸 로
▁컨 테이너
년 을
▁자체 도
- L
▁규 정에
▁무 대에서
부터 가
▁대 포
▁사 나
▁설명 하고
▁모티브 로
▁아 인
▁고객 이
▁공 고
▁마을 의
▁등 )
마 츠
▁것 인
an k
▁도 루
(T he
▁되 므로
검찰 청
▁대 부
보 라
열 의
km /h
▁비타 민
구 속
▁카 스
▁미성 년
▁날카 로운
▁스트라이 크
▁최 정
ab le
▁무 궁
불 을
▁신입 생
▁기 금
▁90 %
위 <|endoftext|>
IN G
해 하는
▁집 회를
▁10 8
▁꾸 려
▁" 2
▁재 회
i um
▁NH K
님 ,
외 의
▁민 감한
( 198
▁상 원의
▁손 실
▁교 실
▁달 콤
▁ て
▁1 ·2
▁버 스를
▁이 토
▁7 .
들 었다.
▁행정 구역
▁돌아 오는
유 는
도 도
▁로 즈
▁십 자
▁신 혼
▁위치 하고
’ 라는
. A
▁되었 으며,
▁경제 를
▁기대 할
▁그녀 에게
▁이 케
▁분류: 18
▁띄 는
▁같 다는
▁예상 되는
▁디 바
▁워 터
▁씨 와
▁' 경
명 (
▁누군 가가
▁박원 순
▁빌 드
▁원 딜
▁나타 날
▁타 츠
함 ,
▁같은 데
▁스킬 은
i i
▁많 지만
at or
▁군 수
▁때 에도
▁중 거리
▁넘 은
▁것 인데,
▁국무 부
▁부 의
▁예 쁜
▁혼 돈
▁폴 리
▁영 유
음 과
체 국
▁체 인지
▁언론 의
▁브 라이언
▁박 명
▁조 짐
자 리를
▁미 나미
▁프로그램 에
▁강 호
▁원 장
u al
가 수
등 에
- 07
▁잘못 을
▁부드 러운
가 야
매 체
▁광 산
▁과 일
▁히 토
▁개최 된
y ,
집 단
▁장 사
▁달 에
▁발언 이
▁살인 사건
▁나 라는
▁인 증을
▁에어 컨
▁트 루
▁찾아 와
▁지나 가는
▁남 측
▁리 콜
▁박 재
▁수 신
▁정상 화
▁"이 제
래 의
▁8CT_00 44
▁가슴 에
▁재 수
▁불안 한
▁항 구
▁속 에서도
▁O ne
▁확정 된
~ 40
▁사 모
▁분류: 이
저 널
▁추 궁
▁분석 해
▁원 고
▁어머니 를
▁가능 하며,
▁" 예
a ter
▁올라 와
▁빠 지는
▁거짓 말을
▁많 고,
▁마련 했다.
▁일으 켰
▁등장 할
▁자체 에
▁심사 위원
▁주 위
시 즈
▁커 서
▁항목 을
통신 은
▁때 로는
▁금메달 을
공 격을
▁공격 적인
부 담
▁레 지
백 과
차 도
.2 1
▁9 0년대
▁지원 하고
▁우 루
▁' 파
▁동 급
▁스 드
▁사이 를
더니 ,
커 는
▁이 브
▁균 형을
▁축 적
카 <|endoftext|>
봤 자
▁표 를
▁협 업
▁크 레이
▁" 양
.2 2
▁A d
▁국무 위원
레 오
실 하게
▁2 호
▁정치 권
▁불 행
▁세계 가
▁케 이크
셨 다.
▁예 의
▁매 도
▁계획 에
▁동영 상을
▁시작 된다.
▁처 리를
파 ,
▁타 협
▁쌓 여
병 과
킹 을
▁때 를
▁D C
▁목적 은
▁빚 을
▁캐 스터
▁I N
▁수비 수
: 50
▁견 인
▁플로 리다
장 전
▁프 레이
▁인 제
▁너무나 도
▁무 술
히 토
비 리
▁했 으며
▁표 면
▁너 프
▁손 오
▁주장 도
▁아 들의
▁경찰 과
▁버그 가
▁판매 가
교육 청은
▁있 듯이
▁음 모
. O
▁대 를
▁경 력이
▁다이아몬 드
비 시
소 재
▁전국 에서
르 면서
▁정 하는
▁크 기의
▁위 력이
장 관은
행 성
▁로 이터
▁교육 부는
▁고민 을
▁내 셔널
▁199 9
▁정 예
▁관 리가
▁코 토
▁국방 부는
er )
▁제기 된
▁등장인물 <|endoftext|>
▁선진 국
▁18 4
엑 스
액 션
▁부 스터
▁무엇 인지
▁받아들 일
발 사
전문 가
▁" 만
▁할아버 지
▁부 풀
▁리 모델
▁L ED
협 회는
시 내
▁하이브리 드
▁전쟁 에
▁수 령
자 다.
▁나 어
▁저질 렀
▁노래 가
디아 라비아
▁아이 는
▁19 세기
▁국민 에게
▁2 20
▁은 신
▁중 기
▁때문 으로
▁본 토
▁만 찬
▁17 5
en g
▁서비 스가
▁1 .4
▁말 아야
▁발 부
▁주도 한
▁변 해
▁강 수
▁출 퇴근
▁상승 한
스테 이지
▁나타나 고
▁슬 레이
▁계열 의
▁시 집
▁밖 의
/ 4
▁진 에
니 <|endoftext|>
▁요 양
▁원작 의
▁12 8
동 <|endoftext|>
▁경 직
▁이용 하면
▁긍정 적
▁주 석
▁알 기
▁결 말
▁왕 조
▁못 지않
▁오키 나와
▁' 리
▁정 당한
▁얼 어
▁칼 럼
▁작업 에
▁이 겼
▁밀 접
▁올 드
통 에
▁B r
▁승 인을
▁인 연
▁뉴욕 타임
▁절 친
▁( G
▁온 몸
▁영상 은
겨 레
▁계획 은
▁다시 금
▁인정 한
▁호 환
진 화
▁A D
▁줄 이기
▁대신 해
▁ 릭
▁C M
▁목표 는
▁무엇보다 도
▁치 즈
▁여 유가
▁학 대
▁매출 액
▁광 양
▁제안 한
학 이
▁자체 적으로
▁설 령
국 회
.2 7
캠 퍼스
▁시리즈 <|endoftext|>
▁차량 에
▁얼마 든지
▁생 명의
▁구매 할
▁노 원
▁BSAB01 73
▁BTAB01 73
▁법 제
▁가난 한
a f
▁버 전이
▁퍼 즐
▁도입 을
▁멤버 들의
용 과
▁매 월
▁조 립
창 업
▁10 억
▁" 더
▁꽃 이
▁B L
▁샤 오
그 린
▁총 수
이 후
▁결정 하는
게이 머
마 로
▁10년 간
▁6CT_00 58
▁불 쌍
▁퍼 스트
▁ ら
▁설 탕
▁살 이
▁영화 <|endoftext|>
▁일 종
▁북 극
▁7CT_00 30
되 지는
워 하는
▁장관 과
▁탐 지
▁했 다
▁그래서 인지
▁높아 진
▁40 여
▁4 번째
▁투입 해
건설 은
' 란
병 ,
width= 20
가 미
방 과
▁대 명
▁됐 다고
▁천 주교
담 보
▁역시 나
▁파 키스탄
▁복 수를
▁경제 에
▁아시아 나
▁BTB D0236
터 와
▁BSB D0236
▁김영 삼
했 다"면서
▁회담 을
▁평화 의
▁' 3
y <|endoftext|>
▁" A
▁석 사
▁평 상
▁내부 에서
》 에
▁ as
▁알 라
▁이상 ,
되었 기
ow s
국 장은
례 로
▁공개 적으로
▁좌 측
▁후쿠 시마
무 지
▁병 원을
▁8CT_00 41
▁택 배
▁세계 적
▁공 적
개 에
▁다 채
▁열 매
▁거 나
▁쓰러 진
- M
▁지 사
▁두 꺼
해서 ,
▁8CT_00 23
졌 으며,
경 우
▁그리 하여
▁호 르
곡 의
▁2 40
▁"지난 해
▁아 산
유 로
▁시 게
종 ,
▁자원 봉사
▁스카 우
▁국회 가
▁설치 한
▁리 틀
▁개발 이
▁짐 승
▁내용 도
만 으로는
▁연구 가
▁이전 부터
두 산
▁( 아
▁주 입
ul l
▁다 투
금 ,
▁파 멸
~ ~
▁법 원이
▁수상 했다.
▁세계 로
▁느 다.
▁' 영
능 을
, 5
▁7 만
▁단 원
▁우 세
▁몬스터 가
▁만 이다.
▁일 삼
▁교 역
▁이동 할
들 여
▁걸 리
▁육 체
▁항공 모
c l
▁비 치
▁설치 되어
브 랜드
▁짧 게
▁아름 답
▁사 거리가
▁낸 다.
▁포함 됐다.
▁중 시
오 면서
( 기
우 치
▁최고 경영
▁사랑 에
▁하 기로
▁이 호
격 의
▁계 단
▁상태 의
▁임 종
▁제목 으로
▁큐 브
▁위 생
▁설명 하는
▁크루 즈
하 ,
▁명 단
베 트남
▁친구 들과
▁합의 가
▁프로 그래
▁트럼프 는
▁여 배우
~ 11
▁결승 전
▁0 <|endoftext|>
▁주 제가
v el
▁와 카
-0003 7
▁가 전
제 이
▁통 째로
주 었다.
▁근 거리
ur n
부( 부장
▁정도 면
▁나중 에는
s .
▁읽 을
▁9 00
르 와
▁사례 는
▁D ay
▁최종 보스
▁국내 에서는
s on
생 태
▁도 출
▁밑 에서
▁수험 생
심 리
▁가능 성에
물 ,
증 에
▁L P
▁3 조
시 기
% 에서
▁환경 이
▁빈 번
▁가슴 이
▁있 음에도
▁회 색
▁주의 할
▁담 배를
▁리 퍼
▁극 도로
(...) .<|endoftext|>
▁기업 들의
▁탄 도미사일
▁공시 했다.
마 리를
▁표현 한
▁도입 한
함 께
▁생 체
ou g
회의 에
카 미
▁6CT_00 55
▁받았 고,
▁사우 디
▁강화 하고
▁이어 진다.
월 ,
▁혐의 가
▁동아 리
애 를
방 식
▁관객 을
▁+ 2
▁리 오
▁투 척
▁거 제
어 린이
▁로 이
▁다르 지
▁남 학생
▁꼬 마
▁출 혈
▁휴 식을
▁이 석
▁부 당한
" 이라면서
▁주 니
냐 ,
일 인
▁안 정을
▁저 도
결 이
기관 에
( 14
▁+ 10
됐 다"며
▁키 타
▁인테 리어
▁적용 된다.
품 으로
▁비 자
- 06
▁유력 한
▁시설 이
▁누리 꾼
o )
코 스트
▁상 인
▁운 반
▁미 ·중
▁임 직
는 지를
▁결국 은
▁만들어 야
신 용
했 다며
▁E d
귀 포
연 상
▁싶 으면
▁A 씨를
령 으로
▁홈 페이
다' 며
▁수준 .
▁야 기
▁피 난
▁능력 으로
▁비 어
▁기록 해
▁둘러싸 고
젝 트
▁중요 성을
▁퇴 출
▁3 명의
▁속 해
▁머 무
▁제기 되고
책 이
▁상 환
▁다시 는
▁고려 할
▁15 분
▁다니 엘
▁명칭 을
▁어 진
리스 는
▁라이 플
▁애 완
▁돌아 올
▁성적 은
▁언 데
▁컨 디션
▁성 균관
▁국 군
▁꼬 집
D A
▁증 인
▁염 려
▁기 종
▁" 영
▁불과 한
▁무너 뜨
▁어르 신
졌 다"고
클 린
▁분류: 한국
▁라 그
하 다며
▁갖 다
치 킨
( 최
따 라
▁후반 부
▁볼 을
▁이르 러
▁운 명
▁낭 비
▁먹 지
주 식
줄 을
▁침 착
▁증 오
▁발 병
▁이동 하는
▁말 하자
▁리처 드
효 과를
▁0 :
인 식
▁안 을
센터 가
▁마시 고
중 을
지 정
1 30
근 무
복 무
▁아 세
▁발표 할
o ,
▁미 키
▁196 7년
▁C H
▁I '
▁발 명
▁고 고
’ 은
▁내 에서도
▁그 제
▁양 육
▁194 8년
▁202 1년
▁하이 퍼
▁마이크 로
▁작품 으로
▁높 지
▁하 반
- J
▁왼 손
▁그렇 고
마 귀
▁다 /MAG<|endoftext|>
▁치 안
▁분석 을
▁여기 서는
▁상 공
계 층
▁조직 의
국 내
▁4 ~5
▁공개 됐다.
선 발
재 와
호텔 에서
▁선 동
▁장기 간
께 끼
▁10 위
▁그 곳
▁회 장,
▁집 합
▁올라 간
▁행동 에
▁끼 워
▁행 위가
홍 보
▁가슴 을
림 으로
▁초 등
▁머 릿
I V
▁오 다
▁계획 이다.<|endoftext|>
▁오리 온
▁했 다가
▁재 학생
기간 이
▁오늘 의
▁제 19
▁원 에
▁배 차
▁질 주
▁해당 한다.
천 ,
▁수준 인
▁올라 왔다.
▁실 장은
▁노 숙
▁지 났
▁메시 지
재 해
▁보고 서는
▁방 안이
졸 업
슬 라
히 코
▁상황 에서도
▁선언 한
▁1 .7
바 는
▁3 시간
었 으나,
지 거나
▁E BS
구 성
▁ 에서는
▁민정 수석
U M
▁실 어
- 9
츠 와
▁약 점을
▁터 보
▁수 단으로
▁10 3
▁미 쓰
▁생년월 일
▁악 당
▁졸업 하고
원 장
▁변 한
▁지 을
▁기 자가
▁아니 다"
이나 마
▁트럼프 의
▁딜 을
공 주
불 가
▁마드리 드
▁C ol
▁다음 은
at ch
or ea
▁엄 격한
▁정 재
▁속 한다.
▁분석 이다.
▁보고 를
▁심 야
▁번 씩
우 스의
탈 삼진
사 전
▁' 새
▁계 기
▁선수 들
▁어느 새
나 르
▁한 결
▁투표 를
▁성향 의
▁연 일
▁포 지
▁끊 이지
▁/ S
▁진출 한
▁주 포
▁롯데 는
배 에
오 기
▁마찬가지 다.
▁셈 .<|endoftext|>
▁3 기
코 인
매 김
양 함
▁길 은
▁1~ 3
▁셔 틀
론 과
▁I II
▁W ind
▁게이 머
▁서 기
▁m m
▁ 줬다.
▁수록 된
▁오 크
▁각 기
활 성
▁18 3
▁일 찌감치
19 년
▁국민 들이
겠 다"며
▁증 정
▁뛰 는
▁가 산
▁타이틀 곡
▁중 산
하기 까지
▁잔 류
▁" 법
▁무리 한
베 리아
▁노 하
▁재 앙
차 와
▁목 욕
▁진 로
▁제 보
▁모자 라
▁놓 인
▁앞 을
▁라 인을
▁대 화가
▁정 체가
▁바르셀 로나
▁환 호
▁합리 적인
▁없어 도
▁아르바 이트
▁디 즈니
▁하 겠다는
▁명백 한
설 에
▁주 가가
기 어
아 일랜드
시키 고,
▁수 목
▁S te
▁메 이드
▁ 립
▁되 풀이
▁비 닐
들 께
G E
▁축구 선수
▁일 괄
▁귀 를
▁범죄 를
19 7
▁게시 판
▁ 룸
▁현실 적으로
▁정규 시즌
풍 의
오 피스
▁브리핑 에서
▁주 파
파 괴
▁10 2
· 시
▁마 시는
내 가
베 르크
▁입 었다.
사 나
세 .
▁인물 은
▁감독 으로
▁' 포
▁페 이즈
▁대 입
▁5 0년
▁사 다
▁간 판
▁조 영
▁하 려는
▁대표 ,
▁상승 세를
▁득 점을
▁히 가시
▁관 행
- 05
오 면
▁서 머
▁술 에
▁생 리
레 옹
▁주 문을
▁환경 에
▁ 、
▁제 12
▁두들 겨
▁부모 의
▁회 장과
가운 데
슬 로
▁소 매
화 될
▁대대 적인
▁비 율을
타 에
호 (
▁1 주일
▁확대 해
▁트레 일러
▁못 하도록
▁망 설
▁수 장
▁196 2년
▁실시간 으로
진 보
▁여 우
▁남 성은
▁센트 럴
▁아직 은
▁동 인
▁승강 장
스트 리트
han k
▁주 의를
요 !
▁모양 이
도 리
▁버 린다.
급 은
▁마 쓰
▁지 극
트 워
us ic
▁스 즈키
▁없어 진
▁긍정 적으로
· 수
▁있 기는
▁일제 강점
▁말 로는
I R
▁개 칭
바 시
▁세 상의
▁상황 이었다.
▁전 보다
▁출마 를
C <|endoftext|>
▁' 장
▁나서 서
▁5 <|endoftext|>
월 호
▁소재 를
▁다 리가
▁학교 가
나 로
▁부 평
▁장 벽
▁맹 활
▁시작 되는
▁의미 다.
▁성 형
소 개
▁2 명을
▁확인 하는
▁ 으며
로 이
▁침 체
▁1월 부터
▁제품 에
る <|endoftext|>
사회 적
▁서울 에
▁자리 매김
▁1년 에
▁명 으로
▁컬 렉션
▁타이틀 을
저 는
▁다 케
희 망
▁갔 다가
▁촉구 하는
▁하 이라
▁승 용
▁보 았
▁법 안을
▁사 설
▁열 대
▁함 대
▁기 밀
.2 4
▁논의 할
이 랑
하였 으나,
▁하락 한
▁1 .8
니 즘
▁마 오
er <|endoftext|>
▁원 소
▁특 성이
▁살아남 은
( 13
t y
경 원
▁이 소
▁세 뇌
벤 션
▁몸 으로
▁블랙 리스트
▁항 해
▁돼 야
▁공식 적인
▁밝히 지
▁만 료
▁후보 자가
▁됐 다"며
▁2 개를
▁전 제로
▁빚 어
▁자격 이
터 에
▁명확 한
▁방법 도
모 니
3 50
사령 부
▁영혼 을
▁대 검
▁에 리
▁기 조
▁보 러
▁작 아
▁G o
▁대출 을
데 다가
에게 만
▁거 예
▁대 타
▁접 목
책 으로
▁BTAA00 13
▁BSAA00 13
▁손 실을
▁여 타
▁퇴 진
re d
모 임
▁상 금
▁호 투
▁공동 대표
▁고 아
증 은
▁방 울
셀 러
▁입 맛
▁언급 하며
▁해 석이
2 30
▁시 마
▁영 역을
in al
▁쓰 던
▁민 사
택 시
▁양 대
▁이름 도
▁볼 트
적 이었다.
▁공 장을
▁세 라
▁산 악
▁시상 식
패 스
▁못 했고,
▁바로 잡
▁용 역
▁교수 ,
▁거 칠
▁발 이
성 에서
▁방송 이
▁배 워
▁보통 은
( 일
▁유 감
▁레 일
▁상태 .
▁적 다.
아무 개
▁얻 지
문 ,
▁' 구
▁깔 려
방 ,
리아 가
▁통 영
▁남 용
▁수 중
▁3 %
▁시 에는
변 경
▁회원 국
▁의 약품
▁스 나이
▁LG 는
비 도
▁수석 은
▁연 기가
내 어
전 형
▁본 명은
▁12 .
▁판 을
▁그 리는
▁단 종
▁강 해
▁단독 으로
록 을
▁자 고
▁필살 기
▁합의 한
▁배경 이
▁ 딘
아 동
▁클라우 드
▁준 결승
▁6CT_00 57
▁승리 했다.
선 도
▁기본 으로
설 계
▁전 대
▁개인 적인
( 00
티 이
▁넘 지
▁' 서
▁차 이나
▁196 5년
▁소설 가
▁의미 에서
L B
▁히 메
▁신 작
▁챙 긴
눈 에
파 인
▁조선 시대
▁에 디션
1 의
▁인간 과
▁지 가
▁민 감
▁다양 하게
-00 11
の <|endoftext|>
골 로
▁내년 부터
▁잊 혀
오 던
▁섬 의
▁법 학
▁따 돌
▁부분 도
습 기
공 립
▁인천 광역시
▁급 락
▁민주 당은
() 와
▁듣 게
속 한
▁지 었다.
▁적 고
▁9 년
- g
▁면세 점
っ と
절 로
군 .
as on
▁취 해
▁G am
▁내용 과
▁메이 플
▁굴 러
실 점을
’ 로
▁감 사를
() 에서
▁그 보다
E W
▁바이 에른
▁브렉시 트
▁신 제품
▁고양 시
▁지지 율이
▁친구 를
▁사 정을
리 콘
▁우 스
▁산 맥
▁SK 는
B B
▁연 세
▁카 구
▁발언 에
격 에
▁베 타
▁주변 에서
묘 하게
▁좋 다는
▁' 화
▁8 000
표 준
▁영화 제
▁특 화된
▁디 에
▁ 둠
▁역 사에
▁199 8
▁악 성
▁법 원에
▁나 이는
작 업을
▁키 운
▁"북한 이
▁가리 키는
▁댓글 을
란 한
▁A KB
움 과
▁행 위는
▁방송 인
▁요즘 은
태 는
▁박 세
▁축 복
ap p
-000 55
▁일 정이
▁강력 히
▁ 닐
▁포켓몬 스터
▁연 평균
▁성향 을
1 40
▁이 보다
▁적 들을
▁이야 기도
▁웃 었다.
▁세 상이
▁시행 령
▁유니 버
측 이
▁딸 의
) 라고
체 계를
히 면
▁통 칭
▁감안 해
리 타
▁보 정
▁머 신
까 .
제 2
▁2 ,000
▁단 어가
창 의
▁가 솔
▁LG 전자
▁비 스
▁늘어 났
▁ 림
님 과
중 ,
▁천 황
▁믿 지
시 노
▁달 래
청 에서
▁주 교
( の
대 왕
▁라 면
▁몬스터 의
▁살아 있
▁청문 회
초 로
/ 10
) 에게
▁재 편
▁의 무를
▁불과 했다.
▁발 발
▁야 수
▁2차 전
▁"우 리가
메 이트
▁조 사가
정보 를
▁팬 들을
몬 의
▁절 벽
조 약
▁12 년
▁발생 하지
단 장
▁특징 이
▁선수 권
지 며,
▁아 랫
망 에
▁점 과
세 인
▁폭 넓
▁태 워
▁처리 할
▁은 메달
▁커 졌다.
▁삼성 의
▁" 소
▁일어나 지
▁성장 한
▁화 력을
▁만 의
▁소속 팀
▁데 서
▁연결 된
▁즈 음
▁시리즈 에서
▁하 노이
▁V ol
위 치
▁수 만
▁슬 라
▁받 으면서
▁내 에서는
▁6CT_00 02
▁종 업
▁동북 아
네 스코
▁' 개
▁참가 자
▁기술 과
▁징 계를
국 대
▁해 를
▁광 장
철 ,
생 으로
무 의
▁피해 자의
▁돌아 간
▁한 발
▁들어 가지
▁등 산
▁양 현
▁그런데 도
▁청 주시
▁이 기는
▁몰 입
▁해 줄
문 서
▁덧붙 여
( 사
▁이 완
냐 .
▁4 분기
▁에 도
볼 을
기업 에
▁비 정상
▁없었 다"고
▁1000 만
▁성 북
▁후쿠 오카
향 이
▁양 식
▁바뀌 어
▁산 정
▁금 없이
시켜 서
▁예산 이
결 제
▁정 경
▁시간 대
▁보 도가
▁커 진
▁모른 다는
EC D
▁들 러
▁멀 어
▁블 룸
수 술
▁1 패
▁ 틸
▁그 후
센터 에
▁마 포구
▁( W
질 적인
콘 텐츠
▁걸 음
▁무슬 림
▁서 방
▁7 000
▁미 노
혁 이
▁여자 친
파 일
▁성 수
▁계 란
사령 관
미 아
피 의
▁정 형
홀 딩
▁만 다.<|endoftext|>
▁친 절
▁해병 대
▁때문 인
▁태 블릿
▁달 라는
보 좌
▁효과 도
▁오스트 레일
▁가 자
▁점 거
▁상 습
▁특징 은
▁하자 .<|endoftext|>
▁할 수
▁역 량
특별 자치
▁말 부터
극 을
▁2 호선
▁컨설 팅
/NNG+ 하/XS
▁누 르고
▁드러 났
▁본 관
▁필요 하다.<|endoftext|>
▁즉 사
분 께
▁1 세대
안 정
▁사이 코
un ction
▁무 을
번 호를
▁못 했다는
er ,
▁많 았던
▁에 픽
▁노트 북
편 은
▁어렵 다"고
▁적 자
▁신 비
re at
▁막강 한
▁남 자는
▁만 주
▁콜 비아
▁산 타
캐 피탈
▁수 거
터테인 먼
장 군
▁소 수의
▁난이 도는
▁여기 에서
내 셔널
▁통 하는
▁점 수가
블 루
▁우려 도
리 에게
교과 서
▁환경 부
▁문 체
▁아이템 이
▁찰 스
▁방 에서
▁연 이어
▁특 사
▁개정 안을
▁부회 장이
하기 에는
▁표 출
▁팀 원
▁수수 께끼
e p
▁방어 력이
▁언론 은
▁이 산
▁정 발
▁체 계를
▁전달 했다.
▁s p
▁측면 이
▁피해 량
· 신
▁자 처
▁연습 을
▁아이디 어를
현 장
▁알아 야
▁벗어나 지
▁함 락
▁성우 가
배 로
갑 을
조 각
▁장 치를
▁작 고
언 더
▁뷰 티
▁ で
▁인천 국제공항
▁쓰러 져
링 은
▁어 빌리티
바 를
▁A 씨의
▁책 이
번 으로
▁30 만
( +
▁위해 ,
조 선의
경 북
▁타 운
▁지도 부
고 에서
노 를
네일 |
6 %
▁많은 데,
▁위험 에
▁분명 한
글 을
는 /ETM<|endoftext|>
▁호 불
▁블 래
네 ,
뿐 이다.
연 장
▁한 ·중
▁싶 어서
가 루
두 의
▁나 들목
르 ,
▁정보 는
▁바 쁜
▁세 련
▁ are
오 른
▁p ro
▁내세 운
▁동 메달
▁마 포
▁콘 솔
▁낮 춰
원 자
▁무죄 를
▁동 의를
▁C ar
▁전쟁 에서
▁" 동
▁통틀 어
▁망 명
▁달 이
▁오 가는
▁무시무 시한
▁우 월
지 는데
카 라
▁시즌 이
▁일행 은
▁의도 적으로
으 신
▁비 결
▁바꾸 고
- 04
▁이 마
▁크 라이
▁까다 로운
▁판단 한
▁베이 비
▁쥐 고
▁구 동
▁새정치 연합
▁인 력을
▁김 구
기업 이
▁성 의
▁효과 적으로
▁제목 은
토 스
▁한 의
▁호텔 에서
▁구 자
▁" 매
▁"모 든
러 블
▁경제 성장
▁죄 책
▁근무 하는
▁구 호
스테 이션
▁라이온 즈
▁참여 하고
▁중심 이
▁조 조
▁명 명
▁제 13
▁스트레 스를
▁성공 적인
▁수 에
▁떠 날
▁투 자가
▁싸움 에서
▁프로그램 은
선 택
다 (...)<|endoftext|>
우 로
▁ z
▁중 점
▁충격 적인
i el
▁나오 며
▁지원 에
▁킬 러
든 ,
▁설명 은
▁width= 24
▁인 원이
▁1 .0
▁2 점
가 /JKS<|endoftext|>
동 강
-0001 2
▁최 전
▁바뀌 었다.<|endoftext|>
했 으니
▁서 정
▁U P
▁부 총리
C E
( 남
하 느라
▁판결 이
▁앨범 을
▁기준 에
▁서 클
번 과
▁말 하지
▁내세 워
M B
▁5 개월
▁포기 하지
정 하게
▁옮 긴
▁원 형
▁하나 에
ot t
▁바란 다.
공 급
▁보 이기
▁정면 으로
키 스
▁커 져
▁수행 하는
▁익숙 한
▁ up
▁지키 지
' 라
계 에서는
▁포 즈를
▁안 토니
▁사우 디아라비아
적 이라는
▁상관 없
▁A K
▁해 치
L 00
ic t
▁협 약을
j ect
적 일
( 중
▁이 오
▁발견 하고
화 도
▁재능 을
▁그 쳤
▁양 상
▁St ation
녀 를
▁삼 진
( 20
▁방문 을
푸 드
▁영어 판
/ UN
버 스를
▁나이 로
▁무 자
▁동남 아
· 경제
▁ 롯
웨 이트
▁늦 어
▁카이 도
▁가 락
▁' 국민
주의 에
▁수준 은
화 되고
부 품
▁아무 튼
▁반면 에
▁줄어 드는
· 대
키 ,
▁든 든
면 세
▁내놓 았다.
te m
▁모 에
O X
▁일으 킬
▁격 차가
▁장 신
▁플 러스
/NNG )<|endoftext|>
▁그려 진
▁싱 크
룡 의
▁서울 과
▁로스앤젤 레스
▁수행 할
곳 ,
▁단 식
더 는
▁프랑 크
▁BTB B00
▁BSB B00
▁나무 위키
▁기업 과
▁시민 사회
▁있 겠지만
▁위 엄
▁저 렇게
▁7CT_00 23
유 지
▁보 고,
▁넘어 선
▁무게 를
▁외 래
인민 공화
▁설 이
▁합의 했다.
정 부는
▁이곳 은
▁기 대가
▁" 검찰
▁출 구
▁있었 으며
▁않 기로
▁유 예
▁버전 은
▁200 만
▁남북 관계
제 주
파 리
▁사라 지는
00 원
클 레
됐 으며
▁뜨 는
-00 13
가 치
in a
▁진출 에
▁두산 은
기 반
▁기간 은
▁노조 는
▁오스 만
▁우 편
▁역 사와
▁열 리고
▁한 성
▁노 을
▁자신 만의
▁주도 권을
▁맞추 는
▁되 살
▁환경 에서
됐 으며,
.2 3
▁모른 다.<|endoftext|>
▁승 용차
▁내려 가
▁눈치 채
▁파 일을
▁방사 능
▁신용 카드
E A
▁가 다
▁아이 들에게
▁의원 들의
▁뿐 이다.<|endoftext|>
▁L V
▁I s
▁행사 에서
욱 이
▁문화 의
· 박
로소 프트
▁5 00만
し た
▁소 아
예 방
▁운 명을
▁명의 로
이었 으며,
텍 스
▁알려 주
▁좋 겠다"고
▁1차 전
▁대학 을
▁숨 졌다.
▁형 이
▁잡 았
▁일 대에서
II I
경 남
▁기숙 사
▁이전 까지
▁아침 에
▁New s
▁배경 을
▁산업 의
ー ン
” 라고
▁줄 줄이
▁멤버 로
▁대 국민
▁돈 은
▁강력 하게
수 익
▁남 짓
▁메 트로
놓 을
▁시작 하면
▁경제 부
수 당
▁시작 한다.<|endoftext|>
▁" 재
▁다큐멘 터리
▁지 내는
▁속 속
▁이름 과
▁같 았다.
▁S er
▁섬 유
▁사 신
▁없었 기
▁서 귀포
되어 ,
▁이재 용
▁남 게
▁보 드
▁" 두
개 정
리아 는
▁수 비를
주의 가
▁사진 과
▁요청 한
이닝 을
▁상 정
▁각 국
▁동 력
▁전 속
▁하 츠
지역 에서
▁196 6년
▁구 는
▁타이거 즈
▁11 개
▁넘 기는
▁구 도
▁요 인이
들이 나
▁페 어
▁키 를
▁때문 "이라고
▁조합 원
▁트럼프 가
▁"미 국
▁홍 진
▁더불어 민주
레 인지
▁5 억
리 라는
▁3 단계
▁하 겠다고
▁신속 하게
r d
▁시 술
달 이
▁묻 혀
노동 조합
▁ 끄는
▁그 대
▁획 기
탄 은
기록 을
▁연 달아
요. "<|endoftext|>
, 4
▁도 쿠
▁바다 에
▁제 왕
▁아 담
▁복 사
▁살 기
▁급 등
▁구조 가
▁과 반
▁U p
▁밝 히는
배 의
▁동 호
다' ,
▁줄 기
▁이해 를
▁이 강
▁3 의
▁영원 한
규 가
▁이곳 을
▁박 준
디 스크
받 기
청 과
▁셈 이다.<|endoftext|>
▁하 므로
▁삼 는
▁우 르
▁부 끄러
▁그렇 기
쪽 의
▁화 력이
▁"다 음
론 ,
있 지
▁변호 사가
▁분류:19 6
래 를
▁공 사가
▁보 전
▁카 테
▁뽑 은
▁동 창
티 에
▁1 턴
▁속 도는
히 메
▁신 지
▁열 람
▁7CT_00 24
▁개그 맨
▁4 층
▁있었 기에
홈런 을
▁시 트
▁나 가지
▁나폴 레옹
▁미 르
섬 네일|
▁선 착
▁4 0년
▁스 핀
효과 가
▁밀 양
▁맥 스
▁단행 본
▁제 발
▁버 락
서 스
자 이자
▁유 학생
▁c om
▁이승 엽
계 좌
처 음
▁도 깨
제 1
▁시 도를
▁부총 리는
▁에 코
▁발 송
들 한테
▁관 리에
▁-5 px
▁달라 "고
련 을
▁아쉬 움을
캐 슬
해 의
▁4 50
듯 .<|endoftext|>
▁구성 해
총 회
▁아 군의
▁" 북
▁아내 와
oul .co.kr
마 니아
산 동
▁후반 기
맥 스
가 드
음 식
헤 이
▁한국 전쟁
▁196 4년
▁기대 감을
re port
▁개 인이
너 를
▁연락 이
▁정 서
▁( J
▁연 타
▁의 도가
▁간 간
▁캠 핑
터 스
▁깔 아
가 .
▁전 했다.<|endoftext|>
▁비 비
▁록 맨
▁' 2
▁프 론
▁웨 이브
▁중 위
▁알 코올
▁20 ~30
▁코 트
▁50 만
국 립
청 ,
▁사람 에
디지 털
제 도를
▁말 했다고
▁유 언
▁슬 픈
▁강 북
▁최 재
이 용
▁경 연
▁시 기는
자 라고
▁한 신
▁일 련의
▁공 소
가 요
▁어마어 마한
r ag
▁11 .
▁8 만
방 한
▁요 격
▁취 할
▁이르 렀
보 ,
▁하 급
▁모양 으로
▁발동 할
( 그
▁않 던
▁' 서울
▁데뷔 한
▁쏟아 져
▁펼 쳤
하였 는데,
롭 지
▁일 조
▁송 치
▁물어 보
▁로 렌
백 이
▁" 특히
▁관계 자들이
진 구
군 에서
▁유니폼 을
▁이 밖에
▁병 기
▁시민 이
▁12 3
▁모니터 링
▁히 든
▁청 사
▁공 조
19 6
▁탁 월한
▁매출 은
▁여 긴
▁' 위
▁호응 을
▁세 미
▁일 선
le ct
▁진 급
▁나타 냈다.
▁차 려
▁창 당
▁뛰 고
시 각
▁역할 은
라 에게
▁기 피
▁유튜 버
▁인지 도가
· 강
준 을
▁잡아 먹
▁국가 에
▁카 네
▁레이 스
hi te
7 %
나 도
씨 (
▁김 은
라 .<|endoftext|>
히 게
▁자료 사진
▁신 문은
류 ,
▁외 전
▁캔 슬
T C
▁e x
▁기 득
다 닌
▁전 액
▁낮 게
▁아이 스크
▁예상 했다.
▁불 출
▁양 극
▁내 륙
▁살 았
▁스태 프
니 코
▁붙 는
과 제
▁오버 워치
▁사 투
▁포 드
▁구 하는
▁않 겠다고
▁8CT_00 42
▁이상 하게
▁제 천
▁때문 이
▁에 로
▁ 톨
절 이
▁시 외
▁흔 적이
▁" 서울
▁양 반
▁어 설
▁분 홍
이었 다"고
▁몸 무
▁레이 싱
▁환 자를
▁쌓 인
곡 은
▁넘 겼다.
▁중심 에
▁입 힌
▁의원 도
▁R &D
수 인
유 통
▁승 리의
▁ 앗
▁순간 에
더 불어
▁접 한
▁2루 타를
마 냥
▁중 이라고
▁앞 뒤
▁밀 고
▁17 8
자 였던
증 ,
▁1 위로
리 라고
▁구축 함
▁ 믹
브 레이
( 동
▁니 가
배 ,
▁무 제한
▁클 러
▁노 가
▁이뤄 지는
· 여
▁고 추
▁열 악한
▁" 누
스타 인
▁냉 동
삼 국
▁파란 색
▁것이 나
▁개발 된
▁스 탈
s c
▁불편 을
▁전 산
▁전 월
▁입 점
포 ,
▁" S
▁여 부가
▁없 이는
▁황 제의
차 단
▁스킬 의
A F
▁돼 서
▁도망 치
▁그 릴
▁이렇 다
형 <|endoftext|>
일 지도
▁김 한
▁이유 에
되 지만,
일 간
▁백 업
협 약을
__05 /NNG<|endoftext|>
( c
▁여 자를
▁살 균
) 이라는
) ruby(,
· 하
▁보 자
임 의
▁만나 서
▁살 게
▁티 어
▁보이 게
▁현대 의
▁흘러 나
▁부 재
▁목소리 도
탱 크
전 철
▁이해 하고
E L
▁LG 유
▁효율 적인
▁온 도
▁장소 로
▁체 코
( 서울
정 비
▁선보 이는
▁ u
안 ,
▁판매 량
법 률
▁기록 하는
▁마감 했다.
▁초대 형
류 에
▁송파 구
▁못한 다는
방 안을
▁반 입
▁피해 는
▁잉 여
▁과 다
▁연구 팀은
▁색 이
▁처리 하는
▁선보 일
▁언급 을
▁모티브 는
▁제 노
▁않 으면서
▁영화 에서
▁추가 적인
(K BS)
▁" 장
▁용 암
▁박 지원
▁능력 과
▁당 대
▁승 계
▁10 4
티 노
▁책 의
세 기에
기 상
▁노선 은
문 제를
국 적
▁남 매
중 독
▁이용 객
▁노력 하고
▁환 자는
▁정도 만
▁난 사
▁살아남 을
16 4
▁3 승
▁펼 치는
▁급 히
▁감 행
▁김 제
란 은
▁독 보
모 어
▁대 도시
▁아니 야
▁근처 에서
실 장은
▁가 나
▁선보 이고
▁' 아이
칭 은
패 션
▁활동 한
▁부르 기도
" 가
▁바 야
▁다 뤄
( www.
▁암 컷
▁찍 을
전 에는
▁둘 다
노 선
▁무 실점으로
▁모든 /MM<|endoftext|>
▁진 도
▁없었 을
35 -00
▁콘 스탄
▁지 구를
B I
▁부 부는
▁학생 은
▁상당 수가
▁스타 리그
▁소설 을
크 루
ver y
▁금액 을
▁아메 리칸
▁쪽 의
▁다르 다.<|endoftext|>
▁양 손
▁아 ,
▁김 씨가
▁강 성
▁총 재
▁명 성을
a .com
▁성남 시
▁' 로
처 에
▁실 존
▁고 유의
( 마
▁로 우
▁p l
▁8 .
▁& #x
▁설정 상
▁6 차
▁미 션을
▁별 명을
바야 시
▁꾸준 한
▁담 겼다.
▁범 용
▁의미 의
종 교
처 의
▁로 열
▁편 에서
a ir
▁버 틸
▁# 00
▁외 신
▁개성 공단
▁경 로
▁분석 도
▁경남 도
외 과
▁훈 훈
보 통
▁구 성을
▁시리즈 가
▁목 에
▁헬 기
▁후보 자의
▁레이 드
▁미 쳐
운동 장
▁그 랜
▁시 신
▁확장 팩
업체 인
▁2 집
▁부탁 을
▁후보 와
니 버스
▁승리 한
▁다름 없
▁크 다는
▁걸 린다.
패 가
운 수
다고 .
▁트 라
▁갖 는다.
▁평화 와
▁수 치를
▁용 기
▁플래 시
▁쇼 트
D C
03 -00
▁비밀 을
▁달러 (약
▁수치 다.
▁인 연을
▁중 개
지 .<|endoftext|>
▁해운 대
a u
▁모 드를
업 자
▁악 영
▁그리 고,
해 달라고
▁풍 경
▁확보 할
살 의
▁이 누
▁사 인
▁전 도
▁계약 이
▁능력 치가
내 서
▁해외 에서
▁쌍 용
▁구 급
▁담당 하고
▁마이 너스
▁진지 한
▁하이라 이트
▁단 장
세 먼
▁끝내 기
▁고 종
병 원에서
▁친구 들이
▁나 을
▁함께 /MAG<|endoftext|>
▁역 습
▁벌 레
▁' 매
▁배 수
▁간단 하게
▁헌 신
▁버 릴
▁받아들이 지
▁부른 다.<|endoftext|>
▁이 한
▁출전 한
▁유 이
측 의
▁소속 된
곡 동
▁할리우 드
▁유 난
특 위
▁9 .
▁싸 웠
▁살 리기
졌 으며
▁내 놓고
- 201
타 르
▁장 점을
▁만들 었
노 미야
▁이 기고
▁박 태
일 <|endoftext|>
▁볼 수
되었 으나,
▁표 본
버 를
보 우
씨 도
경 험
▁등 .
있 었다.
▁" 제가
▁탈 취
▁남 동생
▁방영 된
▁바다 를
나 .
▁후 방
▁14 5
▁진행 을
기간 을
hi p
여 명
▁호 랑이
▁앨 리스
- R
혁 은
▁병 살
▁실질 적
▁옮 기
림 ,
▁방 과
▁불 합
▁" 왜
▁법 이
▁느 리
▁거 리는
탈 리아
▁담 임
-000 7
) 보다
▁계획 이라고
▁압 력을
▁적 으로
, 6
▁T F
▁상 고
▁13 5
▁만남 을
K T
가 입
▁소개 하는
▁중 후반
프 레스
▁깊 게
▁인정 했다.
인 .
▁196 1년
▁표 정이
▁홈페이 지를
▁개인 적으로
or g
▁담 보
리 드
▁나 무를
▁ o
▁필 름
▁T o
▁좋 지만
▁받았 다는
▁기반 의
낸 다.<|endoftext|>
▁오 디오
천 을
▁의 문이
윤 리
▁잡 으면
▁사이 즈
( 대표
▁끝 났다.
겠 다
▁마음 은
▁수 료
▁배우 고
▁해결 하는
▁상 담을
▁도 적
▁수 시
플 루
▁최우 선
▁저 널
▁크 다.<|endoftext|>
도 서
▁3 경기
걸 이
▁10 9
▁와 타
-0004 5
▁" 구
전 국
▁경고 했다.
▁실 적이
▁벌어 지고
▁만나 면
퍼 를
▁4 억
▁올해 도
▁구 석
▁2 10
r ac
▁걸 어서
된 다"며
▁성격 의
▁나 갔다.
▁신 촌
▁디 펜
포 는
▁메 구
▁미 지수
▁추정 된다.<|endoftext|>
▁한국 으로
▁글 자
re t
▁기여 할
▁오 가
▁어려 웠
▁억 압
방 법
요. "
각 성
그 는
토 <|endoftext|>
▁리 베
▁고 리
회 <|endoftext|>
▁보 았다.
▁미 쳤
▁여성 들이
▁츠 바
▁엄 연히
▁스킬 로
강 도
▁예 매
▁BT JO04
▁뛰어넘 는
_ MOD
청 사에서
▁사진 제공
학 은
▁두 뇌
▁평 등
▁한 인
▁아닌 지
▁어깨 를
▁교 향
▁적용 한
희 를
/XS N+
▁같 아서
▁2 04
▁농 가
▁스 릴
▁BTAA00 02
. E
▁돌 리는
▁정도 이다.
▁BSAA00 02
▁약속 했다.
목 에
였 다"고
▁장난 감
▁밝혀 지지
( 구
랄 한
▁시간 도
▁중화 민
▁삼 척
- 21
하겠 다"며
채 로
▁내 성
놓 았다.
▁계 층
it al
▁지적 을
▁직전 까지
▁상대 할
▁일 리
▁것은 ,
▁이해 하기
8 %
▁나가 고
▁신 정
다 르
▁장착 한
▁신 을
규 는
헌 법
▁수 컷
▁명 단에
히 기
R I
▁감 금
함 .
▁자세 로
▁하 려면
▁공유 하는
니 에
▁비 아
▁번 갈
▁러 닝
! ?
▁하 단
▁쓰러 트
츠 ,
▁못 지
▁성격 은
▁ 껴
▁걱 정이
▁애 정을
▁프로 리그
▁보 잉
▁국정 농단
하려 던
첨 단
▁시민 들은
▁검 열
▁대법 원은
▁적용 할
1 일
회 원
▁나왔 을
▁ 줘야
▁경 신
런 트
▁판단 해
▁힘 의
▁없었 다는
티이 미지
▁경 성
▁토 오
▁진 전
▁잇 달아
▁모 닝
내 를
▁신 호를
▁장 의
입 니다
▁설명 할
▁이탈리아 의
▁3 .0
▁커 스
▁만 하다.
누 스
정보 통신
▁쉽 고
▁돌려 보
▁유 네스코
▁학 부
대 변
항 의
▁전 광
▁영화 분류:
▁죽음 에
▁' 실
▁위 상
▁뽑 을
질 로
▁키 즈
▁틀 림
▁사용 시
er o
▁한 가
▁마 일
▁장소 에서
▁감옥 에
▁입 소
▁받 던
ic a
올 라
교 ,
▁다루 고
▁토 큰
▁N BA
▁앉 은
▁가솔 린
식 당
▁마 피아
▁휘 발
▁기 온이
▁충청 북도
장 구
▁발 주
▁당 신을
▁설명 했다.<|endoftext|>
▁화면 을
오 픈
▁방송 국
백 화
음 이의
▁10 6
▁번 이나
시 나
형 인
▁' 의
▁자녀 를
- T
▁생각 도
▁준비 해
(이 )
▁즐 겁게
( 소
금 속
▁3 라운드
▁무 너지
A J
▁담 았다.
n a
▁세 로
▁교 정
▁우리 은행
▁명예 손
겠 습니다.
▁이 들도
▁소프트 웨
▁위 와
▁싱 크로
r am
▁경기 에서는
▁ 텔
▁제 조사
▁규 정이
▁유래 는
▁사람 이다.
▁유희 왕
▁월 요일
~ 50
▁서울 로
▁내 렸
▁쳐 들어
광 장에서
▁17 9
▁대형 마트
▁백 작
▁대응 할
▁당 국의
▁현 수
▁된 다"며
▁슈퍼 로봇
▁흡 사
▁' 저
▁재 건
▁높아 졌다.
▁조사 할
▁미 용
▁종 영
사 고를
▁고객 의
▁진상 규
▁의원 ,
▁워 크래프트
▁찾아 서
▁도 의
▁우 린
▁발표 하고
네 를
▁인물 을
퀘 어
▁보 도를
▁필 라
▁헌 재
머 리를
롭 다.
▁여 태
▁교 복
▁G u
▁만들어 졌다.
는가 ?
▁제 20
▁이걸 로
▁반 납
▁리 바
▁여 고
천 사
레 븐
세 )<|endoftext|>
희 정
▁세 균
▁구 한
M BC
형 제
▁벌 이
▁황 태
▁오 디
·미 사일
▁3 명을
▁k g
▁멤버 가
▁위원 장을
기 동
▁어드 벤처
범 으로
▁재 고
▁입 체
000만 원을
▁원 리
▁여론 을
기관 인
▁척 추
▁6 위
▁회사 에서
▁가상 화폐
▁마지막 까지
▁대선 에서
▁l ine
느 니
▁카 지노
▁FC 의
쓰 는
▁약 혼
▁평소 에
▁보여주 지
▁해 준다.
▁솔 루션
회 )<|endoftext|>
▁오 만
▁국가 는
▁주한미 군
▁조선 일보
▁부문 에서
이 노
자 들도
클 로
요 리
▁천 문학
학과 를
▁7 대
장 관이
▁당 기
▁발 각
▁직 속
▁효율 적으로
님 께
▁몸 의
잉 글랜드
▁따라 서는
▁오 죽
▁7월 부터
A 의
ri st
▁간간 히
▁나 비
귀 를
▁18 2
진 에게
▁빠 뜨
▁그 루
▁원 격
▁부 위
퍼런 스
uc k
▁쓸 모
▁삼 성이
▁목 이
▁행동 은
자 리에
해 선
▁스 터
▁오 해를
주 공
▁앨 런
부 도
▁가맹 점
-0004 4
보 유
▁평 행
▁강 사
▁시 체를
아 <|endoftext|>
▁결정 적으로
조 치를
▁199 6
양 과
▁" <|endoftext|>
▁기사 <|endoftext|>
▁페르 시아
▁신 약
▁통 하지
▁금 리를
▁기대 된다.
시 )
... "
▁공개 되었다.
사용 자
▁10 <|endoftext|>
▁순 찰
▁쪽 을
▁등 지에서
▁공간 으로
▁ ..
▁존 슨
▁ 씬
▁프로그램 의
▁겪 었다.
▁마 스
당 초
▁느껴 지는
▁확대 할
▁최 진
▁( age
후 에
수 단
▁롯데 그룹
까지 ,
리아 를
▁O ok
▁확보 를
골 이
▁가 던
▁공 습
▁장소 에
치 <|endoftext|>
▁20 개
▁토 우
▁B R
▁많 다고
▁감 동을
▁경제 보복
▁써 먹
▁기 갑
▁공 약을
▁사랑 이
▁극 한
▁찬 스를
▁중 년
▁박 씨는
▁199 7
▁쓸 만한
▁" 난
▁우 에
▁달 의
▁오른 손
》 <|endoftext|>
▁지상 파
· 4
▁결 렬
▁마련 할
▁추측 이
▁IM F
모 와
데 르
작 인
▁공 교
▁노동 조합
▁편 을
▁유 영
▁달성 했다.
▁유 상
▁불거 진
▁후 예
▁발매 일
▁'201 8
아버 지
남 의
▁결혼 식
▁그만 두
연 료
▁유 머
난 을
밥 을
▁전 적
▁국가 에서
▁n o
▁플 루
▁비용 은
▁맛 있는
▁시스템 은
▁독자 적인
) -
▁실패 로
▁공 정한
▁코 인
▁재 료를
() ·
▁힐 링
▁실 드
▁야 당의
과 정을
▁감 이
▁표현 하는
▁지켜 야
바이 벌
색 은
숙 이
시켰 다.<|endoftext|>
▁선 별
▁P P
' 에는
▁않 으므로
▁생 김
& height=
텐 데
▁이 펙
▁형 상
▁O p
▁멋 대로
▁사 탕
▁장 편
▁이후 부터
▁과 언이
▁알려 졌다.<|endoftext|>
1 %
▁만 인
▁무 기의
▁비 박
▁v er
( !)
▁도 로를
▁저 의
-0001 0
1 01
▁왕 세
2 동
▁중 에도
▁승 률
▁인 조
▁메 이지
▁친 선
▁되 니
2 )<|endoftext|>
▁명칭 이
▁국제 사회의
▁악 마의
a by
▁정 전
▁" 의
지 ?
▁지 대
▁바닥 을
▁2 편
▁그 도
▁적시 타를
p le
▁탄 력
평 등
▁상 원
발전 소
주의 와
2 %
▁유 관
▁가깝 게
▁모 나
▁4 명의
▁가 성
양 군
▁웃 으며
▁득표 율
▁제작 사
▁흔 적
▁장 원
▁필요 성이
▁거래 가
▁명 목
야 와
▁그 외
▁계속 되는
▁재 위
▁장 려
▁걸 렸다.
락 의
▁법 관
수 급
▁불 집
롭게 도
▁연결 되어
▁무 실점
▁밖 에도
▁빅 뱅
▁조 형
▁바라 보
▁하 쿠
북 부
▁ all
지 사는
▁나오 자
▁동맹 을
문 화가
▁고 기를
▁봐 서
▁산 탄
▁장 인
질 은
▁아내 를
▁공연 이
학 대
▁깔끔 하게
▁권한 대행
▁BTEO00 93
▁BSEO00 93
졌 으나
▁피 트
▁관련 해서
▁자 ,
폴 리스
▁사망 자
▁전국 적으로
노 미
▁마을 에서
ion s
▁" 야
급 식
▁마 찰
▁3월 부터
▁G l
▁강화 할
▁ .4
▁A N
▁개발 해
▁법 원의
▁1 박
▁로스 쿨
수 학
▁기 묘한
▁터 라
▁급 기
▁뜻 은
▁동아 일보
설 명
차 적으로
▁성장 할
식 물
▁예 금
▁배 웠
▁194 9년
▁옆 으로
i )
▁15 5
▁중 력
수 정
▁K GC
▁L IVE
▁판단 이
해 볼
▁법원 행정
▁일 체
▁허 브
▁영향 력이
▁공 짜
▁산업 혁명
-00 14
▁자 칭
▁버 리
▁캠 퍼스
▁양 천
▁리 고
▁반 기
▁분야 를
▁1 6년
기 부
▁0 .6
▁년 간
유 공
▁끈 다.
▁투 사
마 리가
▁SNS 에
▁건 다.
▁어렵 다고
건 지
▁것 에서
▁S u
징 용
연 도
▁세 상에서
▁불 쾌
사 격
▁가계 부채
▁이리 저리
▁브랜드 를
보 와
▁오 승
▁농 어촌
/ 12
▁투 런
al k
▁독 려
▁점유 율
▁의 심을
▁소련 의
▁선 대
▁위 임
▁울 릉
▁두 개
▁전국 에
대 리
적 이며
▁드물 게
호 환
암 동
▁지 우
▁대학 에서
▁며 느
▁분류: 유
아 메리카
왼 쪽
▁워 커
▁없 으나
▁성 취
▁시리즈 는
▁아래 와
음 <|endoftext|>
▁김 소
▁" 개
▁달 리고
▁일본 으로
▁지원 해
▁리그 에서
▁깨 어나
▁있 다"는
▁인근 에서
▁S N
▁' 알
▁이때 는
결 과를
▁무 색
면 과
▁돌 린
▁팀 으로
▁B J
▁D o
▁마이크 로소프트
▁소 주
거 의
ou nt
▁" 평
인 드
▁여 자는
▁사례 도
(이) /VCP+
버 스가
im age
▁현지 에서
니스 탄
▁무언 가를
▁못 했다고
지난 해
▁애 를
▁4 연
▁10 7
▁남편 의
▁관심 과
▁시청 자들의
▁현재 도
▁경제 학
거 가
▁2 .4
▁퍼 부
▁후 일
▁존재 로
▁방문 하는
▁손 자
▁캐 치
▁핵 무기
갤 러
▁고 영
▁지 만
▁' 재
▁김 장
▁소 금
▁패배 한
▁틀 린
▁아 슬
▁학생 의
졌 는데
▁그 들에게
▁감 당
▁시작 했고,
▁디 렉
▁안타까 운
▁먹 기
▁부산 시
▁짧 아
▁추가 되었다.<|endoftext|>
▁ te
▁기 관이
▁아끼 지
교 섭
-00 15
▁차 는
▁주목 할
▁구성 원
od e
▁크리스 티
▁중 .<|endoftext|>
구 <|endoftext|>
▁금 품
/NNG+ 에
▁저 를
▁본 작
an s
직 업
▁' 카
▁안 에는
▁194 6년
▁어렵 다.<|endoftext|>
▁서 지
▁않 더라도
▁뒤 의
▁주인공 으로
노 스케
테 니
▁움직 이지
▁웃 고
▁수류 탄
▁불필 요한
란 트
▁일 주
▁추진 해
▁현실 의
▁알 리고
▁의 아
▁트 와
▁되었 던
▁워 너
▁늘 릴
스럽 다.
▁관 내
연 수
▁해 에
▁호 전
▁국 회를
▁현실 에
테 <|endoftext|>
▁사용 되고
성 군
▁에 이지
▁프리미어 리그
▁연 내
▁원 산
노 와
▁중 증
▁해 왔
▁부 자
▁앞 으로는
▁되었 는데,
▁부진 한
▁맞 았
▁견 해
A K
▁시작 되었다.
▁온 다.
▁G B
▁말 만
수 아
▁일단 은
rad ient
타 임을
▁14 4
▁03 .
ic s
해진 다.<|endoftext|>
▁안 개
▁똑 똑
졌 지만,
▁엔 드
▁이재 명
▁크 리에
▁토 마스
oh n
▁깨닫 고
▁다 룰
▁철도역 분류:
빈 이
▁가 급
▁않는 다
▁장례 식
더 라면
▁인 연이
▁데 모
▁데미 지는
▁정황 이
트 럭
건 물
▁1 경기
▁" 반
▁주 를
▁199 5
▁시작 하면서
▁캐릭터 들이
▁지난해 보다
▁발생 하고
▁휘 둘
하 니까
▁스 펠
범 의
▁BTAE02 06
▁BSAE02 06
불 이
▁1 7년
▁정 문
▁퇴 각
▁자 립
▁' 백
▁삶 에
▁일 회
▁능 가
▁나 주
▁변 하지
-0003 3
▁어디 로
▁보험 료
▁새 마을
▁하 우
▁11 3
▁캐 시
리 츠
연 수원
▁오 게
· 영
▁16 5
▁5 ,000
▁본 능
안 으로
-0002 2
▁인생 의
▁휴 스턴
▁맞물 려
갈 등
▁15 개
9 <|endoftext|>
컴 퓨터
▁시작 하였다.
▁강 의를
▁인 상이
▁맥 도
▁제 14
▁다 이스
▁위 조
▁본 다"고
범 을
▁아시아나 항공
심 에서
오 르
▁J .
▁과 징
▁행정 안전
▁굉장 한
▁받 고,
▁과정 은
▁이 쯤
▁위 를
▁기준 )
평 가를
▁이 룰
▁그림 이
▁3 00만
▁바라 보고
▁상 해
특 정
▁시작 부터
▁꿈꾸 는
, 7
▁자 책
▁경 의
▁지 진이
베 스트
▁이 관
( 원
width= 100
▁할 로
▁용 기를
▁학생 을
▁아 군이
크 리스
점 <|endoftext|>
▁주의 .
▁거부 하고
퍼 가
▁김 두
투자 증권
▁Ook .
▁그 라운드
▁쉬 는
▁스타 일을
시스템 을
▁노르 웨이
▁나라 에서
▁낙 찰
▁건물 은
▁해양 수산
남 이
▁선택 하는
▁죽 으면
▁후 미
▁V IP
그 를
▁가 루
▁1 화
▁소비 자가
사 상
▁초 ·중
▁화 상
화 되는
▁편 의를
▁있는 가
▁예 컨대
a j
차례 에
▁5 :
▁해 온
▁12 00
스럽 고
▁유니 크
▁' 당
▁높 다고
T O
▁대통령 도
▁세 력의
캠 퍼
급 한
▁왔 던
▁교 수를
▁엔 지니어
명 )<|endoftext|>
타 고
▁팀 에서
▁유닛 의
▁짐 을
▁강 구
동계 올림픽
▁주 부
▁만 회
▁용 사
▁여자 친구
때 마다
금 리를
▁아 스카
▁" 단
▁공 안
▁경 질
▁버 렸
차 기
▁아 비
마 도
▁분위 기는
▁분노 한
값 은
▁' 천
▁노 는
▁놓 치지
▁인피 니티
하 와
▁시· 도
걸 음
▁전 한
▁제 15
▁실 로
철 을
▁남 겼
▁3 주
수 용
개 입
▁역 사는
▁바랍 니다.<|endoftext|>
▁전날 보다
▁소식 통은
▁물 의
하 르트
r is
▁정상 이
▁부족 해
학 술
▁D D
내 면
▁O ECD
▁최 씨는
▁정책 은
▁선 정한
▁키 우고
하 다<|endoftext|>
애 틀
▁패 스를
▁선수 <|endoftext|>
최 근
▁내 로
▁입 지를
일 지
▁운영 한다.
▁효과 적인
보 컬
▁은 평
▁40 분
요 원
졌 는데,
▁총 독
▁세 제
▁요코 하마
▁요구 가
▁중 "이라고
▁( 5
▁드러 나는
▁아니 며
▁우 는
▁칠 레
▁전 복
▁결 투
▁열 정
▁후 인
▁편 은
▁협 조를
플 레
▁인 지도
▁딜 레이
▁깨 한
▁리모델 링
▁11 4
▁196 0년대
▁빌 리
▁4 .5
▁P K
▁성 숙
▁장 동
▁배 구
▁냉 각
ong a.com
플 랜
▁있었 다"며
▁"당 시
▁제 18
▁대전 차
쪽 이
▁대 니
▁이 씨
▁정 몽
표 는
▁" 스
▁하 프
▁합의 에
욱 은
- F
▁돌 을
( 25
▁" 문재인
▁관광객 이
▁맡 는다.
BC )
▁혁 신을
▁죽 었
▁용산 구
물 론
▁세 미나
▁구 두
▁근 절
희 와
▁이름 에
▁급 행
▁21 세기
▁1 4년
▁두 번
▁곡 으로
▁' 사랑
▁국민 적
산 면
▁김 인
▁정류 장
▁" 3
re s
▁고려 한
▁아니 다
▁저 가
▁제 17
응 답
▁수 단이
▁치 며
▁마 르크
▁동 탄
▁올 리며
▁단 절
▁넣 었다.
▁발견 했다.
▁주도 하는
▁새 를
▁경제 협력
쿠 스
▁사 소한
ar m
비 율
수 행
▁연 고
▁{{{ #
▁페미니 즘
▁밀 리는
▁자유 무역
▁세 팅
▁수요 를
▁이 만
▁탈 환
을 ,
▁계 곡
▁행 위에
▁동 향
▁막 차
▁날 린
ST ER
하였 던
▁끝나 지
-0004 6
병 기
우 드
▁테 니스
▁몰 린
적 이라고
▁불투 명
▁타 결
▁구입 할
▁나타 났다.<|endoftext|>
▁능력 도
▁새누리 당은
▁몰아 넣
▁1 )
▁군 용
▁제출 했다.
-00 17
▁시 너지
▁합 창
▁G O
타나 베
▁무언 가
케 미
▁슬 퍼
▁실시 하고
▁인 게임
리 코
▁주민 등록
▁힘 은
▁( 전
▁루 나
y n
단 위
직 이
▁소 식에
규 어
▁보건복지 부
( s
하 르
▁차 가운
▁11 1
연 설
▁보 답
공 무
▁만 능
듯 ,
▁E N
토 지
▁작품 에서
I X
▁신 념
▁절 차가
패 ,
▁비 서관
▁공격 한다.
▁부족 으로
▁해 머
고 교
▁때문 이라는
당 으로
▁박 민
▁정 선
▁창 을
▁좋아 한다.
▁6· 25
▁고 르
▁명 에
▁진 단을
on 't
▁영상 에서
. T
▁요 르
▁휴 가를
▁사 원
오 자
▁더 는
▁네 트워
▁추 리
▁행 운
▁빠 질
▁기능 은
회 사의
▁성 주
▁O K
" 라면서
▁부분 이다.
▁펼쳐 진
▁지적 이다.
▁정리 한
명 령
▁청와 대의
▁15 9
▁메르 세
▁나고 야
~ 16
▁도 를
▁넓 어
▁되 려
▁무리 하게
반 응
▁선 관
학교 를
r ing
▁성 분
▁공 기업
리스 타
▁안보 리
는 ,
▁영 하
▁운행 하는
( 지
▁잃 을
▁진행 해
▁않았 다면
리 우스
-00 18
▁대사 관
▁반란 을
▁18 :
종 과
▁밑 으로
▁전 ·
▁간 이
공 은
▁발 족
▁신 나게
▁열 차가
▁혐의 에
▁대변 인
▁파 산
소 기업
▁갈 색
▁총 리와
▁' 친
▁후반 부에
하였 다고
▁인 양
▁미 달
▁공간 에
Y P
추 천
▁8CT_00 11
▁불 에
딩 을
▁맞춰 서
▁FA 컵
▁오렌 지
명 도
소 통
▁" 하지만
▁싸 우고
▁평가 하는
▁뮤 지션
▁가능 .<|endoftext|>
▁단계 에서
▁투 여
▁외 출
▁누구 보다
▁1 장을
▁무서 워
▁강화 된
▁문 자를
▁M k
() .
▁캠 퍼
▁대다 수의
▁삼성전 자가
우 <|endoftext|>
A 는
노 인
▁자료 가
▁반영 해
한 ,
▁채널 을
▁D ream
순 이
행 사를
▁' 호
▁마 리가
▁호소 했다.
아 닌
나가 와
· 외
▁행 렬
▁이 빨
▁반영 된
~ 14
플 릿
▁영향 력
▁병 력이
▁백 지
▁커뮤 니케이션
▁강 좌
▁아르헨 티
▁3 ·1
▁r ight
▁반 지
▁죽 는다.
▁섬 에
▁무 비
▁됐 다는
고 <|endoftext|>
▁강화 해
▁스포 일러
▁알려 주는
▁세종 시
▁시 모
▁오 르고
▁끌 어들
민주 화
골 드
▁1 개월
▁경찰 서
지 는데,
철 도의
▁개 국
▁그렇 다
▁무너 진
▁공격 의
열 은
▁걸 림
▁눈 물이
부 키
▁시 바
▁과 천
▁12 1
벨 트
상 업
▁주민 의
▁현실 적인
▁잃 게
▁한반 도의
▁것 인데
▁식 약
▁남 원
▁협 정
▁이르 렀다.
▁한 겨레
애 나
해 방
사고 가
▁최하 위
▁벗 겨
▁그려 져
▁가 치는
▁5 ~6
▁김 문
균 형
▁바 쁘
▁국가 와
▁무난 하게
청 원
▁8 개월
▁믿 어
▁수 락
▁농 산물
▁사태 에
▁5 명이
▁면 도
▁화면 에
▁압 수
▁몸 매
▁선수 단
반 은
▁잃 지
퍼 니
▁방 으로
i ,
& align=
▁합 친
▁바로 /MAG<|endoftext|>
· 동
▁폭 으로
술 이
▁반 대한
▁도입 된
폴 리
▁가족 들이
▁따라 잡
▁아시안 게임
▁건물 에
스타 일
백 의
▁피 하는
▁리 타이어
▁자 리는
▁조 그
▁감 사의
▁" 서
남 용
▁공산 주의
모 씨는
▁루 비
▁"그 동안
▁지 도를
있 다는
혈 압
장 치를
▁대상 의
▁올라 왔
▁여기 까지
▁S ing
AJ T
▁팬 이
▁" 외
▁인정 할
▁않 으니
몬 이
부 동산
▁T S
▁취 지의
▁공 대
인 증
▁아니 ,
움 의
나 지
▁프로 게이머
▁아니라 서
▁대응 하는
▁박 수를
완 전
▁모 친
▁김 씨의
▁국 외
▁존재 감을
▁경 과
▁안 드레
▁호불 호가
▁주의 .<|endoftext|>
▁너 도
▁서울 시가
▁CG V
▁사 와
레이 트
▁변 태
》 에서
브 의
자 금을
▁이 선
▁살 피
▁쌓 은
▁주 방
▁절 차에
때 도
의 약품
▁높아 질
파 티
▁대구 광역시
림 에
▁11 8
▁무작 정
▁무 겁
세 권
▁스마트폰 을
▁장 본
이라면 ,
날 을
▁얼어 붙
▁체 제로
▁맡 기
▁밤 을
했 음을
▁수 평
▁( AP
▁화 합
▁로 저
▁에드 워드
패 에
▁양 을
▁위협 이
▁감 성
▁데 일리
▁완벽 히
▁12 2
구 도
▁유 진
▁종류 가
패 의
▁인 사에
▁매 드
.... ..<|endoftext|>
▁말 의
▁목 동
▁절 단
▁194 4년
▁아시안 컵
▁드 레스
▁난이 도를
역 까지
▁드러난 다.
▁T R
▁예상 치
서 치
▁펼 치
▁어지간 한
▁무 지막
▁승 려
왕 후
▁" 과거
▁히 비
▁트레이 닝
▁공 학
▁거 /NNB+
▁맡 았다.<|endoftext|>
▁4월 부터
▁간담 회
▁대 회의
▁지 인
▁사라 진다.
▁프라 임
en c
담보 대출
▁희생 자
▁전두 환
▁열 혈
▁60 대
츠 카
▁블 리자
▁블랙 홀
o le
안 에서
▁임진 왜
타 인
▁전환 을
▁살 을
▁기념 해
( 연
oo t
▁값 을
버 리면
▁모으 는
거 라
▁재 조
▁처 방
과 장은
▁각 국의
고 사
▁흥 분
건설 이
▁만난 다.
달러 를
▁' 초
▁거기 다가
리 는데
▁신선 한
▁6CT_000 9
▁개 원
▁2020년 까지
린 ,
▁지급 하는
▁어느 /MM<|endoftext|>
스테 이트
▁늘 면서
▁정치 가
▁보 류
▁싸 이
▁시 세
▁실 감
▁d o
▁챙 기
▁불구 하고,
▁운영 할
▁모양 .<|endoftext|>
두 면
▁약속 한
▁공격 해
▁네 팔
▁성과 가
▁1 주
문 화를
▁소 나무
▁직 원을
▁못 한다.<|endoftext|>
▁덤 .
▁용 납
▁모양 을
▁ HO
▁성공 한다.
▁없음 <|endoftext|>
3 )<|endoftext|>
▁유럽 에서
▁전자 랜드
▁물고 기
지 사가
유 기
▁곳 의
▁것 만으로도
▁변 하는
▁호 날
▁BTB A0233
▁BSB A0233
지 한
▁하 인
인 다.<|endoftext|>
▁인 구의
▁201 0년대
담 이
기 증
▁드러 내는
관 리를
▁탐 정
킨 다.
▁공 세를
▁놀 랐
검 사를
▁걸 었다.
티 오
▁분 배
▁기상 청은
소시 엄
▁없이 도
하 더니
▁일 대에
▁하 긴
음이의 어
▁질 이
▁여러 번
▁윤 종
내 의
▁시 점이
▁공 표
사로 부터
업 은
관계 에
▁불 분
▁생각 으로
▁조합 을
▁볼넷 을
▁강조 했다.<|endoftext|>
▁오 메가
▁관련 하여
▁의 석
▁획득 할
▁기소 됐다.
프 스
우 에게
▁금 품을
▁C R
▁오 류가
▁말 이다.<|endoftext|>
장 )
▁선 교
▁중 점을
▁제 의
▁청 취
▁8CT_00 18
▁아 을
▁( 6
▁교 원
▁하 러
범 은
▁순 위를
상태 가
▁청 계
ra in
거 리에
▁평균자책 점
▁속 이
▁정상 회의
▁비 단
▁우 대
▁트 릭
▁프로 레
▁3 ,000
2000 년
그 로
▁무시 할
▁연출 이
▁개 개
보 상
브 레
▁고 인
다 만
▁(https://board.namu.wiki/ report
공 제
가 정
▁' 황
▁제 니
사 노
▁더 한
▁명 동
부 상
칙 을
교 실
▁김 천
▁소 장은
▁일본 판
▁펼 칠
▁- >
에 미
▁100 년
전 화
▁의혹 과
▁상황 이라
했 듯이
클 라
고 시
▁S H
▁지역 과
만 도
버 의
▁1 점을
▁한화 는
▁인 사가
▁초 부터
▁O N
▁배우 가
▁" 선
▁박 해
▁사실 도
▁정 석
리 사
▁오늘 도
인 상
▁티 셔
▁하 천
신 문은
▁데 빌
▁국제 적
영 리
▁O VA
디 와
▁올라 간다.
▁넘어 갈
▁체결 했다.
▁조 계
▁국정 감
▁195 4년
연 하게
여 개
▁직원 들의
오 게
광 이
작 곡
▁다 다.
▁최 씨
▁놓 아
▁우 치
▁가 방
▁보 디아
▁과 제를
▁n e
되었 다가
▁맺 었다.
자 이다.
▁안 도
▁지 각
▁최 태
▁신 원
▁아니 며,
▁찬 양
▁필 사
▁재 즈
▁포 탈
▁직 행
▁온 실
▁사업 으로
▁자 기를
▁나타나 지
혐 의
▁정 립
▁충 주
▁강 대
ing )
경기 장에서
▁김일 성
▁탄 창
▁장 이
▁분위기 다.
-K R
▁마라 톤
▁N ight
▁세르 비아
▁농림 축산
벤져 스
▁ ・
승 으로
전 지
▁E V
▁날 은
▁흥 미를
▁기 차
19 5
▁사 료
▁오 산
▁향 상을
▁광주 시
▁일 과
▁교육 의
▁얼굴 로
▁메 이크
▁학교 는
▁독립 을
▁양 평
척 을
▁악 수
사 냥
리 히
▁시스템 의
▁오 재
▁관 장
▁증가 한다.
▁전달 하는
데 도
길 ,
▁저 서
채 권
▁이벤 트로
▁별 개의
▁취약 한
▁링크 <|endoftext|>
▁떠오 른
▁눈 치를
▁서 강
▁급 하게
▁순서 대로
▁신청 한
▁케 리
▁내년 도
▁전 념
▁선 의
어버 리는
▁히 지
▁상위 권
코 치
▁논란 은
▁등장인물 분류:
▁청 량
▁야 당이
▁ un
▁진 흥
▁ 랄
▁유난 히
프 에
▁이 그
b s
바 위
▁선 조
▁출 자
▁치 아
▁닌텐 도
테 스트
▁날 뛰
▁미래 가
▁탄탄 한
▁부인 했다.
▁피 곤
▁눈 의
▁판매 량이
연 과
▁현대 모
▁변화 는
▁어 워드
▁거리 에서
▁유 비
▁막 지
▁장 탄
▁월 화
▁버전 으로
▁원 동
중 에서
▁경향 신문
▁11 6
▁키 라
▁그래서 /MAJ<|endoftext|>
▁대 고
벌 을
▁않 거나
▁17 7
크 리트
▁외 형
간 접
▁16 2
▁활발 하게
★ <|endoftext|>
▁심 포
▁호 출
▁날 에
▁거야 .
▁가 하는
▁증 시
▁곡 이다.
▁호 랑
▁정규 리그
을 /JKO<|endoftext|>
층 에서
▁' 4
▁증 상을
▁L TE
임 에
강 이
▁판 교
▁제 너
▁"앞 으로도
황 이
▁우 두
▁지 친
▁이용 자
▁롯데 마트
▁4 조
▁양 승
▁공직 선거
▁2 .3
▁파 밍
아 라
업 ,
호 쿠
족 은
▁속 초
▁넘 나
▁노력 하겠다"고
쿠 르
▁가 결
▁영 업을
▁문 구가
▁기 고
▁아니 게
▁증 인으로
▁개 명
중국 해
▁이동 이
불 교
하 세요
▁최 선
▁요청 에
▁정리 해
덕 션
▁올해 부터
▁원 년
▁찾아 야
▁코스 프레
▁경기 의
▁멤버 들
▁배제 할
▁박스 오피스
▁천 문
▁노란 색
▁끝 내고
▁평 안
▁쓸 만
▁간담 회를
번 지
▁가 도
▁눈 동
▁병 을
▁병 과
말 라
▁학생 회
▁6CT_00 27
▁영 어를
▁거 인
▁건강 에
동 네
도 쿄
팀 과
▁속 을
▁2 세트
▁스타 일의
▁멘 토
▁1 로
. (
어 스
▁백 화
▁건설 을
▁조 류
▁가져 가
대 도
조 (
▁현실 이
▁행복 을
사업 의
득 점을
▁B C
▁박 인
▁무시 하는
▁떠오 르는
수 에게
▁전 기를
▁폭 력을
▁금강 산
호 에게
▁주차 장
· 성
▁에 어로
ut ion
우 에
" (
▁전 하는
▁삼 촌
▁캠페 인을
▁국 영
▁프로 세
▁성우 :
▁블라디 미르
▁안 되
▁가 사를
▁차 분
▁E C
▁레이 블
▁커피 를
▁이름 만
▁c an
▁수원 시
▁명예 를
▁명중 률
병 원에
명 인
▁산 출
▁최근 의
▁199 4
▁특 전
▁L H
지역 을
▁나 기
▁이슈 가
▁사실 과
▁각 오를
▁하나 같이
▁영웅 이
결 의
kg <|endoftext|>
▁12 4
집 은
▁미 미
▁장 시간
▁대회 는
▁미 러
▁출시 했다.
▁등 에게
▁이때 부터
발 매
▁신 은
▁싸우 게
▁프로모 션
▁우리 나라는
▁목 사
▁멍 청
▁언제 든지
▁종합 적으로
▁태양 의
▁임 금을
▁야마 토
합 니다
il bo
▁n ot
▁7 0년
▁혐의 도
산화 탄
갔 고,
▁12 7
▁어머니 와
▁195 8년
하 시는
▁순 위가
▁어렵 고
▁X X
p ush
▁임 차
▁사례 로
_ {
▁구 직
▁늘어난 다.
▁브 랜
맥 을
▁발 키
▁그레이 트
▁인터넷 에
▁문제 점이
공간 을
▁이렇 듯
▁능력 에
▁공급 하는
▁전 전
▁매력 적인
상 인
하기 만
▁밀 레
▁18 1
▁크로 아
▁모두 /MAG<|endoftext|>
▁광주 광역시
▁아버지 인
맞 춤
수 영
▁투자 자
▁놓 는
미사일 방어
프 <|endoftext|>
▁이 데
▁0 .9
▁16 개
▁없었 지만
▁수 산
▁BTHO01 38
▁BSHO01 38
▁사 적
으로 서는
▁확인 되지
림 과
▁확 고
▁" 정부
▁본 다면
처 스
▁매출 을
▁인사 들이
미 즈
▁보 였던
챔 피언
▁캐 릭
is m
▁F ate
▁일으 켰다.
) Lv
▁이뤄 지고
▁주민 이
▁예전 에는
▁주관 하는
▁' 박
브 가
▁상황 과
▁도시 로
▁시점 에서는
▁아 유
(f unction
▁생김 새
▁중 전
- D
▁있 으
▁옵션 이
' )
▁청와대 와
▁녹 화
▁비교 할
포 와
▁패 밀리
▁덜 어
▁음악 이
빈 은
증 과
▁1 세트
▁남 산
▁생기 면
르 노
▁받았 지만
- 23
c k
▁제 고
▁뒤 이어
▁인 성
▁background -
래 가
▁마 운
▁상 봉
병 우
▁격 퇴
▁인천 시
▁것" 이라면서
▁지극 히
▁로 보
▁버 닝
▁지 중
▁요미 우리
만원 씩
-0004 8
수 라
▁주 술
▁이어 갈
▁엄 밀히
▁급 격한
움 에
▁강 타
협 동
▁1 순위
▁부분 의
▁건물 의
▁위 상을
▁만 기
▁안 치
▁교수 와
h a
▁4 시간
m d.
분 쟁
군 <|endoftext|>
됐 지만,
▁우 주의
▁대답 을
▁치러 진
확 률
▁(NP_ AJT
▁외 로
w ard
▁마 늘
▁선보 이며
▁재 등장
▁생명 력
▁보 살
▁군 이
▁묘 하게
정 <|endoftext|>
▁최 민
▁애 틀
▁차별 화된
/NNG+하/XS V+
해 수
▁기 호
▁거 센
▁예 시
▁대책 이
▁ ),
▁방 역
전 에서도
▁손 바닥
▁써 도
▁사용 해서
▁찬 반
▁대선 후보
▁씨 에게
여 ,
▁경 위를
▁규 격
콘서 트
▁S uper
▁복 수의
▁비난 했다.
함 <|endoftext|>
▁2 명의
▁치 우
▁놀라 게
정 류
▁한 옥
▁묻 고
▁대북 제재
▁현실 은
▁벌어 질
▁흐름 이
▁정 조
▁감 자
▁분류: 아
▁신 세
자리 에서
▁이후 로도
▁협 상에
▁펼쳐 진다.
란 ,
▁인 체
▁오 노
▁시작 해서
▁돌아 갔다.
▁동 조
▁임 창
▁뉴스 1
▁본격 화
▁탄생 한
. display
▁중 추
▁루 머
부 부
▁이 놈
▁포함 하여
▁제 지
▁아내 의
▁등 /NNB<|endoftext|>
.c md.
▁googletag .display
▁googletag .cmd.
push (function
▁googletag.cmd. push(function
▁불어 넣
려 던
▁한 데,
▁최 영
▁에 밀
▁월 급
▁예상 보다
▁동일 하다.
▁민주 평화
▁사 치
▁3 위를
▁듣 기
▁과 세
▁농 장
▁숨 은
▁복 선
▁하 원
티 콘
▁인정 받아
건 과
로 지
세 이브
▁서 재
▁1심 에서
▁지역 경제
▁신 하
▁고 로
▁하늘 의
1 )<|endoftext|>
▁주 에
▁급 감
제 철
▁계 엄
이었 으며
▁터 지는
▁애 용
▁무너 져
▁요구 할
▁들어가 게
▁동안 의
% 는
그 라운드
택 을
리 시
싸 움을
▁정 은
▁유니 콘
드 컵
▁지 내고
▁남 았
▁1 8년
▁두 지
▁편 이지만
▁2 세대
들이 는
▁인 문학
▁출전 해
▁대 림
▁최 적의
또 는
▁재 선
▁G irl
디스 플레이
▁이 장
▁지 체
화 재
▁단 발
▁단 연
▁L a
마 당
▁불 려
▁기 을
▁다 다
숨 에
▁커맨 드
혁 의
▁노 바
▁R es
▁수 뇌
반도 체
충 전
▁3월 에
( 서
▁전 적으로
▁마 저
▁주장 하며
▁P ar
▁바뀌 고
▁신 종
▁11 년
▁무난 한
▁2 5년
▁반발 이
▁대 담
▁' 양
▁공 휴
파 라
▁" 정치
▁리 티
▁D P
시 코
▁바람 의
· 소
▁( O
▁스피 릿
▁탄 소
사로 서
▁근본 적으로
▁우즈 베
▁고 블린
▁음 력
▁'201 6
▁창원 시
세 상
듯 이,
▁(... )
▁전 주시
▁용 도
▁대 하는
▁아 모
▁일 할
▁모 드로
▁올라 오는
▁일어나 고
▁대 두
’ 이라는
▁해 지
▁변호 인
· 서
남 은
▁딱 딱
▁포 크
▁만들 고,
▁B E
us e
▁다채 로운
▁상 응
축 을
▁문 헌
▁화 웨
▁경기 력을
▁12월 에
▁산 학
▁출신 이다.
▁원칙 에
▁프 랭
▁S k
▁행 적
▁부 부의
▁입 성
▁기동 전사
▁들어가 기
▁김성 근
등 으로
▁특 례
거 라고
le ss
▁간접 적으로
▁많이 /MAG<|endoftext|>
▁인 해서
▁부작 용
▁B 씨는
▁벌 일
▁기록 ,
▁구성 하는
-00 24
▁방 학
데스 리가
였 기에
▁핵 ·미사일
지 점
▁채 운
거 는
▁가 할
▁되었 으며
▁선 원
▁학생 들
▁빨간 색
7 50
좋 게
▁세 컨
▁못 했고
▁피 오
( 총
끈 한
▁그 곳에
▁참가 하는
D00 66
▁' 배
▁말 라는
▁A t
▁결정 적
▁위 기가
▁5 인
▁자발 적으로
▁스스로 의
▁자본 주의
▁만들 지
방송 을
▁그렇 기에
▁A s
▁갈 리는
▁스 가
▁여 자의
▁중 량
▁부 대를
▁평 론가
▁' 거
▁일상 생활
라 니
y e
2 20
▁오 우
▁한 가운데
▁ 씩
▁계속 되고
▁부 양
▁암 시
ilbo .com
찬 이
▁양 심
▁소득 이
▁화 재가
▁손 수
▁보 상으로
▁특이 하게도
▁삼 진으로
현 직
▁힘들 게
▁필요 도
질 에
▁출발 해
▁이 규
▁스튜 어
▁(C V
▁주 제를
▁10월 에
화수 소
· 사진
▁못 했지만
사 .
▁풀 고
▁우 아
▁협력 해
▁수 단을
▁경 력을
▁디 시
▁상대 방을
▁6CT_00 53
▁외국 어
▁한국 은행
▁뿐 더러
▁욕 설
▁철 권
▁장관 ,
3 의
들 어가
▁되 지만,
▁발 음이
▁2 타점
보고 서
▁뇌 물을
▁스트리 머
▁방 화
▁6 대
-g radient
버 가
▁학 위를
▁제2 의
▁운 운
▁해당 되는
▁통과 한
▁재미 있
▁'201 7
~ )<|endoftext|>
▁바 디
므로 ,
▁고객 을
▁멈추 지
▁BTEO00 89
▁BSEO00 89
▁확보 해
무 스
▁요구 하며
▁공교 롭게도
W <|endoftext|>
방 사
▁사 사
3 60
▁도 발을
당 국이
▁연 관이
▁새 삼
os s
▁충 실히
▁않 습니다.
▁부적 절한
오 오
마 블
▁될 지
▁시절 을
▁가 세
▁하 라고
▁바 지
▁마 유
신 경
▁하 스
▁여기 고
▁정신 과
▁쓰 기도
▁삶 이
총 회에서
▁초 인
▁끝 을
▁지원 ,
▁인식 하고
▁한 상
▁다 저
▁남 미
▁M ag
~ 17
▁개 정을
-0002 0
▁195 3년
▁시 일
▁미얀 마
공 에
▁모 아서
▁말 리
▁던 졌다.
▁2 30
▁밝 힐
▁놀 러
에 르
주 쿠
학 규
▁안 될
▁결정 된
▁한 지
▁찾 았
▁우리 도
활동 에
▁포기 한
▁양 은
▁티 저
▁재 확인
한 은
▁위협 하는
2 일
▁조 원
▁날 로
▁신속 한
달 을
버 튼
▁만들 었다.<|endoftext|>
▁방면 <|endoftext|>
ook ilbo.com
▁국토교통 부
그 가
▁서 류를
▁국무 장관
지 부
▁불 공정
▁출연 하는
-00 16
ar -gradient
(현 지
년 도
▁불 릴
▁구성 된다.
▁바 티
▁L O
가 들이
▁피 칭
▁갔 다
▁구속 된
▁부 품을
▁하 버드
▁사랑 과
” 이라며
▁10 초
▁플레이어 에게
주 고,
▁한편 으로는
u te
▁탓 인지
▁추억 을
ol ding
트 레이
▁지역 에서는
▁외 치는
▁I B
▁자격 으로
▁ 였다.
re ak
▁결정 은
▁지시 한
외 선
▁모델 인
원 이다.
▁원작 에서는
대로 라면
▁제작 에
▁빠져 나가
▁6 번
▁오스트레일 리아
▁넥 슨
▁사업 자
▁자 사고
▁대 강
▁총 장이
▁단 숨에
▁투 수가
イ ン
▁삼 은
▁타이밍 을
▁빨 아
토 )
회 사가
었 다면
▁A m
레 스트
통 계
▁손 아
▁미 상
▁" 민
1 동,
그 의
▁메 신
▁가 진다.
▁' 코
▁노래 는
▁규모 다.
▁동 거
▁동물 의
▁나라 에
▁문화 적
▁직 격
▁8 0년대
▁동 요
사 이어
▁현 상은
▁열 을
▁흥미 로운
▁맞 출
▁글 래
▁영 감을
다 드
▁분류: 고
( 상
▁간 절
▁현대 차는
▁가 습기
위 대
▁지 정한
▁않았 다"며
로서 ,
▁방문 객
▁쿨타임 이
▁받았 을
▁패러 다
지 지만
r en
▁황 제가
▁저 기
▁개최 한
▁아 자
▁때 /NNG<|endoftext|>
▁레벨 을
욱 의
당 국
▁제 16
▁실제로 도
▁실시 하는
▁올 림
▁여 가
▁파 동
하겠 지만
▁분류:19 5
▁음 란
▁것이 었다.<|endoftext|>
▁눈앞 에
여 고
ivers ity
시키 면서
▁도 리어
▁참가 해
▁딜 링
▁같 았
▁10 회
▁대응 에
▁지 이
▁의 식이
▁신 학
. C
오 토
▁상 표
노 래
독 을
▁수출 이
방 문
▁야구 장
▁선택 이
▁괜찮 아
▁주 고,
▁친 근
▁찍 었다.
▁감염 된
▁일 축
▁15 2
▁개최 한다.
▁평 점
쉬 를
▁파 운드
19 4
▁서울 을
▁아프 가
▁아파 트를
▁신청 할
▁1 초
▁되 길
아이 돌
▁1일 에
▁US B
t on
높 은
▁중요 하게
▁정상회담 에서
됐 으나
▁타입 의
▁도 피
▁'201 5
졌 다
en er
▁고객 에게
2 40
▁시작 하여
▁형 식의
녀 는
▁업 적
▁미 중
▁모르 지만
image :
▁품 은
▁사람 ,
군 인
▁도 봉
▁매 장을
▁도시 가
▁구멍 이
생 은
▁힘 에
▁분 신
" 에
▁들어 왔다.
▁구 성이
▁이글 스
I L
▁실 력은
▁초청 해
모 ,
▁높 아서
▁주문 했다.
▁적 재
▁명 성
▁-10 px;
▁민주 당의
▁불 허
▁단 정
지 엄
▁낮 고
▁폭발 적인
염 을
▁말 해서
▁듣 는다.
대 륙
밸 리
▁나 이를
▁연구 진은
▁삼성전 자의
▁거 머
▁대체 할
▁길 이가
▁크 래
▁공 채
▁제한 을
▁엉 한
▁상대 방이
▁디자 인은
▁스트라이 커
▁교 내
▁국민 은
▁제공 해
위원회 와
시 (
▁아 깝
애니 메이션
더불어 민주당
▁" 하
▁th is
▁입력 :
겨 운
진 영
▁대 세
▁O f
- 200
▁이야기 다.
▁크리스 토
광 을
▁공 장에서
· 장
▁태 권도
▁경제 정책
1 .
게 ,
▁' C
th ing
▁길 거리
죄 로
지 원을
▁매 뉴얼
▁로 고
) 까지
올 로
▁가 파
▁보호 하기
▁다니 며
▁해 군의
▁있 다'는
만큼 의
▁애 로
ro p
▁한 시
▁도 가
▁국 장
▁주장 이다.
하려 다
▁소 원
▁먹 는다.
기관 을
무 ,
▁사 외
▁친 정
▁핵심 은
▁그 란
▁키 요
작 용
▁미 처
▁않았 으나
▁대표 적이다.
▁line ar-gradient
▁17 개
▁기관 은
고도 미사일방어
었 는지
▁위해서 다.
▁뜻 의
▁' 문
3 20
베 이션
▁차 체
린 과
▁소 원을
· 의
카 드는
한 지
체육 관
▁존재 할
▁6월 에
▁카타 르
▁해 저
▁이유 에서
· 비
▁상태 이상
▁지 수
▁제 프
려 다
2 70
▁중장 기
▁모 을
▁뜨 거
▁나가 야
보 이는
패 턴
▁글 과
hank ookilbo.com
▁지난해 부터
▁R A
▁조언 했다.
▁쟁 점
▁테 츠
▁시 레이션
▁12 6
▁편 견
▁예술 의
!! !!
▁바 그
회 장은
▁오 너
▁조 장
▁6CT_00 30
▁히 나
▁말 하기도
▁송 금
터 에서
▁업체 는
▁주 위에
▁데 도
▁일 "이라고
▁' 태
▁상처 가
▁블룸 버그
▁감 면
맨 을
▁탐 구
▁끔 살
▁레인 저
쪽 은
/EF +?/SF<|endoftext|>
▁돌 며
▁전문가 들의
-00 25
▁성 분이
▁승 리에
류 로
▁타 인의
불 명
▁무 대로
▁유 흥
리바 운드
▁총 선을
▁첫 차
▁민족 의
▁유망 주
/ 5
▁엘리자베 스
’ 으로
▁' K
▁거 느
▁대한민국 을
하겠 다.
た い
▁몰아 붙
▁샤 워
b e
▁빅토 리아
▁시 합
거 지
▁나 르
▁버 전의
▁잘 생
▁엘 레
각 의
성 능
▁지켜 보고
▁성 경
▁털어 다.
-J P
▁접 어
▁발 목
▁회복 을
( p
▁집 은
▁인접 한
P 는
▁지 름
▁업 계에
판 ,
▁한 도
▁키 울
▁계 통
▁법 의
▁발매 되었다.
원 에게
▁치 를
▁가 마
▁중 시하는
예 선
▁아 부
▁중앙 에
▁가능 하도록
▁메달 리스트
? "라고
▁변 함
( 회장
▁군 데
▁성공 할
월 의
▁군 부
1 동
▁촉 발
▁맞 는다.
▁오른 다.
▁한국 일보
▁이어 가
▁조합 이
▁경 계를
▁미 ·북
▁늘 리
▁세 입
▁원래 의
▁아 내는
빈 의
▁필 두로
▁ ]
▁서울 은
▁여기 에는
▁먹 여
ir st
은 이
지역 으로
혀 서
되었 지만,
▁온 전히
▁지역 주민
-000 58
제 조
▁정치 에
▁불 타는
▁계속 된
7 )<|endoftext|>
▁미 묘한
▁도 시에
or s
▁버려 진
▁보라 색
-0004 9
질 과
E <|endoftext|>
▁내년 에
센 티브
▁방송 은
▁열 흘
▁소비 자들의
▁단 호
▁기술 .
▁라 스트
▁195 5년
( 하
. I
▁개 소
▁31 일까지
▁말고 도
엘 의
▁일 원으로
▁설치 할
▁왔 다
▁따 위
▁혼 다
▁정체 성을
▁레이 디
▁미 수
▁고 를
인 수
▁( 18
▁단 거리
er n
▁러시아 가
▁성장 률
▁스 의
지방 선거
▁나 열
▁s e
▁친구 인
( 미
▁가 정의
더 블
▁선 회
▁세워 진
좋 아
혼 의
▁괴 로워
만 5000
is c
▁정 해져
▁C BS
▁앉 아서
뉴 욕
▁재 빨리
▁기관 의
▁특성 화
약 이
▁사 범
▁세 레
▁역 동
▁띄 워
▁아 스트
▁방법 이다.
▁빠 지게
▁4월 에
또 한
뿐 인
ch or
▁직 책
병 원은
▁승 자
낙 연
▁있다면 ,
▁쓰인 다.<|endoftext|>
류 와
▁메카 닉
▁기 지를
▁그러면서 도
▁보호 하는
▁이 형
▁재 보
▁좋 았다.
▁누 락
▁S w
▁TV A
여자 고등학교
포 스트
▁그 치지
▁P V
▁토 론을
▁정기 적으로
▁보호 막
협 회가
▁면 을
▁판단 에
날 이
겠 어
▁에피소드 에서
▁형 을
구청 장
주 면서
환경 을
( 30
▁스 노우
카 타
▁자 기의
▁' 적
▁산업 혁
종 에
▁찍 힌
▁받았 고
▁안 젤
한다면 ,
▁절 도
▁난 무
d e
마 나
▁포함 되지
버 려서
▁침 대
▁기사 단
▁( 사용자
▁상황 이다.<|endoftext|>
▁아가 씨
▁width= 40
대 회에
▁비 참
▁대 관
▁5 .5
▁News 1
▁R o
▁삭 감
▁그 늘
▁195 6년
▁맞추 기
▁선고 받았다.
▁가 면서
▁유 방
▁힘들 다.<|endoftext|>
▁공론 화
▁남 자를
정 동
▁두 께
▁SK 하이
▁지 어진
▁비핵 화를
▁소 스
▁194 1년
▁파격 적인
▁발 산
▁했 는지
▁주 신
▁스 컬
▁가격 으로
E F
성 인
▁하 원의
▁우 상
▁효 율을
▁연구 는
▁덱 에서
거리 며
▁영등 포구
무 사
치 도
▁" 정부가
루 에서
▁어그 로를
▁반발 하고
▁아쉬 워
▁테 일러
▁넘어 간
▁스텔 스
▁모 자를
▁16 8
▁오토 바이
▁만났 을
▁기업 들은
▁망 원
▁방 안에
제 품을
블 럼
▁다 친
▁웨 딩
▁미 궁
▁맺 어
오 르는
· 연
▁근처 의
▁분 식
틸 리케
▁강조 하고
▁빙 의
엔 진
호 기
▁서울 역
▁쓰 일
▁레 코
닐 라
▁과 감한
자 )
▁M M
o T
▁영 세
▁b l
▁모 종의
양 ,
▁팔 라
▁200 여
▁직 업을
▁충 실
28 일
재 난
▁6 이닝
▁조직 이
▁십 자가
▁금 전
▁선생 의
혹 은
본부 장
▁끼 어
▁카 탈
▁발매 한
▁가 오
▁3 14
▁슈 트
▁시 네마
▁순 조
민 에게
▁"한 일
▁주 춤
▁총 재는
▁행 보
▁괴 수
▁게 르
▁날 개를
▁천 하
▁해석 된다.
공 사의
▁증 여
네 트
▁입 어
▁ 섰
▁" 4
▁단 계에
▁파 인
▁B o
▁출 고
만 여
▁세 우는
▁아 들은
▁악 명
▁급기 야
▁신고 했다.
▁일방 적인
▁주 며
▁집 무
▁보인 다고
▁불안 정
▁브리핑 을
스 틸
한 국의
▁제기 된다.
▁' 5
▁선정 해
▁짝 사랑
▁알아 차
▁활약 으로
▁부 흥
▁195 9년
클래 스
▁사 생활
▁합 산
▁8월 에
▁판단 하고
▁언제 든
▁것이 지
▁KT 는
▁도와 주는
▁엔 트리
▁사 옥
▁비 공
▁특징 .
▁프로듀 스
업 의
센터 의
A B
▁청 나라
01 99
▁연기 한
▁설문 조사
▁4 분
▁보고 서에
▁ruby (,
▁에피소 드가
▁전 폭
-01 5
▁소통 을
▁진 동
집 의
▁외 치며
▁순간 ,
▁높 인
조 사에
▁게 스트로
▁시크 릿
▁느끼 지
▁가 창
in c
▁지 위
▁' 세계
▁가능 하고
▁다 듬
▁설 마
▁협력 업체
in s
즈 로
▁업무 에
-00 27
▁몰 살
▁변 수
됐 기
폐 기
▁ 션
- 25
카운 트
▁달라 질
▁대 역
▁별 이
키 지
▁추 기
랭 킹
▁나 경원
미 에게
▁연 설을
ou ld
▁트랜 스
▁' 피
▁태 클
▁타이밍 에
▁상 행
▁우루 과
▁두 어
▁AKB 48
문화 예술
▁주목 받고
▁할머니 가
▁내 버려
▁윤 성
▁법 적으로
▁마 카
ER S
▁소 지가
▁리 뉴얼
▁페르 난
길 은
직 으로
▁영국 ,
▁호 감을
▁얼 티
▁활동 은
▁쥐 어
▁변 속
▁트위터 를
교 는
▁10 px;
▁깊 어
업 체가
▁무지 개
▁소 라
▁남편 을
▁전년 보다
▁아쿠 아
▁이메 일
▁활발 히
▁실 습
사업 은
광역 시의
▁4 천
▁동 래
T R
▁7 번
▁메이 커
청와 대
▁김 미
촬영 을
▁여름 철
-00 28
▁않 나
▁인물 들이
▁달성 한
▁배 에
▁걱정 하는
▁Wind ows
▁보이 지만,
▁대량 으로
▁background- image:
▁이 면
▁불 문
▁방지 하기
▁Y G
▁ ......
인민 공화국
리 )
▁개 연
▁들어 보면
▁설치 하는
▁앞으로 의
▁현 존
▁둔 화
( 시
▁논란 의
장 일
▁인근 의
▁활 짝
아 슬
▁거 치
말 의
▁있었 습니다.
▁K orea
▁까 는
▁값 이
▁못 했을
사업 이
▁교 사가
▁서포 트
▁김 부
▁원 수
▁요 인으로
▁태 도가
▁검 사가
롤 라
の に
마 <|endoftext|>
▁인 재를
못 해
▁속 성이
▁출신 이
쿠 버
▁직 원은
3 30
▁얻 는다.
▁실시 한다.
▁트레이 너
▁9월 에
감 정
▁스트리 밍
▁가능 <|endoftext|>
▁남편 과
▁거 창
▁각 인
▁학생 부
▁울 려
키 <|endoftext|>
움 은
▁밤 의
이 센
▁선 봉
▁가져 올
▁못 하고,
▁인종 차별
면 가
되어 있
동 기
▁한국 당은
스 파
델 피아
▁D PS
▁전해 진다.
▁알려 지면서
▁삶 은
▁경영 권
▁평소 에는
▁언 어를
▁적용 되지
난 이
▁다 하겠다"고
미 스
▁야 당은
▁공 세
▁뉴 스를
▁총 학생
▁어 떨
▁안 경을
▁빌 보드
▁리 비아
▁빼앗 아
개 념
대 인
체 ,
▁공중 에서
소비 자
▁2 에서
▁분류: 오
▁살 았던
▁업 계의
인 이다.
▁" 다른
▁미 끄러
i <|endoftext|>
▁하 와이
▁리 본
▁붙잡 혔다.
▁롤 드컵
공 으로
▁워 리어
두 리
▁하필 이면
▁화 살을
▁생각 한다"며
▁향 했다.
▁붙 이는
▁놈 이
와 ,
미 디
▁자유 의
▁가르 치는
단 독
엘 이
론 으로
▁사 장의
▁탈 레
▁이 문
▁서 열
▁고마 워
▁제 도의
▁속 옷
돌 을
▁처 리가
ee p
▁거두 며
▁"저 는
드 릴
▁전문 의
가 락을
▁유 신
▁유지 하기
▁매 운
▁음 향
▁11 7
탄 도미사일
C N
어 에서
▁아 랑
▁배 치를
까 ,
▁9월 부터
▁선언 을
▁생 계
▁겸 임
▁8CT_000 9
리 브
▁BTHO03 96
ー <|endoftext|>
▁치 르
▁푸 드
화 .
▁여 느
아 니아
▁해 태
이어 야
▁아래 에서
▁됐 고,
▁교육 감
▁있 겠다.
▁감 히
▁생각 하며
▁생활 에
▁브라 우
▁높 기
▁이 타
▁도시 에서
▁와중 에도
아 머
체 제를
▁13 년
▁줄 인
▁사무 라이
▁왔 다.<|endoftext|>
2 가
▁마 스코
-000 50
▁문화체육관광 부
▁신 영
폭 을
▁최 성
▁정책 과
음 ,
▁w ill
▁증 상
EB 하나
▁회의 에
3 80
▁가 히
룡 이
▁이 희
▁아니 다"고
▁분 량
▁쓰 이고
▁4 기
▁동 정
호 도
! '
▁이 철
▁커 넥
▁1 st
만큼 이나
& A
▁후 진
▁은 혜
▁춘 추
▁기 자는
위 성
▁마 하
쿠 니
자 에서
▁가 와
▁BTHO04 02
ou se
치고 는
▁에너 지가
▁보 름
▁김 신
▁되었 지만
▁연출 을
▁" 적
▁가면 을
▁정상회담 이
히 어로
▁보 이며,
▁볼 턴
▁아 폴
▁엔 진이
▁확대 하는
▁출동 한
▁개선 에
▁성격 으로
동 시
▁맡 을
▁결혼 한
마 드
▁합류 한
▁엉 망
▁" 이는
▁위 함
▁올해 로
서 <|endoftext|>
▁익 산
. D
6 )<|endoftext|>
▁카운 트
▁줄 여서
술 의
AA D
▁되 기를
록 시
▁날 인
▁맞 선
직 에서
▁M in
▁의 구
▁길 러
▁않는 다"며
▁5월 에
▁여야 가
▁법인 세
▁" 요
▁압 권
▁전 선
▁장 비가
▁장 타
▁나 한테
▁13 개
▁소유 한
▁패턴 은
미술 관
▁장 제
▁피 지컬
▁당시 에도
▁T P
▁상 냥
▁농림축산 식품
▁따라 ,
천 이
-00 29
▁설명 한
▁금액 은
▁관 하여
▁30 초
▁진술 했다.
9 %
▁작 화
▁나가 서
▁르 네
▁2 위로
) '를
음 료
▁무 능
▁' 민
▁강 세를
▁미 끼
-01 4
아 래
▁와 타나베
▁Bl ack
▁데려 가
▁최 선의
▁반 경
▁항공 사
▁되었 는데
▁날 씨가
▁완성 된
▁땅볼 로
송 이
▁홈페이지 에서
돈 이
였 다
▁크 다고
▁비롯 하여
▁S L
▁업 적을
▁홍 익
▁성 장이
▁고민 이
▁마 른
▁피 겨
▁재 는
했을 때
▁(201 8
날 의
▁외야 수
▁보 르
▁한 동
▁진 해
▁몇 번
▁물 량이
▁A g
▁동남 아시아
화 에선
▁R em
▁떨어 지면
▁역할 도
본부 장은
▁기자간담 회에서
퍼 의
▁I D
▁이 복
니 지
운동 에
▁매 그
▁테러 를
▁수 년
▁무게 가
▁확보 했다.
▁한국 영화
▁포지션 은
▁전시 회
~ 지상
▁출 품
▁점 .
▁됐 을
▁대구 시
진 출
▁2 nd
▁양 재
▁일행 과
▁규 정한
디 ,
▁사퇴 를
▁공간 에서
▁불 리며
▁사용 해야
▁2 70
▁상 단
D00 65
▁마 켓
즈 카
▁13 8
▁등록 된
▁ 욱
▁데 에는
이지 ,
자로 부터
▁이산 가족
▁벗어 날
작 에
제 르
▁유지 했다.
▁당 이
▁스 매
▁손잡 고
▁강 변
▁기준 은
▁첨 부
▁정 주
▁조 던
▁재 장전
▁방어 력을
항 목
▁슈퍼로봇 대전
▁바다 의
▁규 제가
▁살아 온
▁회원 들이
▁멘 붕
▁주장 했다.<|endoftext|>
홈 쇼핑
피 크
▁민주 당이
▁노 태
▁새 겨진
니까 .
▁곧 장
▁체육 관
▁저소득 층
▁해 주고
▁올라 갔
▁넘어 섰다.
▁오 징
▁합 참
▁15 8
▁기여 한
A Y
▁돌 봄
2 80
란 스
▁생 중계
왔 다고
▁지역 인
▁영국 에서
▁행동 으로
고 등
14 -0001
▁강서 구
▁필 연
▁머리카 락
~ 13
- 22
▁정 이
▁무 신
▁신 차
▁최 형
▁편 으로
▁만든 다.<|endoftext|>
▁자연 스레
▁꿈 이
▁14 개
▁아쉽 게도
▁ CT
▁BTHO03 89
▁쓴 다.<|endoftext|>
▁L C
▁N S
시험 을
천 동
▁194 0년
▁세월 이
분 <|endoftext|>
여 행을
() 이다.
▁시도 한
다 와
▁가 지가
▁다르 지만
▁선물 로
▁트로 피
균 이
▁없 기에
▁동 지
티이미지 뱅크
진 <|endoftext|>
▁지시 했다.
H AAD
▁명 단을
▁녀 석이
▁명확 하게
호 )
▁2 )
▁비판 도
▁남 다른
▁이전 에도
▁반 동
▁스파 르
▁장 소가
▁단 골
▁전성 기
유 도
http ://
장 소
▁과거 사
▁신고 가
무 쌍
▁안 중
▁어울 리지
▁내 지는
▁치 고는
아 나
채 용
▁타격 이
▁잃 었다.
▁생태 계
▁악영 향을
▁BSAB01 74
▁BTAB01 74
으로 의
▁5 층
전 트
▁띄 게
▁명 인
▁버 서
▁관련 해서는
▁전문가 들이
서 양
▁이 쿠
인 원
▁등장 하고
▁남 극
▁감독 ,
▁정치 적으로
▁절 약
감 시
격 은
로 에서
표 로
▁자신 들을
▁테스트 를
코 프
▁한 라
▁조 속히
멸 의
" 이라
▁의원 에
▁변경 되었다.<|endoftext|>
4 )<|endoftext|>
E E
진 행
▁ 에는
▁지 날
▁금 연
▁말 려
▁교육 과정
▁일 베
▁오 찬
▁보이 면서
▁정부 도
▁혼 혈
▁SNS 를
▁컨 소시엄
▁분석 된다.
▁멀리 서
▁유 틸
▁시스템 에
장 면
▁일자 리가
▁표 방
▁다 비
▁말 고는
▁김 관
▁잔 인
▁김 우
▁위 주
▁나름 의
▁박 사가
▁에 메
▁마 우스
▁당 직
▁선수 들에게
▁13 9
저 래
▁간 파
금 액
▁제 각
▁알고 리즘
돼 지
▁들어 있는
▁달 을
▁우선 적으로
▁195 2년
▁국토 부
로 선
▁등 장은
▁기 대에
▁자 금이
▁자전거 를
슬 을
▁" 세계
▁전략 이
타 케
▁198 8
포 에
▁2013년 부터
5 )<|endoftext|>
교육 과
▁끈 질
▁죽이 려
▁인스타그램 에
곳 은
맨 은
▁말 았
냐 "며
▁대 는
▁고 척
▁도착 해
▁토론 회
▁간 첩
▁들어 ,
▁평가 다.
▁사무 실에서
▁근 원
▁강 탈
▁거 침
▁에 미
▁첨 가
그 림
▁북 서
▁인 벤
▁운동 이
편 성
▁연계 해
▁축구 를
▁먹 었다.
▁대 박
( to
▁달 간
▁지원 하기
-00 23
▁오 니
11 4
▁유 소년
▁강 하고
▁루 크
▁편 한
▁측 에서는
▁테러 리스트
대 우
▁추 운
▁생산 을
▁번 식
▁애 정
▁15 6
▁주인공 과
▁혜택 이
▁알 을
변호 사
: 15
▁무 도
곳 으로
리 버
▁청 룡
▁시 선
▁당 진
돌 프
▁하 행
하는 지
▁입 지가
い い
▁친 분이
시 대에
▁활약 이
물 인
G S
▁피 츠
▁절대 적인
팀 으로
신 당
클 릭
▁시 선이
▁대회 가
▁운동 에
▁조선 중앙
▁그 토록
나 온
▁일 이었다.
▁송 환
▁고향 인
▁일어 판
▁마 우
▁2 80
▁반 쯤
▁남 았다.
귀 가
▁잔 여
▁주어 지는
h am
달러 (약
▁박 은
연 습
오 롱
벤 트
할 수록
▁보 구
ang e
▁부작 용이
덩 이
▁신 데라
▁살 린
▁하 청
▁돼 지고
▁외교 관
▁무 차별
든 지,
였 습니다.
▁7 50
▁글 씨
▁몰 두
진 단
▁특별 법
▁속 성을
▁기준 으로는
▁이해 찬
▁2 .7
해 보면
딜 을
▁4 가지
▁P er
▁I V
▁퍼포먼 스
▁김 학
규 의
▁전 이
▁지 켰다.
▁박 기
▁떠올 랐다.
5 천
할 만한
▁예 보
▁차지 한다.
▁죽 었다.
▁자리잡 고
▁지구 에
▁문 득
▁세 션
▁벗 고
▁물건 이
사 ()
▁마 쳤
▁제작 진이
순 으로
▁저 주를
▁형성 된
▁광 장에서
화 력
▁19 세
▁가까 스로
노동 자
▁절 실
▁자 궁
▁알아 보
▁비 준
▁삶 과
▁묵 묵
P D
▁보 태
▁L S
▁제주 시
회사 인
▁달라 진다.
▁파악 할
▁참여 하지
랑 은
▁게임 으로
▁테 오
▁돌아 서
들 리
▁원 료
▁한 다"면서
▁보 스가
▁설치 하고
▁출연 을
▁서번 트
유 ,
▁차례 에
때 까지
애 가
▁세 일
▁프 롤
▁갤럭시 S
운동 의
럽 고
E 0199
▁안 방
▁토론 토
센 스
▁보조 금
▁아슬 아슬
밖 에도
▁그 을
▁민 속
▁이 범
▁가 이나
▁왔 을
▁정 시
▁저 술
관계 망
" 으로
▁당 당히
바 리
▁인 내
▁김 홍
▁플랫폼 을
▁한 눈에
▁연 이
석 <|endoftext|>
· 인
▁가족 은
▁공포 의
이 치로
▁백 신
▁폭 락
출 처
▁7 위
격 인
▁심 의를
▁굳 건
▁기 운
라우 드
정 권
▁8CT_00 34
▁숨 기고
▁순 이었다.
삼 아
▁때 리는
▁추가 <|endoftext|>
14 -0002
▁단단 한
▁호 러
▁상대로 는
▁무엇 인가
▁당 대표
▁무역 전쟁
▁할로 윈
▁지 킨
▁추세 다.
▁관 영
▁레 바
▁종 일
▁만들어 내는
▁서비 스는
지 니아
▁아쉽 게
▁기 량을
▁조 화를
ran s
▁보 람
▁드라마 를
▁근거 를
-0004 7
▁줄어들 고
▁임 팩
▁피해 자를
다 보면
네 이션
2 .
▁중 남
▁사람 이라면
▁문제 ,
▁수용 할
라 "고
▁어드 밴
( 강
▁BTHO01 21
▁BSHO01 21
취 소
효 가
깊 은
▁발 자
▁양 동
▁보기 에는
▁미 식
▁불 로
▁산 소
▁있었 는지
근 을
▁늘 리고
▁시즌 에는
▁194 7년
▁하 자,
▁부 도
▁양 해
▁안습 한
▁하 기에
▁C B
김 없이
▁194 3년
▁선생 님이
2 10
▁배 분
▁17 6
▁아 포
어 택
▁확정 했다.
슈타 인
증 가
▁+ 1<|endoftext|>
▁경기 ,
히 며
▁도 민
▁재 가
▁사이 트를
▁테 레
▁보 스를
▁인 센티브
▁여성 들의
▁분류:19 4
▁역사 적인
때 로
▁오 피
▁A V
▁15 4
▁행 태
▁확보 하고
▁수입 을
▁베어 스
▁경 고를
▁친구 의
▁고 분
남 기
▁할머니 는
! f
성 향
▁공격 력은
▁KO F
▁한 대
▁총 무
▁중요 하다"고
사 회를
▁모 형
▁컴퓨터 를
▁정부 서울
▁8CT_00 24
▁청와 대에
▁다닌 다.
있 다고
▁이례 적으로
▁이 코
인 지를
▁' 만
▁장관 에
▁내놓 을
▁h ave
▁성 당
라이 어
하 임
▁드 린
▁과거 와
모 스
리그 의
▁모르 겠지만
▁주택 담보대출
▁엑 시즈
▁행 진을
▁여성 과
명 하게
▁타이 탄
▁중 랑
▁러시아 는
▁시 킬
사 진을
왕 과
역 이다.
▁" 5
▁내 전
▁창 고
모 습
▁어느 날
▁이 들과
▁홍 대
▁넘 는다.
▁서 남
▁서울 시의
▁마크 롱
▁마련 됐다.
샤 오
▁주 기도
▁패스트 트랙
▁4 승
▁BSEO03 13
▁BTEO03 13
▁보 루
감 찰
▁반 문
,000 <|endoftext|>
▁나 흘
▁판매 한다.
▁용인 시
▁몸무 게
▁활동 했다.
▁밀접 한
교 차로
▁3 개를
▁건 가
▁드래곤 볼
위 생
▁자연 의
H <|endoftext|>
▁스 레
토 르
▁결 론이
▁다가 오는
/ A
▁해 독
느냐 에
운 행
▁무 거
▁임 의
대 병원
▁시 오
▁서 바이벌
▁공개 하지
▁풀 린
▁거래 일
콜 라
▁199 0
▁국 악
▁호 세
▁당국 자는
▁P e
▁순간 이
( 당시
건 담
품 질
▁Q u
▁이야 기로
!f olding
▁이룬 다.
( m
▁이외 에는
장 학
se oul.co.kr
▁인상 적인
현 동
▁낙 관
▁직원 들은
▁S m
▁한국 판
▁노력 하는
▁옮 겼다.
▁경 복
▁다 중
▁산 을
▁행사 에는
▁맞추 어
▁부 결
▁발 현
▁" 경
▁넓 게
▁막 힌
▁헌법재판 소
▁방송 사
▁결 선
▁전투 의
▁턴 에
▁1 을
▁위 태
▁ 째
▁지속 시간
▁14 6
▁유튜브 에
▁시원 한
▁스 칼
▁차 장
공 과
▁가능 하다고
▁장 담
▁애 쉬
▁덴 마
▁도 청
만 원이
: 45
▁3 .1
이었 습니다.
향 후
( 스
▁( 오
▁선 에서
▁7 개월
▁패 전
▁창 간
▁직 원의
▁비롯 된
▁' 북한
▁안 타로
▁파티 를
▁차 남
▁1, 3
벤처 기업
▁달콤 한
▁개발 하고
▁남아 프리카
▁비 만
▁되어 버린
함 대
▁모 던
▁정 직
점 도
하다 보니
▁프로그래 밍
즈 에서
▁일 당
▁저 승
▁극 적인
정 수
▁군 림
▁능 동
▁소비 자들이
▁확대 하고
든 다.
요 !<|endoftext|>
랑 을
실 내
’ 에서
▁교 양
▁범 인
▁평가 도
기 보다
인데 다가
▁선 체
▁당시 엔
▁가 리는
▁사 교육
▁비 영리
▁동 갑
마 력
▁포 용
▁식 당에서
▁주식 회사
▁지역 별
▁카자 흐
▁바뀌 면서
▁이해 하는
▁탑재 한
것 이다.
▁주 황
▁대학 이
▁vs .
▁던 지고
) )
리에 이션
▁화면 이
상태 에
▁조 화
▁네임 드
▁확률 은
▁친박 계
▁7월 에
다니 며
▁간 지
▁못 하면서
▁박 차를
▁집 값
▁배치 된
▁가급 적
▁없 음을
▁적 잖
▁내 무
▁중 성
in n
▁불이익 을
▁슈 틸리케
▁즐 기고
▁가 지를
▁묘 한
-00 34
차 이나
▁드 나
▁BTHO04 33
▁BSHO04 33
테 라
▁상 자를
▁넘 을
▁주기 적으로
-000 59
▁검토 할
▁거부 한
▁"지 금은
FF FF
▁반발 했다.
량 ,
▁운 행을
▁울 음
▁적 군
▁지켜 보는
절 차
▁쓰 이지
▁영국 과
▁진 격
▁차 원이
▁순 차적으로
▁거쳐 야
▁기 사에
▁배 럴
과 장
해 졌다.<|endoftext|>
▁트위 치
▁불 타
무 니
▁관계 자들은
▁끼 친
▁섭 외
▁대통령 ,
▁루 마니아
▁포 상
▁발사 하는
▁축 산
▁갈 릴
y pe
▁총 격
▁의원 에게
▁당선 된
▁여담 으로,
▁투 수로
▁민 폐
▁여 건
▁코 칭
~ 25
▁자연 스러운
▁염 색
ing <|endoftext|>
▁8CT_00 19
▁재판 에서
▁이해 하지
▁언데 드
▁통 학
▁계 정을
▁판단 할
▁사이트 에
▁사용 자의
▁억 지
oug h
▁자 원이
▁주최 한
▁바꾸 어
아 카
▁사라 질
님 께서
▁조 치로
▁+ 5
▁과도 하게
도 라
▁업체 의
바 스
니까 ?
▁김정 일
▁일 꾼
▁11월 에
사 자
▁실패 하고
커 피
편 집
▁동 물을
▁평가 받는
▁원 망
▁참 배
▁+ 3
초 교
▁일 대를
▁갔 을
매 니아
- G
▁보 기는
▁원 자로
▁"그러 나
▁통 솔
▁열 광
▁손 님이
▁퇴 치
날 레
▁기 는
▁주 워
만 명이
▁결승 전에서
▁전 하고
... "<|endoftext|>
▁소환 할
▁넓 혀
/MAG )<|endoftext|>
▁드 로
▁무효 화
▁드립 을
▁국 한
▁하 셨
▁메 세
▁1월 에
▁데 /NNB<|endoftext|>
· 문화
▁파 헤
▁내려 온
▁바 쿠
노 ,
▁보여주 었다.<|endoftext|>
▁일 한
▁수입 이
▁추 상
- 30
▁말 자.
▁예고 했다.
서 버
201 5
▁공급 이
척 이
▁20 5
▁국가 로
▁송 영
▁소비 에
▁주먹 을
▁T OP
▁교 류를
▁함 경
▁버 스가
▁있 으면서
-00 35
티 지
단 <|endoftext|>
▁획득 한
▁커 지는
· 재
▁이 륙
▁선보 여
충 격
▁필 드에
▁금융 위
토 미
▁소 관
▁이동 속도
▁정책 위의
곡 <|endoftext|>
▁리 드를
▁소 진
▁나오 지만
▁대상 에서
▁티 베
엄 마
▁막 판에
▁쇠 퇴
▁재 계약
열 ,
▁마 지
▁공동 주택
▁마련 을
▁사용 하던
▁애 리조
내 고,
▁안 겼다.
▁15 3
자 들에
▁대 령
▁모 빌
▁배차 간
냈 고,
▁방 심
▁설 치를
▁걸 리면
▁전 에도
▁일 절
해 지면서
▁낙 동강
▁걸맞 게
바 꿈
▁머물 러
▁갑작 스럽게
- H
▁카 피
▁경험 한
▁보도 자료를
▁진 한
▁문 구
▁퍼포먼 스를
▁독일 은
▁미 군의
▁예 민
▁펀 치
( ン
카 쿠
▁조사 해
▁방식 에
시 다
▁백 종
▁"그 래
▁속 출
▁25 00
▁linear-gradient (to
▁미국 에서는
▁걸 어가
센터 와
▁짝 이
▁개선 이
크로 스
▁흉 내
▁단 점을
▁AF P
▁보 던
발 에
▁학 년
대 )
▁M V
▁6 <|endoftext|>
▁상대 하는
▁색 을
▁담당 한
마 케팅
▁행 방
▁월 스트리트
▁현실 에서
▁? ??
▁도 전을
▁메르세 데스
▁도망 가
▁전동 차
▁스타 일이
▁복귀 한
▁차 용
타 점을
▁엔딩 을
▁재료 로
▁18 세
▁콘 크리트
e v
▁' 청
▁교육 이
▁거 두고
▁' 명
라 라
살 에
▁프로그램 으로
▁소 액
▁아 리스
▁피 스
▁우즈베 키스탄
▁5 개의
네 요.<|endoftext|>
▁많 았다.<|endoftext|>
▁태 백
▁신경쓰 지
▁금 천
▁주 석은
▁떠 돌
▁경기도 는
▁총 합
▁가능 하지만
7년 )
정 기
▁시작 을
▁꿈 의
▁총 선거
▁계속 될
▁적 들이
▁l d
▁저 글
▁2 장
▁않았 는데
직 은
▁강 을
▁BTEO00 79
O00 68
▁BSEO00 79
/NNG+ 을/JKO<|endoftext|>
T N
들 지
▁성 대
▁법 에
▁역할 에
▁사 장을
▁제작 을
고 루
▁★ ★★
▁브랜드 의
▁이루어 지는
▁"사 실
▁알리 바
▁호 크
▁따 서
▁살펴 보
▁195 1년
▁볼넷 으로
나 에게
▁부탁 해
▁않 음
▁분 수
▁계 신
▁김성 태
▁시 애틀
▁나 간다.
2 60
▁드 워
▁떠 넘
▁이승 만
▁랜덤 으로
▁달 빛
5년 )
▁한국 ,
▁마 에
▁넣 으면
▁그리 핀
▁원작 과
▁( 프
▁스 노
▁' 평
▁미 혼
▁여 인
배 틀
▁박 아
▁함께 한
▁BSEO03 03
▁BTEO03 03
▁" 잘
6 월
▁거부 하는
· 운영
▁출 범한
▁부여 하는
▁충격 과
▁조 차
억 여
없 어
집 으로
▁사 연을
▁팔 고
▁조 인
▁걸 렸
▁채 찍
▁상 쇄
▁외 식
ub l
학교 에
▁놓 았다.
▁대비 한
▁연결 되는
하 에서
▁생각 해서
▁실 리콘
▁전망 을
▁견 해를
▁결과 다.
전 인
▁유 선
▁고려 해야
( 공
기 온은
▁흔 적을
▁대우조선 해양
▁클 라이
▁2 .8
▁로 컬
▁정황 을
성 공
▁음악 가
단체 가
▁악 기
14 -0000
▁버 블
▁삼성물 산
▁낙 태
침 에
▁받아들 인
▁크 기는
▁버 이
▁소비 자의
▁없 거나
▁인물 의
▁좀 /MAG<|endoftext|>
▁위 치는
▁박 모
▁권 역
▁width= 17
드 리아
▁그 친
죠 ?
▁눈 부
모 터
▁대 안을
▁공무 원이
군 주
소 유
▁옵 션을
▁이래 저래
테 스
▁이화 여대
▁거 슬러
▁Ar t
▁3 점을
▁신 당
▁군 대가
▁케 네
▁선수 이다.
미 트
▁과학 적
창 에
▁12 9
▁발언 으로
협동 조합
-00 26
▁사실 로
6 50
▁미 하
▁따라 가
▁프린 세스
요 소
▁무 쌍
▁저 자
▁갖 다.
▁다니 던
▁학 업
▁절반 을
▁약 점이
し い
▁당 을
▁학 기
사 원
죄 를
▁자 카르
▁의 거
6 60
힘 을
▁요 건을
▁걱 정을
▁수 제
▁불 복
신 인
▁아 님
▁개최 를
▁마 누
비 상
es e
▁2 60
▁고 대의
▁안 무
▁도시 재생
▁7 ~8
▁휴 먼
▁시각 이
통 ,
▁인 과
▁부산 의
' 까지
경기 장
▁놀랍 게도
거리 로
( 23
▁내 준
▁되 살아
▁항목 에
▁14 8
▁해외 로
손 해
무 진
▁2, 3
▁차량 으로
▁지배 하는
혔 다.<|endoftext|>
사항 이
▁구입 한
▁먼 지
O K
▁온 통
▁인 삼
▁M D
▁유 고
▁책 상
▁하 사
▁m ath
▁의 도를
▁관 세를
ms ys
구 매
▁BTBZ00 70
y l
▁ 는데
▁성 산
▁BSBZ00 70
▁유 지를
▁김 보
▁의식 한
▁미루 어
▁신 진
▁등장 하며
▁단 지는
이었 기에
▁주 중
제 국의
▁지 나는
▁서울 시장
▁격 차를
▁되돌 려
▁ld msys
L ED
▁무 대가
▁슬 슬
▁ ar
훈 과
▁중 진
▁사태 로
표 ,
8년 )
▁조 사는
▁울 고
at a
i am
▁지난해 에는
▁섬 을
▁모르 겠다.
테 의
▁ 져
▁강 진
99 9
항 이
칭 으로
▁엄마 는
버 섯
▁포 터
▁이 세계
▁대 시
▁문 경
▁리 볼
▁변 질
▁살 리
▁구 호를
▁M G
▁9CT_000 6
▁논 문을
▁본 작의
▁대다 수가
푸 르
▁이루어 지지
▁만나 기
부 <|endoftext|>
▁흘 려
▁은퇴 를
▁잠 복
▁적용 하는
▁임시 정부
▁' 너
▁w as
▁구매 한
▁Station <|endoftext|>
딜 이
▁둘이 서
▁2 .6
링 의
바 ,
▁것 이라며
▁우 파
▁옮 김
▁정보 기술
▁재 래
▁글 에서
▁시드 니
▁사 슴
▁영화 로
산 군
▁간 다.<|endoftext|>
▁게이지 가
▁얼굴 은
▁"북한 의
▁왕 실
▁가입 자
__05 /NNB<|endoftext|>
) 세)<|endoftext|>
▁수 위를
▁투입 된
▁진행 이
▁찾아 가는
▁스 와
,000 원
▁단체 로
▁한 다"는
들 (
▁공 중에
▁트 랩
▁배 기
▁야 만
기관 과
연 방
▁에 볼
▁할 때
▁있어서 ,
▁10월 부터
▁몸 은
▁헌 정
▁소녀 의
▁인류 가
d er
중 개
▁사 기를
▁측 과
( 24
▁하 동
▁더 러운
6년 )
▁194 2년
▁고 른
▁파괴 하는
▁푸 는
▁발휘 할
해 군
▁미 주
스케 이
▁쾌 적한
▁입학 식
v s
▁위반 한
▁( 8
지 오
▁이름 인
▁조 기에
~ 198
근 의
▁5 성
▁표 결
▁포지 션을
▁토 시
▁액 체
타 자로
▁소유 하고
가 리
▁경제 는
▁제품 으로
▁안전 보
화 물
▁15 7
▁견 디
▁최연 소
▁프랑 스,
▁맹활 약
▁싶 었다.
▁간담 회에서
고도미사일방어 체계
at tle
▁왕 족
▁설명 한다.
▁생산 된
ing s
▁역대 급
▁음 식이
▁쓸 어
▁별 을
▁지 점에서
▁서 태
▁카드 .
몬 스터
소 환
스 쿨
ol or
결 국
▁화 답
▁복 장
▁한 가지
▁코 노
▁BSEO03 35
있 어서
회 전
▁( 미
▁김 하
▁구속 기소
▁트윈 스
▁다 각
▁여 겼
· 한
돼 서
▁생 기고
▁박 혀
▁보여주 면서
▁국내 총
▁지 점에
▁자 정
▁싸 게
▁질 서
▁배경 에
02 73
▁명 도
▁2012년 부터
· 최
▁관측 도
▁과 열
▁만나 러
▁역임 했다.
▁어째서 인지
해 져서
▁심리 적
▁알렉 스
▁개최 했다.
▁예상 하고
▁★ <|endoftext|>
▁마운드 에
속 도를
충 을
▁1 권
▁17 2
▁국방 장관
▁** *
파 운드
▁김 규
▁알렉산 더
▁원 하지
역 시
▁않 다"며
▁신 민
▁땅 이
▁해결 해야
실 업
▁장 로
▁불 신
▁숙 소
▁이루어 졌다.
▁"사 람
함 .<|endoftext|>
▁전 자기
▁얼 라이언
▁던 지
▁구조 로
▁"국 내
▁현 장의
▁부산 에서
▁4년 간
▁대응 하기
▁목표 가
▁확인 하기
▁영국 은
▁양 국의
▁선두 타자
S BJ
왕 에
▁주인공 에게
▁전망 도
▁14 3
▁다 목적
▁증가 로
▁수 납
▁일어난 다.
en n
▁부 응
▁" B
▁결 별
▁여러 /MM<|endoftext|>
▁지 사가
▁식 이다.
▁황 당한
▁버티 고
글 이
위원 장,
▁기업 으로
▁주의 가
re ad
▁클 론
▁' 예
▁물러 난
▁아 리아
▁조 력
▁국 경을
▁캐릭터 <|endoftext|>
우주 연상
냐 "
▁의 문의
▁콘셉 트
칸 센
▁캐릭터 에
▁계 략
▁카 렌
て <|endoftext|>
A ,
▁등급 을
▁30 일까지
▁공 명
▁지속 될
▁3 턴
▁시작 하고
▁BTHO03 87
▁스피 커
니 카
▁5 번째
▁상태 이다.
▁단계 적으로
폭 풍
▁티켓 을
▁옮 기는
▁정상 에
▁Y our
▁중 단을
▁식 별
▁일정 으로
▁환 산
▁13 3
▁제한 하는
▁토 미
▁독일 ,
잔 을
공 원에서
▁설 정은
▁손 톱
▁단백 질
▁싶 었던
▁16 3
학 에
▁필라 델피아
▁원활 한
▁하 이드
▁트랜 스포
▁카 게
▁원 가
▁16 4
일본 의
▁이 색
.3 1
▁날아 가는
스 톱
▁17 4
▁부회 장의
베 르트
학과 ,
맞 은
▁분 데스리가
▁영업이익 은
▁훈 장
▁공 청
▁때 나
▁날 렸다.
▁먹 이
▁청 렴
▁금지 하는
마 침
사업 으로
실 질
▁퀴 즈
▁있 /VA+
언더 파
IC E
▁명예 의
▁"다 만
▁중국 산
▁E l
그 리고
▁찾 으러
▁발견 할
/ 1
▁정 관
▁다름 없는
▁오 비
▁비 무장
▁실시 할
정 에서
▁세계 는
▁고 심
구 조를
였 다면
i et
▁다 할
▁다 문화
▁뭐 라고
▁소환 해
▁구멍 을
▁도착 했다.
케 도
▁작용 할
▁무궁 화
▁ 섰다.
▁달 인
▁전투 력
치 오
▁진 심
▁스 바
▁하드 웨어
▁Com m
할 머니
▁저 마다
▁변 수가
▁동생 인
▁시너 지를
남 도의
처 로
▁이 우
▁전 례
▁크 기를
하 로
▁정 윤
분 해
▁수 인
▁니 혼
▁어그 로
▁힐러 리
) 에서는
▁일 이다.<|endoftext|>
▁리그 의
▁건 전
▁목 요일
▁오 퍼
▁열 애
▁이 낙연
▁응 모
▁숙 청
▁3 20
▁들 으면
▁적절 하게
▁먹 이를
▁절반 이
커 니즘
re en
▁경제 성
▁편 찬
▁모른 다고
▁유대 인
네 요.
캐 나다
토 크
리스 크
▁3 15
▁김 호
상황 을
준 과
증 의
▁시 끄
훈 장
▁2 가
공 산
▁물 품을
▁강아 지
▁구성 돼
▁스페 인의
▁체계 적인
교 로
투 표를
▁공 으로
/E F<|endoftext|>
제 인
분류: 201
▁최저 임
▁스 모
▁BTHO01 01
▁BSHO01 01
▁대중 의
~ 60
▁: :
케 이스
▁체 납
▁수준 에서
▁이 회
▁모 음
시아 의
▁제조 업체
▁신 재생
▁취급 하는
▁달 랐다.
▁이 력
▁위 원은
▁메시 지가
▁불 린
▁사회 는
▁100 m
7 20
▁" 네
▁물 은
▁방송 통신
▁있어 요.<|endoftext|>
▁것이 니
▁2루 수
▁코 카
▁굴 복
▁부장판 사는
영 향
▁ 님
▁본래 는
▁스 스
▁울 프
생 들이
▁지 장이
▁다이 노
▁예능 프로그램
▁마 당에
( 수
▁" 보
▁국 장은
▁형 평
▁하면서 도
▁일 가
▁R ed
▁총 파
om b
▁불안 감
/IC +./SF<|endoftext|>
▁St r
/ 11
▁캐릭터 들의
▁이쪽 도
▁상황 에서는
▁성장 하는
▁임진왜 란
▁꼬 리를
▁이닝 을
▁Com p
변 에
▁지 오
▁등 __05/NNB<|endoftext|>
▁편리 한
▁법 사
L O
▁로 테이션
갔 다
▁1 .9
▁확 고한
3 으로
▁계 기를
▁드라마 의
▁1 .1
▁승 무
▁베네수엘 라
업 계에
카 스
▁T ime
▁치료 가
▁꼬집 었다.
체 적
▁쇼 크
▁같 지
▁이 단
▁국 책
▁투자 하는
▁연루 된
▁일 품
▁유니 버스
▁돌아오 지
아 도
▁시 조
▁없 습니다.<|endoftext|>
▁붙 었다.
▁의무 가
▁기술 에
▁연 안
▁참고 .
▁발전 소
▁주 위를
▁정책 으로
▁휴 양
▁영상 에
▁무작 위
블 랜드
▁정치 적인
추 를
택 이
▁총 리를
▁것인지 ,
요 일에
▁핵 을
29 일
▁내려 오는
개혁 을
예 가
시키 려
우 먼
▁엔 터
산업 단지
▁논의 했다.
▁차 명
▁읽 은
▁업체 에
▁야마 모토
▁다음 ,
AR D
▁장기 적으로
▁겨울 철
▁이 __05
▁이__05 /MM<|endoftext|>
비 나
▁강 림
▁5 명의
▁레 슬링
▁없이 /MAG<|endoftext|>
▁본래 의
▁하였 으나
만 금
▁역 은
▁증 강
근 은
▁딸 인
▁195 7년
▁미 들
▁이후 엔
▁개발 과
▁표현 했다.
회 사를
▁빠 지지
U T
▁주 도로
at s
▁문 성
▁15 만
탈 출
▁양 주
만원 에서
▁전면 에
▁월 등
▁출판 사
1 19
▁덧붙 였다.<|endoftext|>
▁중견 수
▁지켜 본
▁색 다른
▁웨 어
은 은
▁폐 업
▁재판 이
a )<|endoftext|>
▁교육 ,
▁포함 된다.
▁15 1
▁13 7
▁사정 거리
▁' 외
▁' 경제
50 <|endoftext|>
▁나 인
▁로드 맵
▁자 릿
▁코 스타
▁이름 이다.
▁초중 반
▁일 족
▁부장판 사
の は
▁등 <|endoftext|>
▁놀 이터
▁2 .2
▁무 책임
▁검찰 총
▁"여 러
2 90
▁플레이 할
▁덤 .<|endoftext|>
▁어 플
운 송
▁199 3
▁방향 이
▁엄마 의
▁' B
▁안 착
대표 팀
▁아랍 에미
▁의 욕
▁구 의
▁실시 된
▁남양 주
월 )
▁가입 한
▁넷 플
▁2 안타
▁활약 한
구 단
▁도 마
▁넘 겼
불 명의
▁위원 장과
▁연말 까지
포 항
▁운영 이
▁도시 락
차 원
▁총 력
▁소재 지
▁스 커
▁최고 급
오 늘
▁힘 과
▁버 전을
페 스티벌
▁시 켰
▁제 라
▁유 메
▁프로 농구
▁BTHO03 70
▁BSHO03 70
▁6 명
▁13 6
▁ /MAG<|endoftext|>
▁이 르게
단체 의
▁정 정
▁중요 하다고
▁반발 을
팀 장은
▁증 대
▁오른 팔
▁코 파
수 .
화 '
▁질병 관리
▁듀 오
▁증가 할
통 과
▁확 연히
▁A ir
▁(201 9
▁타이어 뱅크
▁왔 다고
부 턴
▁타 석
▁긴 밀한
▁묻 는다.
▁서대문 구
소 드
▁3 종
un n
▁것 의
▁표현 할
▁기록 하면서
▁업체 들이
▁희망 이
▁명 나라
▁부 인이
▁ am
▁유 보
장으로 서
▁경 로를
▁처 녀
▁뛰 쳐
▁상태 이
▁공포 를
▁파 편
▁타 다
▁치 르는
▁성 인이
▁업그레이 드를
채 가
출 력
▁고 창
▁감추 지
▁인 도의
위 반
▁있 다"
▁" 경제
▁달 랐
▁I CT
▁지원 한
▁민 선
▁체결 한
y m
· 기아
▁5 조
▁거주 한
▁HP 가
▁공 언
트 레
▁S A
▁캐 나
▁남아 있다.
주 주
▁자 작
▁9 회초
▁금융 위기
▁묻 어
▁제거 하는
▁인 신
▁이 서
▁복 싱
함 도
▁height= 20
▁이용 이
상 환
▁카 니
▁사랑 해
▁넘 길
대 부
▁중 에선
▁통 화를
▁노하 우를
% ),
▁부 리는
▁면 적은
▁아무 렇
▁6월 부터
▁미 소녀
▁파 우
▁팔 꿈
▁브레이 브
▁함 으로써
대표 는
진 도
▁내 한
▁사랑 은
▁시 점을
▁순 회
▁클 레이
▁사용 하게
▁X <|endoftext|>
▁때 면
▁초 강
신청 을
에 너
▁타 지
▁손 목
N P
▁수 식
▁노동 자의
▁공격 력의
▁5월 부터
▁양 념
▁히 라
▁지정 되었다.
기 한
카 드가
했 듯
-00 38
▁연구 하는
근 ,
▁3 호
at ic
등 은
▁적 자를
▁분류: 조선의
▁엄 중
st ru
▁방향 에
카 나
▁비 자금
▁고려 대학교
▁틀 을
:00 <|endoftext|>
▁내놓 는
▁고 베
▁파 면
▁농 도가
▁추진 한다.
▁흘 리며
▁실 장
▁등판 해
▁들 리는
과 목
군 단
▁취 하는
▁평창 동계올림픽
백 만
▁정부 ,
▁비 는
▁배경 은
기간 은
▁생 선
▁합리 적
▁아프가 니스탄
▁반 출
r al
▁내 면서
▁코 멘트
▁자체 로
▁공 판
▁소 생
▁방 이
▁뒤 진
▁중 상을
▁태 스크
▁글 은
착 륙
▁인터넷 을
순 위로
▁역할 로
은행 과
플렉 스
▁북 동
▁개발 하는
▁대부분 이다.
▁제 대
▁덱 을
▁특히 /MAG<|endoftext|>
▁남 서
▁재 혼
▁KB 국민
▁오 시
▁9 만
▁캐릭터 인
▁인 디언
▁파 도
▁G e
▁실시 했다.
▁I' m
▁음주 운전
▁만 화를
▁M usic
미 안
▁급격 하게
▁고 산
▁중반 에
경 으로
▁간호 사
▁관계 자가
? '
모 바일
병 원,
▁전달 한
27 일
완 종
▁3 세트
▁교 사는
▁사 악한
▁후 루
▁화 석
▁기억 에
색 과
▁적 법
▁최고위원 은
▁관여 한
버 는
황 후
▁알 린
▁밀 착
▁생겼 다.<|endoftext|>
찮 게
레 어
▁심 히
▁광 물
▁역 이
▁프 랭크
▁3 선
▁LG전 자는
▁안 에서는
▁모델 의
▁과 제로
▁가 사가
▁g o
▁보낸 다.
▁65 세
오 니
▁드루 킹
에 의
▁나 이지
▁발 톱
▁타이 완
▁(NP_ SBJ
▁편안 한
▁미 녀
▁2 11
▁많았 고,
▁타 르
▁" 박근혜
▁13 2
▁당 한다.
▁권 영
▁개인 적
▁멤버 들과
▁입 장은
▁취임 한
od y
▁유 스
▁조건 은
▁" 아이
▁아이 들과
▁물리 적
▁바라 보며
▁급 성
나가 고
▁집 안의
▁사회 관계망
/NR +
▁목소 리는
▁구축 을
▁193 8년
▁고 안
▁서 는
▁ ro
고 래
▁32 강
▁비 꼬
I ST
미 션
▁진출 했다.
▁갖 지
분 할
▁BSAA01 55
▁BTAA01 55
메 탈
주 <|endoftext|>
▁1 급
▁제 도는
▁도입 해
▁' M
▁아들 로
ない <|endoftext|>
( ー
▁도 배
▁단체 는
▁1 개를
▁세 단
애 도
코 에게
▁떨어 져서
▁포함 )
▁영혼 이
프레 임
경 상
▁C or
재 단은
▁자동 차를
▁정 씨는
▁사망 하고
좌 석
▁' 야
▁문자 메시
니 혼
차 고
▁전후 로
▁들어 설
아 스
▁우승 한
▁방어 를
록 의
▁부모 를
▁출발 한
G 0273
▁타 치
▁뽑 기
트 론
▁가 방을
▁아 들과
▁개발 ,
E V
▁C ont
▁실 명
▁골 고루
박 사
▁조종 하는
비 <|endoftext|>
▁BTHO 0099
▁BSHO 0099
▁흡 입
▁스카 웃
▁바 짝
▁' 바
▁공 손
▁신 자
마 리의
▁조 성을
▁올 리면
▁보고 는
둘러 보기
T F
경 기가
길 로
자로 ,
나 리
▁원 화
▁네 크로
혈 을
▁초반 의
▁사용 되었다.
중 이다.<|endoftext|>
▁아파트 는
▁시 연
▁장 르의
▁Sch ool
▁허 물
▁조치 에
▁하였 고,
▁박 동
▁출시 되었다.
▁당 당하게
▁탈 바꿈
술 ,
▁한 다”고
▁출석 해
▁Un iversity
▁정 하고
▁농 식품
▁부분 .
주의 ,
▁장학 금
▁유 미
▁팬 들도
N C
▁11 ,
복 은
▁일 는
▁덤 벼
장 기
중 은
▁전통 을
공동 체
▁열쇠 를
▁비 관
머 신
술 은
▁분류: 중
▁싸 인
▁스케 줄
▁세 대의
▁무장 한
▁조 치는
▁스 기
▁유 라
▁거 치지
▁제목 이
▁받아들이 는
원자 력
▁마 마
화 했다.
▁걸 리지
▁달라 붙
전 담
▁1 위는
▁히 사
▁가 든
▁동료 들과
▁비 전을
▁임대 주택
▁골 로
▁기 권
▁본 선에
▁송 구
E P
▁윤 영
이라고 는
▁조 경
▁20 :
▁제시 하는
성 (
▁정 계
▁입 히는
공 영
특별 위원회
퍼 시픽
페 스트
▁태 평
▁사이트 에서
▁" 언
▁데 다,
▁12 ,
엘 은
▁유저 들
남 북
▁않 습니다.<|endoftext|>
▁등장 했다.<|endoftext|>
▁국민 과
▁14 7
▁포인트 가
메 트로
시 장,
▁칼 라
▁리 자
▁줄 은
▁상황 .<|endoftext|>
▁원숭 이
▁그러 지
▁자녀 가
▁02 .
▁노 조가
▁남 쪽으로
▁잔 디
▁매출 액은
· 사회
▁고 혈압
▁예 루
▁살 릴
10 6
▁제목 을
▁소개 한
▁마스크 를
▁아 레
▁관 제
▁넷 째
떨 어
(T HAAD
▁팔 이
떨 어진
▁친구 들
▁예산 안
▁전통 의
▁남 발
- 24
▁사건 에서
방 식을
▁포함 하는
( 무
든 가,
▁BTHO04 35
▁BSHO04 35
▁줄 고
な ん
▁배 로
▁강화 에
▁신 병
▁뜨 고
▁무 분
▁시 종
▁' 정치
▁민 자
▁예술 가
▁아 군을
▁실 상은
▁바다 로
▁주민 들을
▁자 르
▁마 모
태 의
행 으로
▁일찍 이
▁환 불
▁스카우 트
▁외 화
▁언론 을
파크 에서
▁KIA 는
▁3 13
▁분야 는
▁보 스로
나 갔다.
룸 에서
▁국토 부는
달 의
▁프로그램 이다.
▁해결 이
▁결혼 식을
▁국무 위원장이
어 :
카 드로
▁인물 <|endoftext|>
홍 콩
▁조 이
▁비난 하는
▁연 체
▁단 체가
▁달러 로
▁O G
▁카 디
▁나가 면
▁등록 을
H T
킬 을
▁시민 들에게
26 일
였 다가
▁복 장을
▁확보 하는
▁맞추 고
구나 .
▁신속 히
▁팀 과
시키 려는
▁이제 /MAG<|endoftext|>
▁O F
▁찾아 내
시설 ,
사 구
▁얼 른
▁없 다"는
▁회 귀
it tle
▁저 출산
스 태
▁수 질
▁그러 고
▁죽 이지
충 남
노 <|endoftext|>
▁구 울
▁이 겼다.
▁도전 하는
▁Se ason
▁# ffffff
A <|endoftext|>
편 에서는
▁고 치
▁승 리가
▁부 대가
은행 ,
▁않 으
▁A mer
▁프로 덕션
▁동 년
▁이것 저
▁유 류
▁서 두
▁사 나이
쓰 레
총 회를
▁BTAA00 11
▁BSAA00 11
▁낮추 는
+ +
▁자 선
▁보고서 에서
▁가지 로
▁객 실
▁있는 ,
▁19 19년
리 프
정 리
▁기준 금리
▁슬 라이더
대 (
하 리
▁수록 <|endoftext|>
합 병
▁14 2
▁북 유럽
▁2014년 부터
▁흔들 리는
쿠 가
이드 의
이다 보니
▁증 발
▁대 가를
2 동,
▁비 스트
심 사를
▁초 기의
▁증 진
▁만들 면
▁수 반
▁확보 하기
▁2 가지
▁테크 닉
▁선 구
▁집 결
▁줄어들 었다.
▁애틀 랜
▁참가 했다.
▁예 멘
▁광 저우
주 에게
▁붙잡 아
소 연
▁H igh
네 .<|endoftext|>
▁사용 하며
▁허 술
▁뿐 이었다.
▁집중 할
▁서 독
▁귀 중한
▁까 마귀
스트 림
▁한 다며
▁한국 GM
▁14 9
▁뛰 었다.
층 으로
키 타
▁조 각을
▁몇 /MM<|endoftext|>
▁팔 려
▁편 향
해 줬
▁살 면서
평 이
▁거부 했다.
▁전작 과
▁한 탄
▁2년 을
▁어 수
▁연구 원
▁보여주 기
( 22
▁접근 할
▁공통 적으로
카 에
▁소개 하고
노 리
er g
느냐 고
▁공유 하고
▁되어 있다.
▁기억 하고
교 환
크 레
▁대 선을
▁좋 겠다.
된 다
▁이 다
▁포 유
▁법 한
▁꾸 미
r id
해주 면
▁BTGO03 44
▁BSGO03 44
▁기간 보다
▁2015년 에
▁상황 "이라고
▁고려 하지
▁취업 자
주 기도
▁같이 /MAG<|endoftext|>
검 의
▁3 30
기관 으로
· 조
▁공 제
▁울트라 맨
그 런
▁- 4
▁16 6
문화 의
f orm
변 속
찮 은
는 지에
▁수 로
▁해 커
▁알 루미
▁비행 기를
▁5 초
▁국회 는
▁그렇 듯
▁진영 의
▁올랐 다.<|endoftext|>
탑 을
▁한 승
▁타 구를
▁츠 키
▁신중 하게
워 진
▁모 드가
헤 드
▁분 량의
▁퍼 펙트
애 플
▁전반 을
▁일으키 고
O ID
▁헤 매
▁경험 과
▁터뜨 렸다.
▁Pl ay
위안 부
답 지
▁조금 은
▁흐 른
( =
▁깨 어난
▁일 상을
▁극 초
AC K
▁피 니
▁14 1
퍼 는
▁기 사는
▁맹 세
▁남 중국해
▁추진 을
▁탐 방
▁싱 어
▁(VP _MOD
ie w
▁국 채
리아 ,
▁기술 이다.
하 키
▁체 제가
▁다이스 케
▁벌 인다.
케미 칼
지 도록
▁이 목을
▁못 /MAG<|endoftext|>
▁영화 관
▁"남 북
▁사 관
▁특 성에
되어 있다.
▁BSAA01 62
▁BTAA01 62
▁8CT_00 02
이크 를
▁아파트 가
▁없 다"면서
▁보인 다"며
▁첩 보
▁대목 이다.
▁이 따
▁다르 다는
▁냉 전
▁피 자
▁한국 사
▁코 레
▁간 격으로
▁속 여
억원 대
▁심 문
▁의 장이
-00 22
▁2017- 12
규 ,
▁하 니까
▁가 설
▁두 근
T 는
▁권한 이
▁변 이
포 드
률 도
▁깔끔 한
들이 다.<|endoftext|>
▁9 000
▁구간 에서
· 무
▁자신 에
▁BS JO04
ar l
▁" 피해
▁캐 스트
▁바이 킹
▁17 3
▁머물 고
▁마 력을
▁만 하면
▁재 계
▁피 하고
업 계의
▁지 사의
▁피 드
▁S W
▁방문 할
▁아 그
▁시가 총
▁오죽 하면
▁더 스
▁반 이
▁천 지
▁소송 에서
카 게
▁호 시
▁주 기로
민 들이
▁그 마저도
▁알 면서도
▁손 학규
▁다 자
▁특 공
▁C an
▁신 칸센
▁교 회의
선거 관리
▁리 즈
불 능
▁빠 지고
▁예정 돼
▁(1 )
▁하 자는
▁과 실
▁선정 했다.
격 투
▁안정 된
▁때 __01/NNG<|endoftext|>
▁현황 을
3 40
▁자 각
▁구성 됐다.
▁못 하며
▁레 코드
▁나왔 지만
하 드
▁사업 장
▁100 만원
▁낭 만
▁좌익 수
세먼 지
( 비
식 에는
▁차 종
사 실을
▁5 이닝
▁강 습
벽 이
▁한 남
▁공격 한
▁전통 적으로
で <|endoftext|>
▁구 마
▁버 디
승 이
▁도깨 비
▁주변 에는
▁번째 는
▁순간 을
▁여성 가족
▁노력 할
산 성
▁왕 위
▁이동 을
▁높아 지는
▁소상공 인
▁시 와
▁더 러
▁호 감
▁손꼽 히는
보 게
▁시 도가
▁인 사는
▁변화 의
▁있겠 지만,
식 <|endoftext|>
▁높 았
▁언 어로
▁멀 한
까 .<|endoftext|>
▁아니 다"라며
▁조지 아
▁13 4
▁실패 를
▁남편 은
▁동 점을
▁액 세서
▁전개 가
m a
압 을
▁본 의
▁크 다"고
" 대통령
토 에게
▁가 미
▁방 금
▁해도 ,
▁참여 한다.
등급 을
▁정 년
▁우 드
▁박 현
▁상황 으로
it ch
▁개 수
▁드러 내고
▁잔 혹
▁한숨 을
▁ out
▁점 멸
▁(F eat.
▁연세 대학교
▁f l
▁다니 고
▁경 인
▁천 명
내 용
▁싸움 에
▁줄어든 다.
티오 피아
▁자 로
▁좋아 하고
▁검 사는
▁회 장으로
▁에 레
▁베이스 볼
▁세 울
떻 게
▁빠르 다.
▁6 명이
공 공
▁것이 므로
▁홍보 를
▁직후 인
7 60
본 이
▁동 명의
▁할 당
▁대화 의
▁종교 적
▁행복 하게
▁193 9년
▁메신 저
· 오
▁살 리는
▁세련 된
▁하 노
▁ 뷔
성 적
셔 야
▁부 대의
▁안 은
▁사무총 장은
▁성 실
장 .
▁드 로우
졌 다"며
▁경쟁 력이
때 부터
지 배
▁화 요일
▁등 교
th e
▁주 면서
▁연 중
톤 의
▁대 왕
▁데 레
▁BTEO00 83
▁BSEO00 83
▁여 건이
▁대신 ,
▁(K BS)
▁매 장에서
▁업체 인
▁장소 는
▁투 약
▁교육 청
▁동료 가
▁어 휘
▁학 급
▁렌 즈
기준 을
▁계 파
▁전 화가
몬 을
는 지도
▁관 문
▁G K
▁안 주
▁6CT_00 35
▁돌파 했다.
- c
▁가 브리
▁송 출
▁5CT_00 15
국 방
▁비 추
▁아테 네
▁(https://board.namu.wiki/report /
▁잡아 야
· 청
받 던
▁끌어 내
▁가 정을
▁고 우
▁대체 적으로
▁일제강점 기
▁박 쥐
▁코 오롱
▁16 7
▁투 명한
▁웨 일
▁제약 이
▁가 의
AT E
▁나카 무라
▁여 부와
▁압도 적
▁인질 로
▁한 다'는
▁보 령
소 .
▁조 커
것 .
▁동생 이
▁16 1
▁' 독
▁그런데 /MAJ<|endoftext|>
남 자
▁' A
? !
· 부
▁초록 색
▁다행히 도
던 지
▁가 처분
▁대법원 장
현 <|endoftext|>
▁원 치
▁잘 만
▁펜 스
▁릴 레이
▁닉 네임
▁오케 스트라
▁2 위에
▁제이 슨
▁스 틱
▁밝 고
) '을
▁시청 자들이
▁BTB F0265
▁BSB F0265
▁결 집
▁레 시피
▁잊 고
▁노사 정
) 인
▁없 는데,
▁카 사
▁피 닉스
▁기자 들에게
▁바 늘
▁멈 춘
( 일본
무 대
▁대응 이
▁l ove
▁재능 이
▁무기 력
▁파 츠
▁근로 시간
▁시즌 1
▁선수 들과
▁경쟁 에서
▁대결 에서
▁기반 이
▁사 수
▁" 임
▁별 명은
▁왔 다는
m 에
· 안
▁신 태
▁프로 이센
▁때 마침
▁이 이
▁" 경찰
▁1 타점
▁그 로부터
▁입 으로
▁식 구
▁던 질
▁그랑 프리
게 임을
사 정
▁있 더라도
▁수 치는
▁본 다.<|endoftext|>
▁199 2
▁' T
악 을
질 서
▁부적 절
▁C .
▁인 형을
▁현대 건설
ite d
▁네트워 크를
회 에서는
▁정 의를
▁의 정
▁파 랑
▁승 마
▁로마 의
▁의 도로
px "<|endoftext|>
▁접촉 을
▁"피 고
▁거 치면서
▁환 생
▁BTHO01 04
▁BSHO01 04
부 진
▁넘 었다.
▁있을 지도
4년 )
▁사 유가
▁영 수
▁늘어나 면서
▁잃 는
라면 ,
▁물리 학
▁붙어 있는
▁시간 당
▁사무 실을
▁의뢰 를
엔 터테인먼
▁업무 상
▁자살 을
▁거두 었다.
▁성 지
▁터 질
▁등장 .<|endoftext|>
▁시· 군
▁이것저 것
개 는
▁보 우
▁대 우를
▁" 국가
▁일각 에선
소송 을
를 /JKO<|endoftext|>
▁패 자
야 .<|endoftext|>
▁최근 까지
. 00
▁0 .1
·경 북
O BJ
▁K S
하였 지만
▁딜 이
▁쏟아 지는
▁내 서
▁보 리
▁눈 과
▁기 자의
▁상 류
▁외무 성
맞 이
▁유 벤
술 에
▁퍼 뜨
▁주민 들에게
차 트
왔 다는
▁안 하고
▁불 발
▁힘들 다는
변 의
시 계
▁돌 릴
▁상태 인
▁방문 했다.
▁정황 상
▁비 키
▁l a
▁책임 지는
▁이틀 간
십시오 .<|endoftext|>
▁단 련
▁무시 한
04 년
▁ 냥
▁삼성 동
▁있었 다면
스터 를
▁광 경을
운동 이
▁링 컨
▁많 다"고
r ol
▁K EB하나
▁사이 에는
▁능력 치는
▁젤 리
리그 에서
▁법 령
▁초 음
역 할
▁예산 은
U P
하 트
▁도 래
11 년
▁분위 기에
▁(프 록시
▁소설 의
▁존재 감이
▁헤 라
토 시
▁카페 에서
상공 회의
▁공격 과
▁밤 이
▁아빠 가
▁노골 적으로
찬 은
품 은
▁B ar
▁BSEO03 00
▁BTEO03 00
브 는
▁가 혹
▁명 분
▁성 소수
▁조사 결과
▁자 손
▁스릴 러
해 에
▁인 상에
▁시도 하는
▁끝 낸
여 곡
처 에서
▁구 장
5년 에
▁보도 한
▁오 인
▁파 스
압 이
▁서 산
▁드 레이
▁명백 히
▁왕 을
▁맡 긴
거 진
온 라인
▁추 대
지방 법원
▁이익 이
▁요 금을
석 유
▁한 수
▁발사 한
▁팔레 스타인
▁마 리의
▁김 의
▁학생 과
▁답 게
렬 하게
권 력
▁소 소한
▁존 속
▁단 점은
▁장면 도
▁BTHO01 11
▁느낌 의
▁시야 를
▁러 셀
▁BSHO01 11
▁허용 하는
리 치
an e
요 를
제 에서
▁착수 했다.
최 고
▁재 일
▁보너 스를
▁6 자
▁올라가 면
-01 8
점 인
▁확산 되고
▁보 자면
▁관리 자
▁사회 적으로
▁암 울
▁명 실
▁( 10
▁살 았다.
▁일본 식
▁추진 한
▁얘 기도
▁단 번에
▁이뤄 진다.
▁첫 사랑
▁블 럭
해수 욕
차 고지
▁그나마 도
순 간
운 다.
인 )
▁10 개월
▁예비 후보
티 넘
▁박 사의
▁정상 은
▁안 쪽
▁TV 를
▁브랜드 로
· 가
▁싶어 하는
▁기 운을
▁성 적으로
▁증거 로
갈 이
▁ 뱅크
▁S um
( 예
이라 ,
▁있었 다
▁등장 으로
▁자 초
▁골 밑
▁불안 정한
▁추 징
▁배 리어
▁위해서 라도
지 진
프 터
행 에
▁대한민국 에서
▁질문 에는
▁폐기 물
▁우려 했다.
▁는 다.<|endoftext|>
▁때 때로
▁임 의로
▁유닛 은
▁시 아
▁시 위가
▁경 감
해 지기
▁경 주시
▁이미 /MAG<|endoftext|>
모 노
연 봉
▁투자 해
▁내 주고
▁4 경기
▁안 희정
▁기대 하는
궁 의
▁언급 되는
▁2 -1
▁미 코
하였 는데
▁기대 감이
m ath
▁소 나
▁연상 시키는
▁사 에
▁지적 에
▁장 점은
▁성 씨
▁파 급
▁2월 에
▁슬 래
▁희망 의
▁챙 기는
양 성
▁그 립
▁개 구
▁지켜 봐야
▁가 위
▁통 증이
투 로
▁이 산화탄
▁사 극
▁패 한
▁6 억
▁타카 하시
▁주 범
▁역 이다.
▁필요 없
▁영 토를
▁것 들
▁' 빅
폐 합
▁정치 의
▁이뤄 져야
▁시 비
▁키 움
▁국 빈
▁논 평
▁' 올
▁1 명을
▁설 사
▁공개 할
▁공 백을
사 라
치 료를
▁하 치
▁하는 게
▁제공 된다.
▁높 고,
▁농 축
▁코 멘
▁7CT_00 39
쿠 로
▁러시아 와
▁끝난 다.
OC AL
국 대학교
▁야 심
▁부사 장은
▁광범위 한
▁가능 하기
e el
▁호 박
맛 이
▁사 위
▁풍 자
▁스토 리는
▁연상 케
▁민정 수
▁S o
▁국민 투표
▁개최 되는
▁뭔 가를
새 를
▁물 질을
▁애 써
▁허 리케
▁정신 건강
▁채 굴
▁숨 지게
설 비
▁i OS
▁최 승
▁시도 하고
▁때문 일
▁50 분
황 제
▁김 남
う <|endoftext|>
▁골 자로
▁이순 신
▁ one
▁정 명
▁최 준
▁2차 례
▁BTEO00 88
▁BSEO00 88
▁든든 한
▁보 기도
▁9 회말
바 탕
▁가 량의
▁판매 한
▁책임 은
필 살
▁생산 한
▁2011년 부터
▁이 마저도
▁별 세
▁영혼 의
보 자.
▁깨 어
▁유도 하는
▁문제 .
▁소셜 미디어
▁아 카이
레 타
▁추 신
전 망
코 르
▁정 대
▁캐릭터 와
▁차 관은
▁징 수
▁로맨 스
▁루 키
▁홈 에서
▁끼 어들
개 편
▁함 수
해 <|endoftext|>
▁좋 고,
▁살아 야
업체 의
대 대
충 청
▁정 현
▁지 켰
▁베 지
▁여행 객
▁맵 을
▁대표 되는
▁전경 련
핑 크
▁S l
▁뒤 로는
복 의
창 원
▁나왔 는데
▁BTEO00 92
▁BSEO00 92
U R
번 역
▁마을 버스
▁승 소
슬 람
▁* 201
▁height= 50
▁발표 가
▁공화 국의
시킨 다는
▁한국 에서도
▁영화 이다.
▁미래에 셋
▁프로토 스
구 )
7 10
6 40
▁소 리에
정책 의
▁BSEO02 81
▁BTEO02 81
▁정도 다.<|endoftext|>
▁브라 더
▁지 질
▁마 실
순 히
▁투자 한
▁지 탱
▁한국 노총
▁학 창
▁전당 대회
▁A B
▁및 /MAG<|endoftext|>
▁국 감
▁마 카오
MA X
px |
▁4 타수
▁안 다.
▁태 우고
5 일
▁들어가 고
▁ 므
▁2014년 에
▁외교 부는
▁봐 서는
▁있 기를
__ 07
▁가격 도
차단 )<|endoftext|>
▁Sing le
▁오 일
▁( 김
▁기능 도
라이 프
▁라 파
그 래도
▁언급 은
▁주 위의
▁3 세대
-00 36
▁선 점
▁각 광
▁적극 적
▁깨닫 게
▁권 력의
▁N O
▁맞대 결
▁그녀 와
▁흡혈 귀
알 라
▁준 다는
▁인 원을
▁기록 에
▁A ss
▁극 동
: 05
▁서 적
▁최 원
all y
▁몬 테
▁다녀 온
▁부 진을
▁따 르지
▁행 정부의
여 겨
▁시 기의
▁교육 부가
르지 오
유 니
▁" 거
▁유 능한
▁사태 의
▁위협 에
▁너 와
▁대륙 간
▁오 쿠
▁스위 치
라 시
▁보이 는데,
주 얼
▁1 실점
▁말 하면서
▁만 세
보 자
▁수 없이
▁진 료를
▁셀 프
F L
tern ational
갑 게
▁국세 청
▁팬 들과
있 는데
▁" C
▁여 주인공
▁인 원은
▁부 위를
▁양 상을
▁번 호를
▁예 상을
▁변호 사를
, ,
▁여 주
▁차 질이
▁아이템 은
▁성 직
▁이미 지는
▁뒤 통
▁의 대
▁후 안
▁형 님
▁주어 진다.
▁ 셜
▁발표 하는
r it
관 리에
▁N Y
▁"내 년
02 18
▁S ec
▁간 과
▁사이 에서도
▁실정 이다.
▁펼 친다.
v ent
소 <|endoftext|>
후 쿠
▁사물 인터넷
오 닉
▁언급 하는
▁' 두
▁피 력
▁선 풍
▁성 이
▁왕 조의
el f
▁벨 라
▁강제 징용
▁보 직
▁판매 하고
▁8CT_00 27
▁왜 /MAG<|endoftext|>
한 정
▁피 카
▁너 에게
▁있는 지를
▁되 /VV+
d u
▁해 줬
기업 인
▁"이 미
▁이란 의
▁3루 수
물 이다.
락 에
트로 이트
▁변신 한
▁로 스트
야 스
▁알 리기
▁피 부에
▁기념 촬영을
▁부 가가
▁적 에
▁참 관
▁N P
▁저 절로
▁전 라도
▁해 남
/NNG+에 /JKB<|endoftext|>
▁지 시에
▁단 어는
전문 대학원
대 중
▁아버지 에게
▁단단 히
클 랜드
저 임금
▁선 후
( 성
▁S .
▁나서 지
▁라이트 닝
▁레 스
3년 )
▁문화 와
린 다
옵 션
▁작품 인
▁앨범 의
라에 몽
생 ,
▁전달 할
▁D R
▁통 증을
▁코 디
▁합 치면
경찰 서에
▁4대 강
▁모 여서
▁터 무니
▁목 걸
▁지지 율은
▁코 이
▁흉 기로
보 훈
▁스 쿠
▁O CG
▁감소 <|endoftext|>
▁생겨 난
월 에
▁신 빙
▁크리스 마
담 배
▁N EW
▁생활 이
▁숙 명
an a
▁있는데 도
▁M LB
▁항공모 함
페 이즈
▁체 력과
▁시나리오 를
▁김 시
▁못 했다"고
▁내려 와
주 신
▁이 기지
▁불 렸다.
▁재미 가
▁눈 은
달러 로
▁살해 당
환 과
▁한국 지
▁황 후
▁참조 <|endoftext|>
연 승
▁사이 토
메이 커
▁못지않 게
▁( 신
▁핵심 인
▁공연 은
▁기 저
▁기 사의
▁특별 수사
▁언론 들은
▁준비 에
검 이
▁조 항을
▁유 착
▁현대 캐피탈
▁양 질의
▁프리 드리
▁공 범
▁변 명
▁순 이익
▁해외 에
▁베 니
루 이스
▁밝히 며
▁4 학년
▁월 평균
▁전쟁 은
▁음식 점
7 30
▁변화 와
▁환 원
▁면 에서는
▁독일 이
▁실 형을
버 스는
어 )
▁의 외의
▁e 스포츠
개 <|endoftext|>
▁0 시
▁기술 적
괴 한
해 버린
▁대대 적으로
잡 고
▁부 상이
▁반 포
▁T w
짓 을
▁정 당이
▁코 끼리
▁M E
▁개 표
▁라 운
▁키 보
▁발생 하면
▁생각 했던
▁병 합
▁폴 아웃
▁모션 이
▁대 진
▁위협 적인
▁후술 할
▁야 마다
▁마련 해야
▁BTHO01 20
▁BSHO01 20
리 다가
선 한
▁표 했다.
친 다.<|endoftext|>
▁과태 료
& G
업체 에
▁증가 한다.<|endoftext|>
답 을
연구 원이
ys tem
▁달 렸다.
▁우익 수
▁리조 트
▁어 처
▁먹 거리
▁친구 와
▁조심 해야
▁굴 욕
▁192 0년
유 와
▁보 훈
▁게임 <|endoftext|>
▁사 의
▁보 상이
▁전쟁 으로
▁믿 음
▁입 주민
교 에
▁팀 장은
▁우 여곡
티 ,
▁미 군이
▁데이터 베이스
▁박 한
▁대표 에게
▁스킬 .
▁카 가
▁이 사를
▁모 이는
▁해 본
▁환 수
▁당기 순
법 도
시 면
▁뛰어나 다.
▁부 지에
우 승을
▁내놓 지
▁제 국이
발 언
영 <|endoftext|>
▁모 처럼
▁핀 테크
루 에
▁바 비
▁태 도로
▁야 구를
리조 트
2년 )
우 스가
▁c on
▁의 상을
▁좋 다
6 20
관 절
▁조선 민주주의
식 한
▁6 개의
ar i
대 수
▁참가 할
▁고 흥
▁분 단
사 르
▁추천 한다.
▁충 실한
사회 에
!! !<|endoftext|>
▁(I n
탄 에
7 40
▁마 가
학교 로
▁반대 하고
▁것 까지
▁' 광
▁무관 하게
▁배 임
▁챔 프
졌 습니다.
▁일 격
▁스 님
테 면
▁가 상의
▁접 견
▁하나 금융
▁불리 기도
▁위 배
▁신 세가
크스 바겐
. g
급 인
▁기 하
▁운 명의
B )
3 70
▁남 경
▁은행 의
▁소녀 가
▁거 스
▁금 세
해 결
▁눈 높
나라 를
군 요.
▁소 리로
▁금 리가
▁폭스 바겐
온 과
천 년
▁ en
▁193 0년
▁원칙 적으로
▁리 프
▁문서 에
▁군 에
▁방사 선
교 수는
리 니
▁것이 ,
▁독 창
▁폐쇄 회로
▁번 복
7 80
▁일 들이
▁급 진
▁급 속히
▁BTHO03 77
▁BSHO03 77
▁극단 적으로
▁전북 도
▁"어 떤
▁바 스
▁아키 라
▁공통 점이
▁ 밍
▁보이 는데
▁등 에서는
▁실 세
▁밀 라노
▁이야기 하는
▁문 구를
▁휘 둘러
관 <|endoftext|>
조 절
▁등 번호
u ro
제 어
▁이미 지로
▁노르 웨
▁이 혜
▁분 쇄
▁모습 이었다.
▁BTAE02 07
▁R ec
▁큐 어
▁BSAE02 07
▁임 기를
▁191 4년
▁신동 빈
▁좌 완
▁행 적을
▁금감 원
▁7 <|endoftext|>
▁교육 에
▁영국 이
▁기 운이
▁선택 의
▁막 론
▁선제 골을
코 로
▁증 언을
▁요청 할
▁통합 을
▁프레 데
▁하나 로,
▁시대 적
▁하늘 에
▁앞 바다
▁Ar m
▁갑작 스러운
▁병 이
습니까 ?<|endoftext|>
▁프랑 스는
▁전 태
▁접 전
▁가리 키
▁미 만의
▁관 철
▁진 을
▁M ed
▁섬 멸
▁월스트리트 저널
단 다.
▁좋아 하지
▁여름 에
▁일 정은
▁장 치가
▁찾아 보기
▁표현 의
란 에
▁피해 량이
▁해 왔다.
▁겨냥 해
발 전을
▁신 중한
▁T 1
.. ...
▁조성 된
▁주 상
▁3 당
▁인 위
▁짧 고
링 ,
▁외 부에
▁1년 이
욱 ,
▁1 -2
▁공포 에
▁민주주의 를
▁양 키
▁원작 에서
데 <|endoftext|>
▁소 각
▁들 인
▁마 족
▁오 더
▁고 든
▁눈 여겨
8 )<|endoftext|>
▁스 무
▁설 상가
▁욕 망
강 ,
▁방 지를
▁혼 잡
▁붙 어서
▁김정은 이
행 은
▁1 레벨
▁놀 고
▁은퇴 한
▁윈 드
▁지 게
▁정 인
▁국민 들에게
다 음
▁갑 질
▁휴 일
▁자신 보다
▁선수 와
▁했 다면
공 작
▁요 동
▁외 모를
▁불 상
▁머물 렀
▁상대 하기
힌 다.<|endoftext|>
기 엔
업 으로
워 커
( 특히
독 일의
▁자 서
▁방 언
자 격
혁 ,
▁20 ,
▁정치 자금
▁판매 량은
▁시 립
▁움직 여
▁서 북
▁고용노동 부
▁상 관이
▁펼쳐 지는
씩 을
테 오
▁삼 았다.
▁받아들이 고
▁확 대에
강 은
▁이상 일
▁철 폐
곡 ,
린 다고
전 당
▁허 리를
▁이 랜드
▁츠 쿠
▁지원 과
▁작 별
▁버 금
▁O h
▁피고 인
▁4 %
▁신 분을
▁통 일을
▁방어 구
▁경기도 가
▁북한 에서
▁나타 내
프로 야구
호흡 기증
f l
번 길
▁설립 을
프 린
▁이사 장이
▁제 때
▁한국 전
1 02
▁매 니아
되었 다
방 학
▁언급 하지
▁억 류
박 람회
시켜 주는
▁올려 주는
▁BTAE02 01
▁BSAE02 01
바 와
▁세 리
▁딸 과
▁복귀 를
▁부모 님이
▁다양 하다.
▁안전보 장이
▁' 라
▁E ng
발 생
▁맞 으며
▁초 코
▁순 정
▁의하면 ,
모 에
세 라
▁2 턴
▁에 인
▁사전 차단)<|endoftext|>
▁' 국가
▁나오 고,
▁공정 위는
▁방해 하는
▁하 라는
▁유 병
▁3 자
▁L i
▁지적 한
외 국어
▁8 위
노우 에
왕 국
▁마련 하고
▁연 희
▁금액 이
▁법정 에서
8 50
▁세 트를
▁5CT_00 20
▁새누리 당이
▁거 행
▁아스 날
4 50
▁죽 이기
▁' 메
▁대 덕
▁어 시
▁충돌 이
▁노선 의
▁카를 로스
▁업무 협약을
절 차를
▁일 환
▁소재 가
▁말 대로
▁엘리 엇
명 령을
통 신이
▁필 로
▁공격 ,
▁천 년
▁지 를
▁발 걸
▁줄 리
회의 는
▁생명 체
▁He art
열 과
▁나 성
▁필 승
▁기록 하였다.
블 을
▁유 정
▁조 동
▁욕 설을
(I n
▁1일 ,
7 70
▁유 즈
▁고 증
▁토 종
▁국가 적
▁' 생
▁법 안이
▁선거 가
3 10
테 마
파 이브
주의 는
▁영상 의
물 류
겠 습니다.<|endoftext|>
▁가 출
▁교 감
▁천 체
7 90
▁베 리
▁음악 에
쿠 의
▁안 락
▁논 쟁이
▁달려 가
▁직업 이
▁타고 난
▁다짐 했다.
대변 인은
▁활 력을
▁파악 됐다.
▁두꺼 운
테 가
업 소
▁소 노
▁조 정을
▁이 효
▁콘서 트를
▁세 기
▁탓 이다.
▁"만 약
▁모양 이다.<|endoftext|>
장 난
▁규칙 을
▁사 명
상태 로
▁생 전
▁다음 의
페 어
▁정 사
▁디 저
거 부
▁박 석
▁L et
스타 의
▁하루 카
r ay
▁마을 이
ang .com
▁본 연의
▁충격 에
▁센 서
▁시작 했고
▁등장 하여
더 슨
새 가
협 상을
▁불가 사의
▁광 교
▁만큼 의
▁조용 한
▁친 화
25 9
▁영웅 의
▁않 으나
규 를
제 리
▁보 은
▁필요 해
▁차 마
분 리
▁1 -1
▁이야 기의
▁사 정으로
▁물 의를
oc al
▁농 성
롤라 이나
》 를
▁" 본
(C h
S S
▁방 공
▁생각 했
▁지난해 까지
▁상황 도
A 1
▁매 력이
▁개발 자
▁블록 체인
▁떡밥 이
군 수
우 스는
▁그리스 도
ea h
▁통 용
▁매 칭
▁수 명이
▁뒤 바
▁항 암
▁시절 ,
▁논란 <|endoftext|>
▁알 수
▁채 우
▁이전 과
▁7CT_00 42
▁꿈 에
양 으로
▁딸 은
▁해 발
▁능력 치를
케 어
▁임명 된
원 한
▁의 사의
시간 의
▁가 평
▁임대 료
▁치 중
말 에
▁성공 했다.<|endoftext|>
▁급 한
▁}}} <|endoftext|>
▁범 인이
▁짐작 할
▁자 비
▁안 면
▁행정 자치
프랑 스의
( 본
▁교수 로
죽 을
▁공 감을
▁친 목
▁철 갑
▁길 이는
▁비 건
▁월화 드라마
냐 면
받 으며
▁말 소
▁번 거
▁언론 사
새 누리
지 다.
▁입 장에
▁' 삼
▁게임 이다.
주 어
▁둘째 ,
▁세 일러
방향 으로
▁구 분이
▁접근 성이
ec ial
-0 으로
게 시
▁임 관
▁사 장,
▁간 선
▁오 아
▁말 기
이트 가
▁보여주 기도
▁버 지니아
▁그룹 이
6 80
▁때문 입니다.
▁ 괄
고 객
▁용 량
▁비 기
▁어 다
▁작년 에
갤 럭시
▁K n
▁표현 은
▁빼앗 긴
6 30
▁파 주시
▁걸 러
중앙 회
▁델 타
받 았다.<|endoftext|>
▁" I
▁F BI
▁흑 백
들 기
지 수가
▁발견 되지
사회 에서
▁G ood
6 10
▁3 호선
▁4 배
▁알려 준다.
▁스타 워즈
▁사고 는
했 거나
▁영 종
▁평 년
▁항 일
▁유명 하다.<|endoftext|>
무 한
볼 트
▁오 대
▁않았 으며,
n ess
▁역 학
▁색 상
▁203 0년
촉 진
▁선택 해
▁BTEO00 81
▁BSEO00 81
진 다는
▁주 석이
▁찾 는다.
▁수사 권
대책 을
▁내 몰
▁갖 가지
▁플라 즈마
리 포
▁의 자
▁창 문
-01 0
▁NC 는
い る
▁3 집
▁체험 을
회 사로
▁순 방
사우 루스
▁10 번
▁헤 지
▁흐름 에
▁체계 적으로
증 명
▁격 렬한
▁독보 적인
/ s
▁지 폐
▁코 드를
▁유리 하게
▁후 면
▁거래 량은
▁독일 에서
▁나무 가
▁소 리는
▁로 버
▁열린 우리
정책 에
▁가져 야
지 급
▁넘어 갔
드 르
· 18
▁항 만
▁발견 해
▁문서 의
준 호
▁지 면
▁스 은
▁같 다
▁뿌 리는
▁분노 의
치 스코
▁2015년 부터
▁아 타
▁확인 을
▁클리 셰
▁스폰 서
ung hy
간 다는
▁16 9
▁몇 년
▁C O
▁디자인 과
▁매 개
요 의
▁우리 들의
▁생 전에
▁게임 분류:
▁다이어 트
at t
▁비판 한
▁포기 할
▁수 퍼
▁선거 법
▁롤 러
▁김정은 의
▁배우 자
▁정권 은
▁4 .0
▁방 정
▁장 현
▁삼성 그룹
21 일
▁연결 해
▁부활 한
▁댓글 이
▁L ive
▁헤 딩
▁내려 다
금 )
▁정 읍
▁모 텔
▁투 신
▁붙잡 고
인민공화 국의
권 <|endoftext|>
▁논 평을
▁BTHO01 17
▁직후 에
▁신 기술
▁편 도
▁오늘날 의
▁유 학을
▁BSHO01 17
▁제1 항
▁희망 하는
신 탁
▁견 딜
휴 가
▁도 보
le d
▁되어 버렸다.
▁사 상을
▁표 적
구 (
메 다
▁개 구리
▁채 소
▁L ife
▁깨 알
▁티 아
m )
▁충 무
▁돌아 갔
▁' 단
▁공격 력과
봉 이
요? "
교 체
▁' D
었 기에
▁건 전한
▁C he
▁접근 을
▁상술 한
일 기
▁본 체
▁입 에서
▁뒤 틀
▁인터 내셔널
▁퇴 역
▁ .5
▁일 들을
▁서 경
▁다름 아닌
▁떠난 다.
▁마인 드
▁시리즈 와
▁하늘 에서
▁BSEO02 79
▁BTEO02 79
팅 이
▁하나 .<|endoftext|>
▁작중 에서는
3 일
▁다 우
▁뿐 이지
} {
안 타로
▁점 으로
▁강화 ,
▁교도 소
모 든
법 '
▁어 고
총 독
하였 을
▁대상 이다.
▁거 둘
▁쓸 쓸
▁인건 비
▁문 희
▁홀 리
▁BTBZ00 72
▁BSBZ00 72
▁ 틴
술 로
▁복 음
▁m an
▁녹 취
▁3 .7
▁빌 라
▁도로 가
▁1 볼넷
▁앞 에서는
~ !
멋 대로
저 ,
▁간 략
▁케이 티
▁뭔 지
' 라며
▁패 닉
나 에
▁넓 고
▁조종 사
소 스
▁부모 는
▁' 박근혜
▁어 시스트
▁공급 을
▁카자흐 스탄
▁존 엄
해주 지
팀 인
하 듯이
▁번 은
▁번갈 아
니까 ?<|endoftext|>
· 해
▁선 취
▁또 래
▁열 풍
▁중소 형
▁경북 도
▁연설 에서
▁기 수
▁운영 되고
▁경 위
▁3 초
▁존재 는
▁인터 페이스
▁새로 이
▁BTGO03 45
▁BSGO03 45
▁엔 트
▁이 카
19 -0000
ch n
▁가 구의
▁미스터 리
▁천 둥
구 축
웠 다.<|endoftext|>
화 :
▁주 석의
▁구 치
▁뭐 ~
▁보장 하는
▁협의 해
▁스미 스
▁향 하고
▁2 패
▁밀 리언
▁하 지는
▁카 시
▁콤 비
▁소방 관
고 /EC<|endoftext|>
평 론가
▁드 폰
F )
▁양 국이
▁영상 으로
▁안타깝 게도
언 스
▁동 유럽
법 」
▁폐 선
▁초 미
학 력
▁때 처럼
▁걸 려서
▁레이 븐
ig ital
혈 관
▁이 스트
-00 39
▁영 장을
합 동
▁인 기는
▁입 각
▁M od
▁쉬 고
편 한
▁전 파를
▁배 역
▁있는 게
▁김 택
▁7 이닝
▁12 만
▁북 방
▁민 영
▁모습 .
▁워 프
비 어
▁정 제
▁" 추
▁소속 되어
( 여
▁4 .3
unghy ang.com
6 70
▁개 미
▁추 월
▁산 성
▁감 각을
▁이벤트 에서
야 "
▁다 수가
▁치 면서
▁브 론
▁지 식이
▁화려 하게
편 ,
▁U AE
▁실 물
▁키 보드
AR T
▁플레이 하는
▁윈 터
랑 의
▁애 들
▁수록 되어
▁문화 에
스코 리아
▁거 란
▁매 체는
▁기자 들의
▁사 르
빈 ,
산 리
-00 48
▁대표 팀은
▁야마 구치
L 0218
거 니와
▁자 생
▁부 문에
▁청 담
▁가족 들은
▁6 .25
▁17 1
▁언제 까지
코리아 는
% 까지
▁ 믹스
▁초 조
▁대학 은
▁생산 이
▁긴 장을
지 옥
5 50
행 위에
▁압 둘
일 선
토 벤
한테 는
▁국립 공원
o ther
▁추가 적으로
▁반응 도
ea th
거 에
▁서 스
▁O B
▁싫 은
▁A BC
▁선택 하면
▁2013년 에
▁소개 한다.
현 악
▁해 볼
o id
▁마련 하는
▁단독 주택
비 용을
▁이 온
▁신 비한
▁지 문
▁오 딘
▁입 게
▁리 셋
▁갈 고
▁법 과
▁20 세
▁접 할
is ion
에서 나
▁누 르
▁어 스
▁I nd
재판 장
▁건 수는
▁'내 가
시설 의
▁한 림
왔 고,
▁쓰 리
▁변경 된
곡 리
▁부족 하다는
▁보니 ,
동아 DB
▁해수 욕
▁오 정
시설 과
▁유저 의
▁업데이트 를
담 한
▁교 무
▁표 류
▁완 주
▁극복 하고
▁3 국
교 부
: 55
▁소 실
▁패 치를
▁무슨 /MM<|endoftext|>
▁DM Z
u ch
▁9 개월
▁접 경
자로 서의
만원 )
▁상품 이
▁' 슈퍼
▁최 상의
▁최 첨단
군 데
순 을
▁전 생
▁많 지만,
▁도쿠 가와
▁진행 되었다.
▁우승 에
▁주택 을
질 러
노동 당
▁반 항
▁한국 전력
▁3 단
▁공정 위
▁외계 인
올 스타
▁지방 도
실 록
▁위 기의
▁수수 료를
▁A f
지원 센터
▁셰 프
럼 비아
식 도
▁구 금
▁안전 성
▁고 개
▁기관 단
히 면서
▁보 다.
▁3 위로
on y
▁비판 의
드 릭
보 전
▁배우 들이
▁업체 들
▁제 스
▁사이 먼
▁수요 일
▁한정 판
▁크라 운
틱 스
세 다.
▁최 단
▁현 저히
▁질 서를
▁만나 지
켓 을
▁외 치
▁외 치고
▁지역 이다.
▁발전 과
▁풍 경을
충 이
▁누군 가의
m 로
동 향
총 은
▁잠 이
쇼 를
▁M i
▁마 요
▁불명 .
▁기념 으로
▁완 수
▁철 원
▁클리 블랜드
2 를
다 스
반 ,
▁이 견이
▁미 시
심 도
▁문 단
천 은
▁3 안타
▁리 버스
▁무 리를
▁질 문이
▁분류: 전
▁빌 린
▁감소 ,
▁분석 하고
▁빚 은
진 료
▁3 ~5
▁(NP_ OBJ
▁중심 을
▁겹 치는
▁스케 이팅
▁냉장 고
내 외
화 면
▁매 립
ri end
토 끼
: 25
▁각 별한
▁소환 하는
▁뭐 야
▁토로 했다.
본 부가
▁파악 한
▁학교 로
진흥 원
▁보인 다는
위원 으로
커 뮤
▁시작 될
사우 루
▁국가정보 원
な ら
수 호
▁대 쉬
▁평창 올림픽
▁지 선
▁건 재
▁형 식을
▁생산 할
▁신청 했다.
▁무 심
▁버 는
▁기술 력을
▁종목 은
베르 토
▁어나 더
▁정 거
▁물 량을
▁재판 관
▁당사 자
▁떨어 지지
▁GS L
닝 맨
▁증거 인
▁주저 앉
▁페이스북 을
▁유 배
적 이라
측 에
00 억원
▁불가능 하다.<|endoftext|>
시 드
▁밝혀 졌다.<|endoftext|>
▁육아 휴
▁지나 면서
▁포기 하는
▁경우 <|endoftext|>
▁레 버
▁순 항
▁R ock
▁주인공 .
width=100 %<|endoftext|>
▁에메 랄
▁라 오
▁요청 하는
맛 을
프 닝
▁미 숙
▁같 습니다.
바 흐
▁활 주로
▁군 을
▁슬 리
▁"그 렇
입 을
▁미국 산
지역 은
작 년
▁연구 위원은
▁사무 처
▁달성 할
OCAL OID
는 /JX<|endoftext|>
▁개정 안은
▁동작 을
변 동
▁토 키
▁BTHO04 34
▁BSHO04 34
4 로
▁조 폭
네 와
크 <|endoftext|>
▁해 석을
▁외국 인이
▁내야 수
얼 굴
카이 도
▁음주 운
렸 으나
▁리 부
▁망 치
▁の <|endoftext|>
▁모 비
▁분류: 잉글랜드
▁분류: 가
▁투 구를
-0003 0
우 체국
▁대상 에게
드린 다"고
▁말 하기
▁용 어를
▁물론 /MAG<|endoftext|>
__ 06
▁자기 /NP<|endoftext|>
▁확정 지
▁회담 에서
최 대
▁프리드리 히
▁법원행정 처
em ent
▁주 가는
▁만 장일
) 이라고
▁공 단
▁모 호
▁4 성
▁친 다.
▁시스템 으로
▁좋 았던
22 일
▁에피소 드를
▁차 우
▁장착 된
▁무 명
▁문 예
' 나
접 촉
▁방법 에
▁느껴 질
▁' 은
.5 %,
의약품 안전
▁한 우
▁태 생
▁지나 고
수도 권
▁경찰 을
▁부 려
▁역 에서
▁와 이어
▁택 시를
▁8월 부터
rag on
다 이스
▁자 기도
olog y
▁주 력으로
▁분류: 스
▁겪 어
▁시 부
▁말 ,
사업 자
▁모양새 다.
어 ?
▁이 며
▁7 명
201 8
▁BTEO00 90
▁BSEO00 90
3 90
(S t
▁성 관계
▁됐 던
▁게재 했다.
▁거 액의
/NN P+
혼 을
▁안 테
▁서울 ,
유 리
▁우 병우
▁조사 했다.
▁배우 로
▁것 <|endoftext|>
렉 트
▁집중 하고
▁분양 가
▁문서 로
▁살 라
밖 의
▁유 유
▁맞추 면
▁옮 겼
추 적
부 한
▁금융 기관
▁연합 뉴
▁류현 진,
GO00 96
정 도의
▁" 초
▁일 이라고
▁당 나라
▁임 팩트
▁여론 의
▁정권 에
만 족
협 은
▁매 스
▁책 에
▁뿐 .
▁( +
▁적 과
▁나타 낸
렸 는데
▁가 열
▁재미 있게
▁쓸데 없이
▁성공 하면
▁상 설
▁선 천
▁세 게
▁3 명은
▁방 패를
▁살펴 보고
▁없애 고
▁' 금
▁하루 를
▁앤 디
급 에
세 <|endoftext|>
▁말 했고,
▁페 어리
▁프로젝 트의
면가 왕
▁올 리기
▁코 레일
▁단계 로
테 츠
드 (
▁서로 에게
▁BTJO04 43
경제 의
P )<|endoftext|>
푸 른
▁불 리고
▁존 스
▁헬 스
율 과
b it
い た
▁좋 다"고
es <|endoftext|>
▁1 억원
▁중 얼
▁M .
▁간 다
▁따른 다.
▁법무 법인
▁오 의
▁않고 도
▁이뤄 져
르 담
▁장 안
▁원 한
▁F ire
▁LG유 플러
▁주 름
▁동안 에
▁버티 는
▁1/ 3
크 에
▁콜로 라도
: 35
오 일
양 호
▁목 격한
▁붙 이고
▁대 타로
▁현대 ·기아
▁올리 브
▁논 리를
▁작 전에
▁두 면
▁BTHO04 21
▁지도 부가
D 4
▁질 러
▁궁극 기
▁뿌 리를
▁김태 균
군 도
▁BSHO04 21
▁벨 트
▁스크 롤
▁발 판을
▁자 산을
▁양 아
24 일
▁정 국
▁U C
▁전반 기
▁반려 견
▁위 력은
▁마 물
▁제2 회
▁카 우
▁사 키
▁산 재
▁홈런 으로
▁산 다.
측 근
▁불 황
I K
▁제작 진은
▁고민 하는
▁부 위원장
( 초
▁셋 이
슬 리
▁기 세를
1년 )
▁공개 되지
▁탑승 한
다 오
▁2 명은
▁쉽 다.<|endoftext|>
▁벽 돌
/NNG+이 /JKS<|endoftext|>
▁k now
▁다가 온
여자 대학교
나 면
▁사단 법인
▁시청 자들에게
▁이어 지면서
ol ution
▁북 쪽으로
▁C IA
▁진술 한
▁숭 배
▁변 함이
▁출시 를
▁경험 치를
잠 수
▁마무리 했다.
( 재
▁2016년 에
결 한
노 벨
▁소 망
▁의 왕
▁해 달라고
▁계 시
▁근로 자의
▁마르 코
▁입 구에
▁준비 했다.
▁사 격을
▁심 장을
▁마지막 에는
▁도쿄 도
▁농 산
적 으론
00 억
▁세 리에
▁원 )
▁칭찬 을
▁후 지와
__07 /NNG<|endoftext|>
매 출
살 로
▁유저 는
▁한국 형
▁태 조
공 사를
▁응 징
▁서초 동
발 ,
▁우 연
▁주인 을
. kr
▁고 액
▁입 금
▁성 장에
▁힘들 고
▁총 동원
▁온 건
카 메
▁구 워
· 노
▁관리 하고
▁우려 하는
▁(201 6
성 모
퇴 직
▁연 초
▁어찌 보면
▁경 량
맨 과
▁지 명을
토 막
▁스 플래
▁라 우
▁사용 했던
▁혼란 에
▁진 상을
▁스 콜
▁트 러블
▁하 거나,
▁시 스
▁통 지
▁남 성을
▁놀 아
▁혼란 이
▁새벽 에
잖아 .
▁멜로 디
▁3 .6
▁4 명을
항 쟁
▁반 대를
▁폭 행을
▁의혹 도
▁ ?<|endoftext|>
▁모드 에서
-0000 16
▁새 만금
▁BSAA01 60
▁BTAA01 60
· 배
행 의
▁어 버
▁급 속도로
▁ 칙
창 작
▁스 완
▁기록 할
▁한국 방송
▁O ut
▁B GA
▁불 린다.<|endoftext|>
짓 는
▁임 기가
▁L ight
상태 를
▁사 당
▁교 보
' 이었다.
랜 서
세 츠
▁여 지
▁열 병
▁것이 어서
▁M K
▁축 제를
I 는
▁타 석에서
▁안토니 오
▁LO VE
.0 /
▁폭 을
드 )
마 라
▁진상 조사
목 록
▁피 부를
▁박 힌
▁자치 구
▁시행 된
▁봉사 활동을
S 의
▁반 대의
▁사진 으로
▁선생 이
▁도덕 적
플루 엔
( 자
▁재 연
▁서로 가
▁3 .4
▁7CT_00 21
▁확대 ,
요 가
▁하 후
▁중국 으로
▁악 수를
▁네티즌 들은
▁애리조 나
란 과
▁보 스의
▁노 릴
▁파 열
▁넣 어서
▁땅 에서
GO00 98
· 아
▁뒤 따
▁학생 들과
산업 이
▁끼 치는
▁직원 들에게
▁Lv .
▁수 위
▁되 나
▁8 번
▁올 린다.
6 90
▁아 날
▁있 다”며
▁일 례로
▁머물 렀다.
▁설 레
▁ って
▁충 남도
▁이 며,
▁언론 인
시 게
▁만들 기도
▁선 비
▁O ff
▁관객 들의
▁가 졌다.<|endoftext|>
▁오 신
▁에 티오피아
▁태 운
%가 량
▁드러나 지
론 도
▁13 1
▁무 마
▁능 숙
▁말 미
으로서 ,
▁s c
▁돌아가 고
▁트와 이스
▁잊 을
더 스트
▁자 식을
▁재 외
게 이션
▁바 다.<|endoftext|>
▁돌 리고
; ;
다” 는
프로 골프
▁막론 하고
▁있 다!
▁외 쳤다.
▁뜨 겁
▁193 6년
▁유용 하게
▁사항 이
▁관광객 들이
실 적
▁오 자
▁방 호
▁것 들은
▁라 미
▁썼 던
받 아야
▁산업 을
▁화 보
상 자
▁공 기가
▁아르 메
▁# !folding
W h
대 회가
▁D es
▁자격 증
업 과
▁불 길
이었 다"며
▁생존 을
점 수
파 이터
▁명 탐정
능 력은
▁문 신
▁착용 하고
し ま
었 으면
▁화 웨이
제 <|endoftext|>
성 기
▁전 역에
▁일 었다.
▁공직 자
▁미 남
▁살아 갈
문 제가
▁구 비
윤 이
▁카 더라
▁만들 었다고
▁무관 한
▁호 프
▁좌 전
▁독립운동 가
북 도의
▁오 가며
▁뒤 흔
▁원 곡
▁아 델
▁흑 막
▁연 주를
▁방 황
▁BTHO03 71
▁BSHO03 71
▁9 ·
▁들어 와서
▁U F
▁초 토
▁몰 리는
▁이동 해
교 장
루 트
인 만큼
▁등 기
▁높 지만
▁권 익
▁1 이닝
▁이상 적인
▁관계 의
▁부작 용을
▁수 지
▁25 개
▁동 상
▁장 단
▁193 7년
▁비 를
▁해 법을
▁돌입 했다.
( 인
▁기 만
-00 33
▁실 루
▁예 견
▁전 장에
▁국민 연
▁행사 할
▁로그 인
명 박
▁누구 에게
▁ 럼
종 료
▁도 트
▁사용 될
▁식 탁
▁활약 했다.
▁게시 판에
▁차지 할
.9 %로
사관 학교
▁전 에서
▁성 벽
리아 와
▁사태 는
▁기자간담 회를
▁버 프가
▁중단 하고
침 해
▁확 인이
▁홍 수
▁결승 에서
▁노 블
▁총 에
▁아이템 으로
▁체험 할
▁귀 한
구 동
▁다 국적
▁빼 고는
▁직권 남용
▁발표 에
es ,
이야 .
▁주 당
▁우 천
▁패 트릭
▁지금 처럼
▁부 스
▁희 대의
입 장
▁최 현
▁체포 된
니 언
도 까지
▁그 쳐
▁때 린
▁1위 ,
▁대 본
▁반기 문
▁고 졸
프로 듀
: <|endoftext|>
▁치 렀다.
드 루
▁국 유
▁아 냐
▁중 원
▁8 <|endoftext|>
푸 르트
▁분류:동 음이의어
▁6 0년
▁정신 적으로
▁저질 러
▁무 기에
▁만들어 져
▁출신 <|endoftext|>
▁심 부
▁K ing
▁' 나는
▁성 찰
▁교 직원
▁돌 렸다.
▁붉은 색
▁7CT_000 4
▁A L
▁차지 했다.<|endoftext|>
▁자카르 타
▁입 이
▁전설 적인
▁들 으며
▁물 과
▁조 재
▁업계 에서는
▁우 물
▁선거 인
▁부모 와
▁기 름을
▁사이 타마
-0000 03
ers ion
순 한
▁2017- 11
▁본부 장은
상 수
▁리 츠
▁밤 새
▁오토 바
▁대 승
꺼 이
▁l ike
▁2017- 10
품 의
▁수 사의
▁국가 들이
▁경제 적으로
▁펼 치며
▁레바 논
▁A p
▁경제협력 개발
▁확대 될
▁BTEO03 31
위원 장과
▁BSEO03 31
▁이루어 지고
· 자
▁수 석이
▁포 병
▁쓰 다
▁특별 검사
▁합쳐 서
▁일렉 트로
▁변경 을
▁반 등
▁꼬 박
23 일
▁자 행
▁B PM
▁확 산을
▁걸 즈
▁훈련 에
▁맥도 날
마 니
▁최 씨가
▁크 기로
▁백 색
▁루 트를
▁시행 하고
▁"김 정은
( 현재
▁스스로 가
▁도 미니
▁숨 지고
▁지금까지 의
무 와
▁포 커
▁활동 할
▁이 론을
▁포함 하면
▁방 미
▁성 에
▁돌아 간다.
:: ,
상 선
▁영역 에
율 도
▁대 대로
▁것" 이라는
▁카 에
▁저 스티
투 가
▁라 인이
▁건 을
▁바뀌 지
▁호소 하는
탄 과
▁병 에
▁시즌 의
인 '
▁"그 럼
# !wiki
▁A c
-0000 00
▁미 디
▁안 이
▁각 별
▁평가 할
회의 가
▁따 지고
▁미국 과의
▁요소 로
분 )
▁부정 하는
▁명 곡
언 어
▁신 탁
▁원정 에서
▁의존 하는
되 니
▁지 그
▁쳐 도
T <|endoftext|>
쓰 기
▁노 비
▁교 란
▁열 차를
9년 )
장 이나
▁타 키
▁기후 변화
▁겪 게
▁보 니까
▁8 회말
▁월 세
▁내 심
▁두 터
C A
지 출
▁덱 에
o int
▁S HO
ation s
연 예
시설 에
리 지만
▁초기 화
▁여 사가
▁했 으니
▁상태 에서는
조 <|endoftext|>
▁쓰 면서
애 는
▁그러 는
▁채 울
세계 의
▁셈 이
▁편 하다.
▁결국 에는
▁영향 은
▁03 월
▁각 계
▁레 온
▁이례 적인
▁아 기를
▁장 녀
▁꿈 은
▁국립 중앙
마 키
▁위 즈
▁친 하게
▁너무 /MAG<|endoftext|>
▁아우 디
▁총 회
▁순간 적으로
▁고민 하고
▁맞이 한
▁뭐 라
▁그리스 의
▁들어온 다.
▁그 지
▁' 북
▁양 양
▁간 직
▁김종 인
▁30 개
▁이때 의
프리 미
▁영광 을
▁" 향후
▁구 간의
▁권 리가
▁등 판에
▁' 누
▁자유 자
▁들어간 다.<|endoftext|>
데 시
▁버 스트
느냐 "며
▁전 술을
( 우
폭 격
▁말 .
▁비슷 하다.<|endoftext|>
▁얘 기는
▁달러 의
▁가리 킨다.
부 작
▁권 오
▁활용 하여
▁특이 하게
▁3 .8
▁신 재
▁혁신 적인
▁오 름
19 -0001
-0000 01
▁01 .
▁더 했다.
us s
▁BTAE02 00
▁BSAE02 00
▁화성 시
▁생겨 서
▁블로 킹
하 실
▁본 사에서
▁맵 이
▁같 지만,
▁우리나라 에서
▁등장 했던
▁유발 하는
목 )
공 원,
▁무 모
▁존재 하고
▁마법 으로
▁오르 며
말 고
▁대 나무
▁일 람
제 '
후 ,
▁중 일
▁꼽 을
▁"너 무
v il
▁되 새
▁이전 보다
▁적용 을
▁공무원 연금
▁" 손
▁부 검
▁조 문
▁고 갈
▁상태 .<|endoftext|>
▁롯데 월드
▁BSAA01 56
▁BTAA01 56
▁가깝 다.<|endoftext|>
▁아프 간
▁카 레
▁패 권
or th
▁북한 과의
▁기억 해
▁Ch amp
으므로 ,
▁사이 에선
▁그리 워
신 라
▁BTHO01 34
▁BSHO01 34
ate d
▁떨어진 다는
결 점
▁똑같 다.
▁인 수한
습니까 ?
▁영 덕
사회 가
▁조건 에
· 안보
▁신 봉
▁포 텐
▁사 안에
▁스 네
▁초기 부터
민 들의
▁보 기에
▁이내 로
위원회 ,
다” 면서
▁어깨 에
해 지면
▁소재 의
▁어 내
▁바 라고
▁시작 하게
▁전망 이다.<|endoftext|>
▁장 영
부 )
▁국 고
컵 을
▁금 고
▁지배 구조
▁특 조
쉬 는
▁비 선
▁마을 로
▁ 릿
▁1 명은
▁그 놈
▁구 간에
▁장 윤
-0000 18
▁뉴욕 에서
감 염
▁감 당할
▁BSEO03 32
▁BTEO03 32
▁2루 타
▁게임 에서는
ou n
▁15 ,
▁여성 에게
▁BTEO03 38
준 다는
▁BSEO03 38
- 29
> 는
차 전
폭 발
▁황 재
▁전투 는
C 는
▁일본 어로
▁덩 달아
▁몰랐 던
각 으로
산 역
▁연 행
래 는
▁버 림
▁외 모가
▁디버 프
판 에선
단체 인
▁주최 하는
▁튜 닝
M Hz
▁착용 한
▁기재 부
▁사유 로
▁단체 의
가 지가
▁아 껴
▁왕 은
9 50
▁루 프
▁하자 고
병 원이
샤 의
장 에는
▁대통령 과의
▁형태 는
▁파워 를
/ 6
▁영 미
▁것이 지만
▁사건 사고
▁바나 나
위 한
▁( 중
▁벌 을
미네 이터
▁적 색
▁시간 대에
▁결합 한
f ul
▁정 근
▁선 곡
▁아니 냐고
▁밀 린
▁다르 기
▁1루 수
▁노 말
__06 /NNG<|endoftext|>
! "라고
호 르
▁사실 ,
▁풀 어야
교육 감
▁구조 물
0000 00
· 도
▁"정 부는
군사 정보
국 도
대 성
▁인간 에게
▁인프 라를
▁불 고
▁유일 의
▁럭 키
' 처럼
에 요.<|endoftext|>
▁법 은
▁순 서로
▁운영 해
▁제품 이다.
▁제시 하고
수 송
▁15 세
▁없애 는
▁ 른
▁게 릴라
▁상승 을
▁적발 된
▁털어 놓
e b
▁캐 서
le y
▁' 물
▁설 계를
하 든
▁휘말 려
▁내 던
▁회복 이
▁곤 두
▁명령 에
▁것이 다
▁체 질
동 포
▁N AS
▁의심 되는
▁주 권
▁메 릴
▁손 녀
▁금감 원은
▁1 이
▁세 대가
▁삼성 서울
▁시상 식에서
길 래
▁거 리의
▁한 다<|endoftext|>
렸 다
▁행 정부가
▁MS L
▁즐거 움을
▁남양 주시
그 대로
▁신 전
▁성 장과
▁격 돌
▁데려 다
제 도가
▁딸 기
필 로그
▁일 하던
( 26
쳤 던
▁김경 수
미 도
▁상 상을
▁커 리
▁응답 자의
▁(201 7
▁펜 타
▁옵 티
인 재
줘 도
▁P ower
계 승
▁여기서 도
▁해결 에
▁잔 인한
▁영역 에서
척 의
▁취 직
▁스캔 들
약 의
쪽 을
▁이야 기에
▁격 인
▁끝 없이
▁참석 할
’ <|endoftext|>
▁본 회의에서
▁달라 지는
▁" 알
▁방 대한
▁반 감
-0000 02
▁상품 은
▁싶 었
▁잃 어
▁음악 의
▁자이언 트
있 으며
▁조 윤
▁사진 에
▁낮 을
▁Bl ue
▁아랍에미 리트
▁도 라에몽
▁타 선이
▁만드 는데
▁따 위는
▁날 의
▁제도 다.
▁메뉴 를
▁효과 에
▁담 을
▁극 적으로
과 세
증 권은
▁상 성
▁연구 결과
▁분 주
▁방 통
▁P re
▁동생 을
▁사 표를
▁A ct
▁변 모
▁G 20
▁국민 건강
▁섬 광
부( 재판장
▁레인 보우
가 지를
▁한 명이
▁디 트로이트
▁부 실한
것 에
▁발 칸
▁예 가
공 유
▁계 단을
▁캐릭터 .<|endoftext|>
▁그만 두고
▁범위 에서
▁어마어 마
있 기
▁공항 에서
▁이 들에
▁사 학
▁5 50
▁천 만
200 <|endoftext|>
▁남자 친
▁처리 한
▁훈훈 한
▁도 울
▁BTHO03 92
▁접근 이
▁BTHO01 06
1 03
▁보 자.
▁제 리
▁업 체를
▁여론조사 에서
▁포 식
▁BSHO01 06
▁칠 곡
▁최경 환
▁이용 하고
▁제공 하기
▁불가피 한
창조 과학
▁음식 은
▁출 몰
▁결정 한다.
▁흑 자
▁다 이나
▁디자 인의
유 희
▁문 과
▁기득 권
▁직 통
▁수사 관
▁공직선거 법
▁재 원
▁범 위에
▁마이 애
ON E
▁어딘 가
▁쓸 모가
▁탱 킹
▁유 형의
▁LG 화학
▁지 부
▁자 라는
▁결승 에
▁소 명
▁가장 /MAG<|endoftext|>
▁써 먹을
▁손 실이
▁가게 를
▁전· 현직
미 츠
▁운 수
▁이어 ,
▁해결 해
궁 을
부 장판
▁회 동을
-0000 17
te l
▁않 는데
▁11월 부터
연 대는
▁3 차례
▁콤 보를
▁첫째 ,
▁출 하
▁심 층
▁참가 자들이
▁최종 보
▁습 관
▁바 와
▁6 천
▁3 rd
▁유 창
혔 던
▁있 다'고
▁생 명이
▁엘 지
▁역사 에서
금 도
▁아 토
▁인 정을
▁강 판
▁박 승
▁2월 부터
▁바 이어
▁치 기
▁발표 했다.<|endoftext|>
▁전문 가가
▁페르 소나
& M
▁공 기를
▁모 하
▁지 미
▁M iss
▁커 지면서
▁답 한
▁맵 의
▁돌아온 다.
▁색깔 이
▁A 조
스터 의
▁기아 차
▁6 50
▁보통 의
▁수 녀
▁당황 한
.2 %로
▁앨범 에
▁알 았다.
▁확보 에
▁미네 소
라이 터
▁시점 은
▁아세 안
▁서 슴
▁피 부가
▁법 정에
기 며
▁원래 부터
▁원래 대로
▁IC BM
L D
이 에게
-00 45
▁최고 치를
▁걸 면
▁사건 <|endoftext|>
▁모험 가
▁미 워
▁행 태를
▁북미 정상회담
▁올 리지
▁슬 프
▁불 빛
▁대 권
노 프
▁키 는
▁라이 선
가 을
▁지휘 하는
▁필수 적인
▁2 .1
화 )<|endoftext|>
▁그 ~
▁인 력이
▁2017년 에
▁참석 하는
▁경향 을
/IC +,/SP<|endoftext|>
▁시급 한
▁50 %를
▁유 서
▁5 당
▁치 닫
▁혼 동
▁도시 는
▁전성 기를
▁유 람
▁문 정
▁J ohn
▁속 도와
교육 의
민 정
▁휴 전
▁동 독
▁수출 을
▁13 ,
( 해
i ence
( Z
. J
▁타 서
▁귀 에
▁하루 가
le x
▁쿠 웨이트
▁특검 은
하 다"는
탄 핵
거 리고
▁능력 의
폭 행
▁허 영
▁I oT
▁결 핵
▁설 악
▁F PS
▁쿠 니
장 까지
▁사 리
▁당 하며
▁치 루
▁고양 이를
지 향
▁건 데
활성 화
▁코 가
▁투 하
-000 56
역 대
호 남
▁정 승
억원 에서
▁주요기사 대통령
▁도로 에서
▁분류: 기
▁A 매치
▁돌 발
▁스토 리의
▁가정 에서
▁감안 할
▁관 습
15 일
▁적시 타로
▁후 문
▁한국 어로
▁위반 으로
▁누군 가를
▁right ,
슬 롯
▁세 상은
▁녹 지
모 <|endoftext|>
사 '
-0000 15
▁성장 했다.
▁시각 을
▁등장하는 데,
▁통 보를
▁D ark
▁이전 까지는
op h
▁3 65
▁6 .5
▁집 의
▁설정 에
▁전 원을
▁열 기
▁프로토 타입
표 <|endoftext|>
회 장이
▁면 치
▁부 동
▁준 하는
▁지금 보다
I E
강 남
▁깨 는
▁전 한다.
▁사람 <|endoftext|>
▁의미 심
▁제도 적
▁주최 로
브 리지
ap an
▁자 수
▁당연 하지만
▁( f
▁BTHO04 28
▁BSHO04 28
▁개정 안이
▁여 캐
▁M ax
▁차례 의
▁문화 ,
등 하게
법 <|endoftext|>
▁반려 동물
▁중화민 국
▁고 문을
▁피 닉
▁기여 를
▁주 었다.<|endoftext|>
▁허용 했다.
선 수로
▁문 건을
▁가정 용
▁튼튼 한
빨 간
▁포 켓
▁투쟁 을
8 80
▁타 우
▁군 단의
그 와
▁카드 .<|endoftext|>
▁다이 노스
▁제작 하는
경 정
▁여 당이
▁적발 됐다.
▁받 쳐
이었 다면
▁침 수
▁좋아 해
▁BTHO04 24
▁BSHO04 24
▁건물 로
이 시
▁무 성
▁결 단
▁취 업을
▁2012년 에
▁여야 는
▁본 진
▁상태 는
▁르네 상
▁자 국의
▁통 역
S t
▁아니 어서
om m
▁사과 했다.
▁기재 된
▁상 경
▁width= 22
4 80
▁비 명
u x
▁소 우
▁거 리로
게 더
▁이 반
▁수 비가
▁비 둘
▁이루 지
▁남자 와
▁중단 된
▁월드컵 에서
8 20
비 즈
점 유
친 화
▁연 못
▁중간 중간
▁정 호
대 까지
▁노력 으로
끝 에
▁성 관계를
▁청 정
▁수입 차
-0000 24
▁상태 라
▁내비 쳤다.
▁새 우
▁학 위
▁백 두
틀 을
9 60
들 며
▁사 연
▁다음 주
▁음악 은
▁파악 하는
▁행 위로
▁맹 독
구 멍
▁발 리
▁( 2)
▁형 의
▁지방 에
▁해 서는
▁참 패
▁인정 해
▁잘못 이
( 조
▁여 사
▁팬 클럽
▁6CT_00 52
▁주 일
▁장갑 을
요 "라고
▁생각 하기
▁볼 드
▁' 복
▁나왔 고,
▁8CT_00 43
▁지적 한다.
▁맨 시티
▁트랜스포 머
부 여
▁필 기
▁P O
s v
▁피 라미
▁19 년
▁인정 받고
▁들어오 면
▁시그 니
▁없 다"
▁반 가
▁명 분으로
' 하는
( 안
▁부 지를
▁창 시
시간 으로
▁검사 들
9 월
▁컨 벤션
▁쓸 려
▁녀 석은
▁정 종
▁바 론
▁착 취
▁지구 로
8 70
▁조 승
d ay
ar a
▁카 카
▁구매 하는
▁보 이자
▁초 빙
▁ 듬
▁치 켜
▁자 백
▁예상 된다.<|endoftext|>
▁개막 전
▁' 죽
-01 6
▁면 밀히
▁러시아 ,
▁포털 사이트
▁경 보
▁채 집
▁느 리게
▁쿠데 타
원으로 부터
▁a b
▁태 도는
▁12월 부터
▁( 원
▁장 민
▁후 타
▁단 계를
▁삼 청
▁가능 했다.
▁이 연
▁검토 해
▁과감 하게
▁U FC
▁금 성
▁끝 장
▁100 명
09 00
8 30
▁대 의원
▁괴 물이
▁무기 .
-00 37
▁잠 겨
▁서울고 법
▁ 으로는
- E
2 차
반 대
▁6 ~7
▁개념 으로
군 .<|endoftext|>
▁사 지
▁두 가지
▁과 자
( 도
점 이다.
블 레이드
트 럼
▁대기 오염
금 에
▁기 꺼이
기업 을
▁윤 상
▁사업 비
특 집
▁구축 해
웨 이브
-0000 14
▁맡 기고
R O
암 ,
▁가져 와
▁아파트 의
▁히로 시
간 다
▁문 장을
▁이를 테면
그러 나
문 고
예 비
▁국내 에서도
f rac
i ous
▁정 당의
▁바 를
▁반 격을
▁허 구
▁이때 문에
▁해석 할
▁클리어 하면
▁예전 부터
카 메라
▁정 태
▁동 등한
▁대 량의
▁유 치를
하 다"면서
▁당 정
이트 의
▁나가 겠다"고
▁진단 했다.
▁읽 기
▁덩 치가
▁용의 자
▁리포니아 주
렌 의
▁막 은
▁너 클
▁장난 을
버 스의
임대 주택
▁18 대
▁나왔 다고
▁작곡 한
O00 67
호흡기증 후군
선 지
후 는
▁도 구로
▁한국 인이
▁치 하
▁사고 의
▁구조 적
ter s
대 고
▁전문 적인
▁부 천시
대로 ,
▁새누리 당의
· 주
물 가
▁수 하
▁포 천
▁동안 ,
▁업데이트 가
▁중 급
▁말 린
김 현
30 일
▁우려 해
▁칭 호를
▁아쉬 움이
▁사 장과
짐 에
▁증 기
-0000 29
▁3 할
▁9 번
▁접근 하는
▁탈출 한
▁역 부족
( 27
▁ ad
함 으로서
▁다 저스
▁" 처음
▁개 화
▁대 문
▁피 처
-0000 12
▁적 기
프로 젝트
▁카메라 에
▁+ 20
▁앞세 운
층 과
▁시작 과
al d
▁디 비전
-0000 13
▁배우 들의
▁수출 입
▁묘사 된다.
l in
▁수 년간
19 2
▁등장 하며,
▁몸 과
~ 80
▁원 장이
▁15 일부터
▁드래곤 의
▁이벤트 는
▁통 계를
▁운 전을
물 질을
▁분 출
▁증 원
감 소
▁강 인
▁위치 로
▁지 점을
▁운동 의
▁튀 는
있 지만
▁확정 됐다.
범죄 가
▁2 심
▁들 었던
▁북한 군
▁녹 여
▁생존 자
러 와
대학 의
▁300 여
-0000 27
▁찌 르
측 에서
▁느낌 으로
▁최상 급
▁해 상에서
▁민 심을
▁판단 하는
▁럭 셔
▁개발 도
▁김영 철
▁충격 으로
▁8CT_0022 -02
▁초 연
시키 는데
▁심상 정
▁앞 에는
덴 의
▁치 바
▁스토 리에
▁숲 의
▁구속영 장
홀딩 스
01 년
▁태 안
▁5CT_00 48
▁어린 아이
▁주 총
▁필 드의
▁현실 과
▁짜 고
▁전국 동시
놓 으면
세 탁
▁2 단
▁무 함
▁포함 해서
레 미
▁안 된다는
▁페 이크
▁s o
▁애 덤
▁현재 까지도
▁BTHO01 03
▁BSHO01 03
,000 명
▁동 전
▁올라 갔다.
▁앞당 겨
-01 9
무 도
▁문서 가
▁5CT_0016 -02
▁M O
▁침 범
▁BTEO00 80
▁윈 도
니 치
▁BSEO00 80
론 적
02 0년
-0000 25
▁스파 이크
▁5CT_0017 -02
▁여 진
▁구 본
▁협동 조합
▁에 필로그
▁주요 한
5 20
▁( 서울
▁있어 .
▁18 개
▁8CT_0007 -02
8년 에
if t
▁어린이 들이
▁SK하이 닉
예 프
▁사 인을
▁산 체
아 에게
▁만 년
▁운용 하는
▁때려 잡
였 다"며
▁개 회
▁100 주년
해준 다.<|endoftext|>
▁Gr and
if ic
▁베 토벤
▁탑재 된
▁최고위원 회의에서
팔 이
▁' 관
▁당 혹
애 의
▁내 줬
▁등장 이
▁절 제
▁노동 자들이
마 사
▁비 명을
실 장이
9 )<|endoftext|>
T M
▁C o
▁피츠 버그
▁멈추 고
▁편 이고
▁환 자에게
▁조선 인
▁벤 투
▁AI 가
▁허무 하게
0 )
▁4 세
▁임 산
ou p
▁마찬가지 .
▁미 투
▁차 등
▁날 리고
▁로맨 틱
냈 다고
립 을
▁B O
가 구가
시 즘
▁b ut
▁땅 의
▁프로레 슬링
▁안 재
▁6CT_0051 -02
지 연
▁마 취
▁쏟아 졌다.
▁관 해서는
▁인터뷰 에
▁등급 이
▁이해 관계
▁한양 대
▁견 본
▁궁 합이
▁마 약을
▁지원 은
▁기록 되어
▁갑옷 을
__ 08
▁후 로
▁8 대
▁플레이 스테이션
▁털 이
· 구
▁트리 거
▁낮 았다.
▁기억 하는
▁4 의
▁독일 과
▁로봇 을
레 티
▁해 프닝
▁거 치며
▁프리 즘
▁겪 을
.... ...
▁코 요
스러 울
▁콜 드
▁순 위는
▁음악 과
▁사 칭
▁키 미
▁요청 이
지하 철
▁쇼트 트랙
▁그래 야
▁대전 광역시
▁상 점에서
▁마 당
- 27
▁서 원
▁온실 가스
▁맞 지만
▁심 도
▁웃 어
▁거머 쥐
▁중 이었다.
▁소득 주도
▁점검 을
▁옷 이
▁선고 한
▁파악 해
▁width=20 px
( t
▁양 호
▁한반도 에
구 려
▁W S
▁분노 가
▁' G
▁못한 다고
▁확률 을
▁작성 된
슨 ,
▁원 흉
▁증 설
▁헤 어진
▁"일 부
▁추가 되어
▁회의 가
▁한국 인의
▁전 역에서
▁어 김없이
무 기를
문 제로
책 은
8 10
컨 설
▁바 서
부 인과
▁최 씨의
야 드
국민 의
한 다<|endoftext|>
▁지 망
ar s
▁Lv +
붉 은
▁일 등
먹 기
목 의
찬 의
▁BTBZ00 73
일 자
▁수 위가
▁유 탄
▁미 인
▁BSBZ00 73
▁아니 겠
▁끌려 가
▁프롤 로그
인 기
.A .
념 이
▁청년 들이
▁중소기업 의
A 가
▁한 ,
위원 이
▁199 1
▁맛 과
▁하 밤
▁무 공
▁안정 적
▁공격 형
▁제작 자
▁요구 되는
▁넘어 서는
▁정체 불명의
▁오 스카
▁선 장
▁안 아
▁박 람회
▁서 장
▁오리 콘
1 04
승 인
▁후 한
▁취 지를
▁식품 의약품안전
▁어처 구니
▁사무총 장
▁기록 된
▁브랜드 가
▁전년 도
물 질이
▁한국 철도
▁사실상 의
당 국의
▁9 위
낸 셜
▁원 피스
▁대 차
▁리 에
▁그런 데,
령 ,
쉬 가
산업 은
토리 얼
on ,
비 밀
▁이름 에서
▁교육 은
예 고
▁" 많은
ra ph
▁떠나 게
선 언을
▁이 국
일 자리
▁2010년 부터
▁세컨 드
목 은
치 인
▁마 트
▁굳 게
▁여 서
▁신 화의
▁예외 적으로
▁옥 상
▁취향 에
’ 라고
▁남자 친구
AN D
▁김 석
량 한
▁저 스틴
▁G N
▁인터넷 에서
▁시험 에
▁벌써 부터
▁잡 아서
▁통 증
▁강조 한다.
▁통 폐합
▁아우 르는
R S
▁김 효
▁빈 도가
▁시 시
▁아이 슬
▁1차 전에서
▁아날 로그
▁궁금 증을
안 고
▁패 했다.
단 지를
▁청 장은
▁프로그램 에서
▁전화 로
졌 다가
▁입 당
▁예비 군
▁실종 된
-0000 35
▁울 진
▁정신 나간
▁버 리지
▁꿈 도
▁선 이
▁- 명
▁책 에서
▁조 수
▁M 4
▁C ON
▁전 차를
19 3
▁마땅 한
▁회 사로
실 천
▁회 원이
▁지옥 의
▁언젠 가는
하기 보다는
▁지하 에
▁꿈 과
신 문이
▁것 보다는
▁국내 의
▁논란 으로
▁이쪽 이
▁고 독
▁도망 쳐
▁신 안
▁몰 랐다.
▁벤 츠
맞 는
스 나
▁종 착
▁뜨 겁게
더 링
▁1 만원
▁기 장
· 양
▁" T
▁7 명이
▁민 영화
▁쿠 루
▁데뷔 를
▁에스 파
▁죽 어서
▁터 를
▁인지 도를
( 50
▁열 등
브리 핑
▁E p
▁페 루
▁기타 리스트
▁체결 했다고
▁병사 들이
▁명 심
▁주인 은
.jpg| 섬네일|
상 거래
▁출연 한다.
▁프란 치스코
▁늦 춰
-0000 28
▁헌법 에
간 호
▁케 어
르트 문
드 에게
▁신 천
▁독 이
▁잊 어버
협 을
▁시 베리아
▁가족 들과
▁넥센 은
▁자유 와
왕 조
▁되어 ,
▁500 m
▁반 역
▁6월 까지
▁지적 했다.<|endoftext|>
▁분류 되는
▁O ver
▁예상 대로
▁살 인을
▁키 노
▁니 퍼
▁챙 겼다.
▁구 하러
▁총 장의
▁대 사로
▁폼 이
▁장 래
▁건강 이
▁있으니 까
창 출
▁대 도
▁거 시
▁세 력은
▁단 검
몬 은
▁2 를
▁' 일본
▁더 듬
▁건 ,
▁점 수는
▁증가 에
▁시 위에
▁동 향을
▁친구 들을
▁방문 ,
▁공 사는
▁책 략
▁골 절
▁칭 송
▁속도 도
▁일 대의
▁새겨 져
로 )
▁임 정
▁5CT_00 18
▁시달 리는
끼 리의
▁손 가락을
▁소비에 트
▁흘 리는
▁비 해서는
▁바람 직한
▁도입 했다.
▁편리 하게
치 사
협 정을
▁매 몰
▁멜 론
▁수영 복
▁메달 을
8 60
▁끊 고
▁상 사
▁관심 은
▁혀 를
▁관련 자
▁현실 화
c on
▁아이스크 림
▁크리에 이터
▁자 기는
▁독 백
▁로봇 이
▁마코 토
▁유지 하면서
▁논란 과
▁성격 에
▁떠나 고
랑 카
▁직 영
▁시 장과
▁회 자
▁워 킹
▁카 토
▁제 멋대로
▁정보 와
▁받았 으나
▁사 안이
▁발 광
▁기회 로
▁아르바 이트를
-00 49
▁우 전
▁진출 이
▁BSEO02 82
▁BTEO02 82
▁물 결
플레이 션
충 돌
▁일 깨
▁그리고 는
피 로
헬 름
상 '
섭 은
▁치 부
▁나와 야
▁신 현
인이 자
▁개최 하는
▁포항 시
아이 템
▁강화 하기
▁수익 이
▁폭행 한
c enter
▁미 적
▁내 건
▁단 서를
▁라 마
사람 이
▁하지 메
위 )<|endoftext|>
.S .
▁2 D
▁지 쳐
환 승
▁성 질
▁쿠 르
▁제한 된
▁격 침
나 시
▁중 이
▁먹 어야
영 어
▁양 형
▁데이터 가
▁환상 적인
▁부 설
▁/ /SP<|endoftext|>
▁그것 에
▁섬 에서
▁반복 되는
모 집
▁먹 으며
▁낭 독
아 에
▁마 운드를
▁금지 된
▁오케 스트
▁( 가
▁그림 은
▁파티 에
▁메 일
▁198 0
▁넣 지
▁투자 할
있 고,
▁아니 므로
▁왕 비
▁시중 은행
련 이
면 접
▁감 성을
▁엔 진은
족 과
8 40
맨 ,
▁노 인이
▁피 치
▁간 소
▁덕 후
▁아 수라
▁인 맥
▁국 적을
▁치 렀
▁충격 이
▁동료 들이
▁부 원
인 듯
-0000 38
▁국정 감사
▁지칭 하는
▁저 감
▁퇴 사
하기 엔
▁리 믹스
▁30 ~40
▁관광 지
▁주 재로
▁승리 할
▁3 위에
▁해 군은
▁적용 했다.
▁사기 꾼
▁드물 다.
▁저 조한
▁보였 지만
▁자신 감이
▁크로 스를
▁소 피아
▁증 액
▁크로아 티아
▁폐쇄회로 TV
▁동 명
▁많 다"며
▁10 만원
공 사,
▁체 력은
▁돌아 다니는
▁면 담을
▁친구 는
▁플래 티넘
▁필 터
▁호 화
▁롯데 백화점
▁트 릴
▁유지 한
▁법무 부는
업 계는
▁" 올
▁많 으며,
▁싶 다.<|endoftext|>
▁발표 하면서
▁분명 하다.
▁도쿄 에서
▁실수 요
보 육
▁수 교
메 인
▁마 리를
▁비밀 리에
▁겸 손
정 화
▁공 신
▁경우 에만
( 28
▁이 과
T T
가 ?<|endoftext|>
어 링
▁퓨 전
▁유나이 티
▁(K BS
▁Con ne
▁이날 은
▁왕 좌
▁스타 일로
▁어렵 다"며
신 고를
음 .
▁점 이다.<|endoftext|>
▁담 장을
▁위치 에서
▁타 면
▁끝난 다.<|endoftext|>
세 이버
표 에
▁김 이
때 문
▁교 체를
▁보기 엔
▁운전 자가
▁전방 위
폴 리오
▁마 타
▁반 지를
▁유권 자
▁세계 대
▁압 력
▁성 배
▁A 씨에게
▁최고 위
▁시행 하는
▁도로 교통
▁지목 된
▁묵묵 히
& B
▁조 희
▁죽이 려고
행 위가
까 요?<|endoftext|>
▁도 무지
▁국민의 당은
▁Re v
선수권 대회
▁동 력을
▁후보 에게
동 력
▁이날 도
▁변 한다.
▁오르 내
▁ us
▁장 군이
▁팔 로
▁하늘 이
▁자민 당
청 탁
▁D i
ic ro
· K
할 인
▁반 달
▁리 서치
▁제네 시스
4 일
▁문 서는
단 한
더 리
됐 다가
▁최근 엔
▁삼성 S
▁알 았던
회담 을
▁BSEO03 08
▁BTEO03 08
▁밴 쿠버
▁an chor
▁마디 로
▁팬 미
▁응 하지
▁생각 하게
▁몸 통
▁공격 시
▁홍 영
▁거래 소
▁그동안 의
" 라
▁교향 곡
▁정 연
▁유 년
▁대표 도
해야 한다.
▁부활 을
업 체를
▁( The
▁없었 다면
▁언론 과
더 ,
▁배 고
▁순간 이동
서 구
▁없 다'는
▁추 격을
▁투표 에서
▁미야 자키
8 90
란 도
했 다”고
▁동 료를
▁더욱 /MAG<|endoftext|>
▁전 학
▁홈 쇼핑
중 지
칸 의
▁누 명을
F E
에 어
품 에
▁BSEO03 34
▁BTEO03 34
윤 은
▁분 은
▁세 분
▁할머니 의
▁공 시가
▁명칭 으로
▁' 베
▁농 락
▁무기 와
▁삭제 된
▁정 용
▁연 평
▁평가 한
▁신고 한
C H
지 리
▁기 내
▁우호 적인
▁단일 화
▁하 부
▁현 안에
현 장에서
▁개 는
▁박 보
▁1년 을
자유 한국당
▁공천 을
▁태극 기
▁치 사
▁국민 들은
▁기반 한
▁주 제는
▁페 인트
▁한 전
▁' 발
▁치 과
▁굳 어
해왔 던
▁고 생을
▁김 강
▁BSEO02 91
▁BTEO02 91
공 ,
▁많았 고
▁분 비
▁L eg
가 구,
▁자유자 재로
사 유
었 습니다.<|endoftext|>
▁한번 씩
▁"기 존
▁장 군의
▁7 .5
▁잔 잔
도시 로
▁진입 을
사 다.
▁인간 으로
▁프로그램 인
▁회담 이
▁가 꾸
학교 에서
▁승객 이
어 린
▁서 동
▁요시 다
▁고 층
▁R ob
▁상 에서
▁포함 하고
▁지나 간
▁생각 합니다.
▁농 사를
▁시즌 3
▁국정 화
▁정의 의
▁아프리카 TV
▁/S H<|endoftext|>
▁놓 을
결 합
▁당 국에
개 조
▁국 보
▁원 어
▁처참 한
m in
▁전 개를
▁Ch rist
성 이나
▁바 바
▁이정 현
▁가 다가
▁기준 ,
▁아파트 에
▁높아 져
▁70 주년
사 추
▁외 부의
▁너무 도
▁놀 랄
유 저
▁사업 이다.
▁마케팅 을
▁양해 각
본 은
▁ if
렬 히
-0004 3
▁동 포
▁불분 명
▁비아 냥
메 이드
제 나
▁구 단의
▁H y
▁등장 하면서
▁미친 듯이
스 '
▁강화 한
표 의
▁연 기에
되 기를
▁202 5년
선 인
▁일 화
▁피 는
▁본 사를
▁대기업 의
▁막 걸
▁범 인을
▁캐릭터 분류:
▁BTHO01 24
▁BSHO01 24
-0000 34
병 원을
위원 장의
▁추가 해
▁회복 할
▁정 할
▁' 열
▁나오 며,
▁환경 부는
9 20
▁과정 의
▁들어선 다.
▁분 쟁이
▁E nd
▁판결 에
▁멀티 플레이
▁의원 (
▁하나 님의
▁육 성을
▁비핵 화와
산 업을
째 인
▁밝혀 진다.
란 다
▁7 %
▁" 각
▁남 궁
▁사망 하는
▁7CT_00 18
멘 탈
▁자 식이
▁속 성의
철 학
▁파 문
▁기상 청
- 26
▁4 라운드
.2 %,
S P
▁조 속한
▁백 수
▁대 각
▁단말 기
손해 보험
됐 습니다.
▁초 고속
▁열 정을
▁했 으면
카 에게
▁재 팬
ct or
▁깔 고
▁숲 을
조 국
▁화 랑
▁1 등급
▁' 네
▁양 국은
▁방송 의
▁하츠 네
▁조금 이나마
▁시 신이
▁키 스를
▁대기 시간
▁중남 미
d onga.com
팀 에서
아 이가
▁하 겠다.
▁미 라이
▁만 류
려 한
▁+ 4
▁조심 스럽게
k t
말 은
▁밝히 면서
▁0. 00
iel d
▁시간 동안
▁난 징
▁1 군에
▁나 미
▁10 배
▁대상 인
▁쿠 르드
▁2022년 까지
▁시 구
▁국 비
9 80
▁가 하고
▁분 량이
▁꾸 민
▁지금까지 도
▁보였 고,
▁조 나
▁온 도가
면세 점
》 (
▁신 드
▁후 궁
▁영업이익 이
온 ,
▁" M
▁파 일이
사회 복지
' 이나
틀 리
▁' 눈
▁캐 슬
하자 면,
▁교 류가
▁회 생
▁대상 자
▁문 명의
▁S un
▁참고 로,
▁길 다.
▁담당 한다.
▁포 진
▁소중 히
▁동 백
▁일반 적
▁9 <|endoftext|>
▁금 정
▁게임 .
▁나온 다는
▁산업 이
▁창출 을
▁s m
▁과학 자
▁국정감 사에서
▁( 대
▁계획 도
▁테크 노
▁이 통
▁속 에는
▁급 변
▁" 황
▁( 한
▁작업 은
▁누리 과정
▁조 르
▁중심 지
양 한
▁반 군
▁전작 인
▁영문 명
( b
모 씨
▁#FF FFFF
▁통 찰
▁포 옹
▁놓 지
▁설정 으로
▁크리스토 퍼
▁E Z
▁스나이 퍼
선 물
설 은
침 이
▁스 캐
▁삼성 바이
▁프로젝트 분류:
▁제3 차
▁폭넓 은
▁공개 하고
▁유럽 과
인 해
▁대 하
▁일 개
7년 에
▁감소 하는
슨 을
▁간 사
번째 로
▁중 인데
▁사업 과
▁물러 났다.
▁모은 다.
록 이
더 와
▁구 도가
▁장학 금을
▁근 래
▁유 타
▁어 미
▁국 공립
▁올 렸다.<|endoftext|>
▁파괴 할
▁이 덕
▁자 랐
▁width= 80
기자 단
데 레
▁시 인의
▁기 기를
▁로 리
▁불안 감을
▁산업통상자원 부
▁ im
▁이어 지
▁BSEO03 29
▁BTEO03 29
▁증 축
▁프랑스 어
▁미 로
▁동 국대
▁피해 자는
스타 가
· 남
▁사용 에
▁난 폭
▁악 취
▁않았 으며
기능 을
릿 한
피 트
▁출 토
▁연관 된
후 를
▁장 마
▁원 안
▁2018 .
▁일행 에게
빵 을
▁함 재
▁감독 도
▁사라 지지
▁애니메이션 의
▁최 측근
▁골 이
▁만큼 은
▁묘 사를
▁개혁 의
▁현대모 비
창 은
▁극 찬
기로 는
▁소홀 히
손 이
용 량
▁B ut
러 리
▁승 을
▁소유 자
▁신 과
되 서
' 였다.
▁" D
▁바 우
▁장애 를
▁미 도
▁D a
▁역사 적으로
리 비아
▁적 어서
▁P ol
▁9CT_00 13
▁죽 이면
▁낮 아서
▁제거 하고
리스 와
▁제네 바
( 21
▁가 즈
▁회 장에
▁T K
▁천 막
▁아동 학대
▁도 르트문
▁도시 계획
▁나타나 서
▁바다 에서
▁경부 고속도로
출 소
-0000 48
ro ss
▁느껴 진다.
▁분류:19 3
대학교 ,
5 ,000
▁ 줘서
▁쌍 둥
▁" 특
▁좋아 한다고
▁설치 돼
▁억울 한
▁역 에
▁입 힐
▁범 위는
▁유용 하다.
으 라는
▁다이 빙
종 인
▁지향 하는
▁우 미
▁차 질
▁브라질 의
- >
데 자
돈 의
▁S O
종일 관
▁고 뇌
▁고 의로
▁불평 등
▁" 친
▁주 성
터 <|endoftext|>
▁민 관
▁밝혀 져
▁수 배
10 일
! (
▁철 학자
▁수 박
▁서 문
▁김 건
▁살아 가
▁인접 해
직 의
탕 을
▁경 합
▁임 금이
▁공개 하는
올스타 전
▁번 만
▁브 루스
▁드래곤 을
섭 이
▁이 보
▁회 화
▁잠 든
▁끼 칠
/NNG+ 를/JKO<|endoftext|>
했 었다.<|endoftext|>
▁이 홍
▁비 효율
▁종 속
군사정보 협정
▁기 계를
-00 10
▁따라서 /MAJ<|endoftext|>
▁범죄 에
▁구 하고
▁잘 려
▁믿 음을
▁나아 갈
▁ http://
▁놓 친
▁8CT_000 8
er )<|endoftext|>
▁칭 호
▁롤 링
집 니다.
▁아이 에게
▁추측 된다.
▁죠 죠
▁막 아야
▁누 구를
범죄 수사
▁GS 칼
▁나 스
▁탈락 한
▁미술 관
▁" 총
▁방 청
▁위원 회는
▁기 체가
▁선거 운동
▁바 리에이션
섬 유
▁B ro
▁설명 에
▁츠 카
▁도와 준
· 상
▁무 녀
▁남 는다.
라고 는
▁섬 세한
▁"정 말
▁가 구가
▁어렵 기
▁아래 는
▁수행 하고
▁이 성을
▁맞 먹는
테크 노
▁"국민 의
▁받았 으며,
▁시 점으로
▁나 게
▁국 기
▁1대 1
▁일 컬
▁치료 에
+ 0900
▁1 타
▁차 오
▁찾아 오는
▁마련 이다.
▁응답 이
▁비 평
▁영 재
▁린 드
▁BSEO02 95
▁BTEO02 95
▁지 갑
▁에 일리
집 권
km 2
덕 이
▁입 자
6년 에
▁멤버 들을
' re
▁' 타
▁전통 적
) 나
· 기
겹 게
▁휴대전 화를
▁데 스티
▁폐 지를
▁홍콩 의
▁솔직 하게
작 전을
▁투표 율
▁거주 하고
놀 이를
러 한
▁다 방
▁박 건
▁호 감도
▁움직 이고
▁경제보복 군사정보협정
▁초 라
▁죽음 으로
▁측면 을
▁유우 키
▁미 완
▁오르 지
부 사
▁4 호
▁무의 식
▁2 .9
▁공 관
▁공 문을
▁두 바이
▁파 업을
마 에게
▁M net
▁묻 은
▁외부 에서
▁희귀 한
▁지중 해
▁경 사
▁7CT_00 25
임 과
▁호 노
▁합류 했다.
▁본 거
저 지
청 산
▁필요 하다"며
▁이루어 질
▁헤 아
et t
▁예 방을
▁애플 의
▁송 은
▁베스트 셀러
락 으로
▁도 이
L00 59
취 급
▁대 전에서
▁관 전
▁유저 들에게
▁떠올 리게
주 세요
▁우 타
▁접수 된
▁친구 로
4 20
▁기 분을
▁재 평가
▁기울 여
▁독자 적으로
▁보좌 관
ic an
중 단
▁2 권
▁식 용
▁평가 하고
전 남
▁분 대
▁H ar
▁습 격을
▁계획 하고
▁그 칠
▁상승 <|endoftext|>
▁높아 진다.
▁아모 레
▁시 발
▁맞 서는
▁부드 럽게
래 스카
▁위 스키
▁하반 기에
▁모 드의
▁6 명의
▁치 르고
▁패 소
노 르
팀 장
▁가 두
▁결 단을
▁낮 춘
▁알고 보니
▁자녀 의
▁BTAA000 5
▁BSAA000 5
▁무 고
▁BTHO01 05
▁BSHO01 05
▁성장 하고
▁제19 대
▁아 들에게
▁동 쪽으로
▁더욱 더
▁차지 하며
ann a
공 인
▁H E
▁비판 적인
▁두번째 로
교 와
다 닐
▁검찰 과
.7 %로
엔 지니어
▁앨범 은
▁이 바지
런 스
렸 다가
▁이 을
▁버 드
하 다'는
▁이 씨의
▁제작 해
▁시리즈 에서는
▁대한민국 은
▁탐 욕
▁고객 들이
▁갤럭시 노트
L 의
들 게
▁차 차
▁천안 함
억달러 (약
움 ,
▁외교 장관
프 렌
▁아 님을
▁궁금 해
생 인
▁글 렌
-000 65
▁나가 사키
공화 당
▁휴대 용
9 30
우 수
차 지
▁가져 오
▁시각 도
검 증
링 으로
▁지 수는
▁자 사의
▁승 리는
▁E M
▁거야 .<|endoftext|>
라 인이
▁시 종일관
▁공 장이
▁소 문을
4 40
트 러
티 와
▁유지 해
▁중앙 정부
7 월
자 스
▁당 겨
▁특혜 를
▁보 선거
▁5 000만
▁자세 가
▁부 녀
▁생 계를
처럼 ,
▁지구 에서
부 패
▁자택 에서
▁평범 하게
▁들 게
▁선택 했다.
▁특별 관계
▁2019 .
쯤 은
▁과 격
▁막 았다.
▁6CT_00 29
▁엑 셀
니 트
족 으로
▁행 사로
▁근 황
▁G TA
▁위안 화
판 타
▁내 린다.
▁( 총
▁쓰 며
▁완성 차
▁요구 한다.
▁투자 에
▁영 리
▁감상 할
▁돌연 변이
투 성이
▁이후 부터는
▁플레이 버
" 에서
G 를
▁지원 했다.
관 찰
▁경 산
▁내 리지
▁타 로
▁견 줘
인 프라
▁결국 엔
▁7 억
▁움직임 에
니 클
▁민 망
▁페 트
▁넘겨 진
시 작
R <|endoftext|>
▁일 레븐
o e
▁ .8
▁묻 지
▁수상 자로
▁평가 받고
▁기다 려야
▁시야 가
▁우 월한
▁등장 ,
▁직 장을
▁노선 에
스 카이
▁노 회
▁어울 려
▁풀 리지
5 10
▁죽 어버
▁평가 에서
▁광고 가
▁가 리고
▁장기 적인
( 혹은
▁인 계
▁진출 할
▁골프 장
이노 베이션
했 다<|endoftext|>
▁도 호쿠
▁엄 폐
▁사용 자는
기관 은
▁단속 을
강 원
▁어 선
충 북
▁미션 에서
▁당신 에게
아 지
▁도 구를
3년 에
▁그 렸다.
▁아이 와
▁결정 했다고
▁실시 해
▁위 상이
▁19 70
▁작품 <|endoftext|>
▁통합 진보
타 기
▁2 점을
▁해 소를
▁검토 를
i j
▁안 종
▁토 머스
몬 드
▁최 용
▁주파 수
▁평 면
▁4· 3
▁소환 한
▁패배 로
▁감 기
▁증가 해
보 살
▁사 안을
▁지 으며
범 ,
▁중 의원
▁환 급
▁철도역 <|endoftext|>
イ ー
고 쿠
분 투
▁등판에 일선
메 일
▁M OU
▁사회 과학
▁중앙 정보
▁작 게
▁서비 스로
▁이 사는
▁개념 은
승 의
▁리 턴
▁독일 어
▁묘 지로
▁있다 (
▁예 배
▁데 스크
▁캐 롤
▁math (
9 10
▁전 소
▁분 의
▁아이 파크
▁내려 진
▁휘두 르는
▁이 근
▁사 슬
▁사 출
▁스 몰
▁I ID
▁8 명
▁지 시로
▁부 문의
▁추천 을
옥 의
집 ,
▁지 바
상 대
시 지
▁게임 인
▁팔 린
▁시원 하게
▁한 밤
▁버 나
▁찍 혀
▁배치 되어
▁생기 기
▁릴 리
▁공무 원의
▁장 악한
▁자 구
▁Y OU
/VV+ /EP+
럴 림픽
피 해를
▁노선 으로
스케 어
▁' 악
▁서비스 에
▁신 공항
▁교 훈
▁많 으며
▁바로 는
▁8CT_00 45
▁지정 해
주민 센터
▁내 포
▁선 우
▁심 재
▁날 에는
▁채 우는
am b
▁BTHO04 20
▁논의 하는
▁흉 기를
▁BSHO04 20
▁군 대에
▁차별 을
학 위를
▁부분 .<|endoftext|>
▁유로 파
답 시고
람 쥐
▁먹 게
▁S ong
▁내려 간
it s
▁드라마 가
▁일 의
▁후보 자에
▁비교 해도
레스 테
▁받았 다"고
▁활성 화에
▁수 사는
9 90
▁' 잘
▁장 충
▁'무 결점
▁공간 의
▁와이번 스
▁미래 창조과학
▁패배 하고
▁0 으로
.5 %로
▁장애 가
▁부 위에
▁애 널
▁죽 자
▁여겨 진다.
▁증가 가
▁무의 미
▁산 이
▁스위 트
▁ っ
집 중
▁배 척
▁공기 청
▁부 스트
▁비 방
ment al
▁구 인
▁없는 지
▁예정 대로
▁알아 듣
▁치열 하게
▁IID X
▁모 임을
▁강 도가
▁진 공
소 리로
저 와
▁것 뿐
▁취 항
회 장의
▁폴 크스바겐
▁R O
▁상품 의
▁사이 보
▁히 는
▁떨어 지기
▁깨 진
▁참가 자들은
▁당시 ,
▁고 토
▁가능 하고,
▁강조 하며
추 미애
▁제 구
▁나 자
▁틸 러
9 40
en ,
▁시 체가
▁현 안을
장이 었던
▁슈 가
▁8CT_00 14
▁' 용
▁종 식
% 인
국 유
▁' H
▁고 군
▁얼굴 과
▁일 정에
.3 %로
스 마트
▁검 술
▁동일 본
▁방면 으로
▁한 없이
.4 %로
▁프랑스 에서
▁지 르
▁양 적
▁비난 이
5 30
▁착 안
▁한 손
▁장 은
▁더 해져
▁애 당초
▁도발 에
· 일본
▁거 다.<|endoftext|>
▁제안 에
▁망 한
▁수 서
▁검 증을
▁"해 당
▁이 전을
▁유 목
▁올 레
▁투 고
4 30
▁전략 으로
▁물 질이
▁마 천
▁지방 에서
.8 %로
여 도
젊 은
차 관
▁오 르면
▁신 격
▁실 수가
▁끝 낼
▁후보 자를
▁아이러니 하게도
▁양승 태
▁산 에
▁르노 삼성
い て
냈 다는
▁부 두
▁제국 을
무 용
▁시 국
▁서 유럽
▁손 상을
.1 %로
▁옮 길
31 일
▁밸런 스가
▁말 하길
▁기간 제
▁답답 한
▁어 때
▁초 능력
정책 과
있 다
▁어 머
ou d
-0001 01
▁노출 된
▁팔 찌
▁게이 지를
▁비슷 하지만
4 70
히 데
▁마 니아
▁창 문을
.8 %,
▁붙잡 혀
휴 게
▁' 직
▁( 사
▁군 사를
▁크로 노
까 요?
▁못 하다.
▁스타 스
▁매달 려
▁ ag
▁발라 드
비 오
연 승을
▁장 흥
▁이 씨가
▁메 갈
▁품 에
금 고
케도 니아
▁14 ,
▁조합 으로
9 70
’ s
협 력을
▁7CT_00 43
다! "
▁1개 ,
규 정
언 의
▁한 민
▁불 매
▁피칭 '
▁생 일을
금 지법
of f
▁L CD
바닥 에
▁바르셀 로
L M
요 구
▁라이 너
e f
▁여 사는
▁장 외
▁마법 이
▁최후 를
▁교섭 단체
▁= =
▁엑스 포
▁상반 기에
▁신 주쿠
▁진 열
▁t ime
▁기관 에
▁블로그 에
▁상세 히
R C
▁제재 가
▁" 생
▁서울 남부
▁언급 된다.
▁무작 위로
▁상 회
▁T O
▁배우 <|endoftext|>
ur g
탄 으로
▁초 계
▁순간 부터
▁마스코 트
▁싱어 송
했는데 도
▁데 이브
▁화 재로
▁봉사 활동
사 건을
▁전문 성을
▁준비 할
품 과
▁대변 인이
교육 청이
▁1~ 4
연 령
▁성격 도
▁영웅 을
▁도 도
▁유 쾌한
▁같 고
AN I
▁스 팅
▁9CT_000 5
양 에
제 프
출 신
피 에
▁바 쳐
▁차 출
in ce
▁어려 서
▁( 15
-0000 19
▁어른 이
스 컵
실 습
▁쿠 라
-0000 55
▁똑 바로
に な
남 매
▁' 스타
▁평 했다.
▁즐 겁
했 어야
▁수목 드라마
각 은
어 !
▁후 려
▁독 성
▁ 젝
▁법 원에서
▁개편 을
▁효율 성을
▁1 도
▁공 평
▁화 약
▁탈 옥
되면서 ,
무 에
법 안
▁만약 에
▁W ith
▁연계 한
율 의
▁드러 내지
수수 료
▁아끼 는
모 도
▁2 12
▁기울 이고
Y ou
골 의
투 니버스
▁K AI
▁달러 에
메르 스
▁IB K
모 자
▁변 론
▁중요 하다.<|endoftext|>
▁산 은
▁소개 된
되 더라도
언 정
▁도 에
▁두 었다.
혁 을
▁둥 근
▁기후 변
게 이지
▁어 레인지
▁변 신을
▁7CT_00 20
▁191 0년
) 에는
▁지 성
▁시 비를
▁부 조
▁콜 린
K BS
~ 70
▁( 12
▁평양 에서
▁직원 들을
자동 차가
▁당기순 이익
▁등 에도
▁내 연
▁정치 ,
ing ,
▁프랑 스와
ad y
▁베이스 로
▁심 플
▁캐 리어
▁f eat.
▁근무 한
▁시작 하자마자
▁2 .2%
▁소 독
▁효 성
▁규모 에
▁허용 한
▁( 한국
iv al
5 60
나 루
영 에게
팀 ,
▁A b
▁해당 된다.
▁St ud
▁다이 너
▁뇌물 수수
( 세
▁막 바
▁3월 까지
▁외교 안보
▁60 여
▁공 예
▁10 점
만 명의
백 은
▁자리잡 은
▁과시 했다.
/ 0
▁가 변
포 장
▁개 성을
▁사 일
▁때 리고
▁각 지에서
▁비 약
▁건 보
.6 %로
화수소 '
파 이트
▁보 았을
▁최 지
▁개인 전
▁스 마일
▁BTHO01 35
▁BSHO01 35
▁BTDO02 78
라 '
▁고 인의
▁영 월
▁요 건
▁몬스터 는
▁BSDO02 78
업 종
▁내 신
▁화 순
▁거론 하며
시 카
▁연 임
▁판 다
▁행동 하는
▁예산 의
▁하스 스톤
토 피아
▁삼 자
▁뿐 "이라고
저축 은행
버 스로
▁1 에
▁소 친구
라이 즌
▁피아 니스트
▁안 장
▁달 해
▁원내대표 의
▁디아 블로
▁전국동시 지방선거
? )
제 도의
▁대 위
▁강 세
▁페 리
▁때 다.
▁구 해주
삼성 SK
▁노 년
▁남 이
▁타 기
▁총 으로
만 장
▁의견 으로
▁갈아 입
ン ー
병 원으로
▁팔 에
▁부근 에서
▁욕 심
▁2009년 부터
▁피 신
▁부지 런
▁지나가 던
야 !
체 력
▁20 일부터
▁평소 보다
o th
▁세 가
r im
▁시 어머니
▁약 칭
▁기록 했다고
▁자리 로
시켰 고,
▁요청 으로
▁직업 은
▁임 박
▁선수 에게
▁말 그대로
▁' 심
차 에서
▁' 버
▁소 행
▁상징 인
9 일
G L
▁교 대
▁15 일까지
▁웃 긴
% 나
▁마련 에
▁낙 후
▁혼돈 의
업 무를
▁재조 명
▁기 인
▁6 :
▁매 듭
▁가입 을
▁화 기
▁홀 딩
▁부정 적으로
1 만
인 사를
▁여 유를
▁들 었을
▁화 신
ac he
하 구
▁자 취를
▁제 인
▁고 루
▁동안 은
▁순매 도
남 을
▁몸 에서
▁튜 토리얼
▁자유한국 당은
▁제 21
▁' 토
▁간 다는
▁W ill
▁BSHO03 75
▁설상가 상으로
5 40
▁위 스
▁알아 채
▁틀어 막
▁경우 의
▁행 성의
쳤 다고
er c
▁BTHO03 75
▁무너 지는
않 고
▁" 직
▁심 정
▁: <|endoftext|>
▁주요기사 올스타전
▁극단 주의
곡 인
어 드
▁비 리를
▁손흥 민은
돌 파
▁2 실점
▁상 세한
▁현 관
▁박 유
해 .
▁이 스탄
▁수 훈
▁심 리를
▁강경 한
▁총 력을
되 ,
▁기준 )<|endoftext|>
▁구 르
▁왕 따
▁엄 지
▁가족 에게
Z02 74
▁주 인의
이라 니
▁브 로드
해 본
▁소 대
▁엄마 를
4 60
▁이 행을
▁일 인
▁붙 을
이에 요.<|endoftext|>
요 양
▁대 남
▁연구 의
▁함 정에
▁F re
▁절대 적으로
▁구 애
▁토마 토
▁우리 와
▁식 스
▁여자 아이
▁1, 500
▁달 할
▁width= 60
,000 ,000
▁총괄 하는
▁바 리
▁배 영
▁근 무를
사이 클
G 의
▁7 천
▁대한민국 이
▁넘겨 졌다.
필 름
회 사에
▁들 었다.<|endoftext|>
▁박 형
구 미
▁서 쪽으로
▁각 색
▁유닛 으로
턴 의
▁살균 제
▁않 겠다"고
▁M Y
▁친구 들은
▁자치 단체
가 구로
14 -0003
▁자료 는
▁자 들이
▁파 장이
▁M X
▁영화 배우
▁하였 고
▁천안 시
▁공동 성
▁단 장은
▁살 포
새 끼
태 ,
숙 은
▁회복 하는
▁A ug
er v
▁배치 해
▁브로 커
▁ 져야
▁무 가
▁국회의 원이
▁8 천
▁무한 도전
▁계 류
▁게임 과
▁변화 하는
▁애니메이션 에서는
매 장
모 닝
▁이용 자가
선생 님
왔 을
▁조 망
▁파 병
▁중국 과의
▁1 면
▁수 정을
▁카 밀
▁기관단 총
’ 와
▁신한 금융
▁협 상의
▁던 지며
▁자 판
▁마 계
▁떠오 르고
파 울
▁파괴 된
▁수출 은
▁우주 를
▁"미 국은
소방 서
부 르
▁예 전의
사 벽
▁여성 들은
▁승 승
▁국제 적인
▁노동 자들의
▁특별 감찰
킬 로
▁실 력으로
▁전 남도
▁아니 니
하였 다는
▁선택 에
- 28
▁유 공
▁김영 란
▁일행 의
운 은
통 치
▁추천 한
▁한 식
ir d
었 으니
▁아 역
▁일 격을
▁( U
▁타 석에
▁BTHO03 69
▁BSHO03 69
련 한
▁저 에
▁다니 면서
▁서스 펜
거 스
▁L NG
▁유사 하다.
▁"북한 은
▁의원 들
▁쓰레 기를
▁성균관 대
▁가 닥
이라 기
▁레 몬
▁퇴 원
▁화제 다.
▁런 트
스테 이
기 병
성 ·
▁연 면적
▁남북 한
▁그룹 을
▁택 한
▁받 거나
▁타 일
▁경제부 총리
암 의
▁터 졌다.
장으로 부터
▁박 희
▁형 제가
▁공부 하는
▁발 상
▁엄격 하게
포 켓몬
윤 ,
▁영 도
▁주 소를
es )
립 스
▁BTHO01 36
▁펠 리
쇼 에서
용 사
▁스 에
▁BSHO01 36
급 ,
▁실 체
▁하늘 로
▁2 세의
▁보 더라도
l a
▁' ''
▁제기 하는
▁3 장
▁프랑크 푸르트
누 마
▁독 을
코 에
▁취지 다.
▁기 흥
▁설 도
▁죽음 이
▁신뢰 가
( 단
골 든
▁메 커니즘
▁T ru
보고 서를
▁무 혐의
▁덩 어
▁바 주
▁어려 웠다.
( 경
만 하게
영 국
▁참 을
▁수준 이었다.
하겠 다며
/ 01
치 고,
▁사 주
▁도 리
▁포 니
▁집 회에
▁막 대
▁밀 리지
일 라
▁적용 될
▁서비 스의
▁기 무
시즌 을
▁cl ose
재 단이
프 트를
▁전 적이
▁도 맡
▁리 티가
▁집중 하는
▁BTEO00 91
▁BSEO00 91
· 한국
▁미 쳤다.
▁선 고를
▁김 봉
▁출신 지
▁바 이크
▁길 가
▁디자인 으로
k e
▁우 산
▁피 우
▁대미 지는
▁능가 하는
았 는데
▁뿐 인
두 근
▁기자 들이
▁웃 으면서
▁A ng
▁죄 수
▁195 0년대
세 력이
▁미 화
▁안 좋
▁학 자
▁오른 쪽으로
한 다며
▁점 쳐
▁옆 의
▁하락 세를
연 기
▁하 의
▁" 지역
귀 한
▁아 에
▁우 습
▁두 각을
▁아이 즈
▁편안 하게
▁명실 상
▁삼 을
학 번
▁저항 을
다 카
렉 스
왕 ,
▁청 각
▁옥 스
▁휘발 유
발 은
▁사 사키
▁만들 었다는
▁비판 하고
공 사와
오 .
▁책 으로
▁슬 러
▁걸맞 는
▁마 에다
20 일
▁외 관
▁Th is
7 일
▁코 앞
▁시작 하기
▁보수 적인
4 10
▁193 4년
▁멜 라
▁ ac
▁5 승
▁가능 했던
▁조직 에
▁여고 생
▁해 경
▁환 기
▁안 산시
▁기술 ,
▁정치 권의
천 리
▁M on
하겠 다”고
▁장애 물
▁여러분 께
가 도
▁방 글라
/NNG+ 가/JKS<|endoftext|>
▁창 녕
▁동물 보호
소 울
용 지
▁중앙 대
▁GT X
시 장과
▁넘어 섰
들 .<|endoftext|>
▁여러 분의
▁객관 적인
’ 과
▁포 부를
▁직 관
스터 가
▁폐 허
▁빨 려
▁여겨 지는
▁마땅 히
그 레이
▁ op
▁경 이
▁면 적이
▁25 6
이즈 미
▁등 에서도
▁5 .0
▁저 조
▁죽 어도
▁허 경
▁뿐 이라고
통합 당
학교 의
▁쓸데 없는
▁황 정
▁운영 된다.
▁탄 환
▁인도 적
▁모험 을
▁필사 적으로
E ST
▁부 정한
▁우 체국
▁사망 한다.
▁항 모
▁대화 에
( 만
려 다가
링 과
▁계 양
▁대 패
▁의 병
▁( 대사관
▁사무 실에
id a
▁지난해 에
대 화
▁지 석
2년 에
▁나타 내고
▁6 조
▁분석 됐다.
▁시스템 과
▁구속 됐다.
▁강 연을
극 본
▁체 제의
-0000 23
▁F ran
▁함께 ,
▁상품 으로
▁순조 롭게
▁원 한다면
▁천 정
지 대에
▁베 풀
▁적용 이
▁카리스 마
▁거 물
▁한진 해운
( 29
▁2 면
▁사라 진다.<|endoftext|>
▁KBS 1
▁경기도 의
▁권 위를
▁N X
▁3 편
▁앞 면
▁복 권
-0001 03
▁제출 할
▁시 몬
▁타임 스
라 "
▁성 도
▁2 타
▁' 애
▁향 토
▁전 장에서
▁홈 경기
▁7CT_00 44
죠 ?<|endoftext|>
▁수준 .<|endoftext|>
▁달려 들
▁가브리 엘
▁본 관은
▁국가 들의
▁만들어 지는
▁프로젝트 에
▁8 0년
▁날 개가
▁다룬 다.
▁성 은
▁분류: 프랑스의
▁I BM
카 카오
-0001 17
▁고 질적인
▁도 매
▁11 만
-0001 16
▁궁 지에
▁묘사 한
출 장
▁기준 금리를
▁배 는
▁W ii
▁회사 인
▁외 엔
▁시작 은
-0001 04
▁갔 던
P 를
댄 스
▁당 했다고
▁O <|endoftext|>
B D
일 제
. 99
▁수준 까지
▁없었 다"며
▁초 점이
▁집중 되고
▁비주 류
읍 ,
... ?
▁즐거 워
탈 을
▁나왔 는데,
A )
-00 44
▁방송 되는
먼 은
▁기업 가
frac {
5 70
▁6 기
▁입 는다.
▁핵무 기를
▁고 모
▁무 장을
▁활용 하고
▁쓰 였다.
빠 른
과학 수사
강 과
-00 55
▁금융 투자
の で
▁A 씨와
▁이 계
▁+ 15
l t
▁취 하지
문 학과
▁고 도의
▁따 를
▁목 재
▁등장 하는데
▁롯데 의
▁대 검찰청
▁돌아다니 며
징 계
▁이 양
▁구 세
( 부
▁Wh at
▁위치 한다.
▁인 권을
▁안 건
교육 지원
▁후반 에는
▁달아 났다.
▁테 리
▁농 담을
( 장
생 명은
▁3 에서
▁충 고
▁개발 했다.
▁국정 조사
▁둥 글
간 은
▁제 철
▁T ri
▁제주 특별자치
▁바 빠
▁교 단
▁장르 를
▁공격 속도
▁물 로
▁검 사의
(1 )
요 하게
▁세 키
▁공약 으로
▁시 어
> 의
회 피
러 ,
▁동 두
.7 5
▁경 선에서
▁항 쟁
▁기간 동안
▁이것 으로
브 란스
▁부 득
▁가지 /NNB<|endoftext|>
5 000만
▁배 의
▁0 %
▁스테 이션
▁이동 속도가
▁플러 그
▁" 금
▁' I
▁저 상
▁항 생
▁극복 할
▁소 리와
▁결 의를
짐 을
▁' 투
▁참석 하지
다 던가
▁이상 이면
▁결정 된다.
▁의미 도
하되 ,
체 포
▁토 막
▁198 9
▁배우 의
4 90
맥 주
아 산
▁의 회의
▁노 랑
▁입 혀
▁# 1
▁됐 고
▁데려 온
복 ,
▁노력 은
환경 이
▁무지막 지한
▁논 술
▁급 상승
뷰 티
타 격
▁포 를
▁스포츠 동아DB
▁인지 하고
퇴 를
▁외 주
▁채 우고
▁좋은 데
▁현존 하는
▁우주 선
▁전투 력이
▁그 었다.
(현지 시간)
▁확정 되었다.
▁추정 하고
▁지배 를
▁신생 아
▁- -
▁폐 막
▁무난 히
라 지
▁올 바
▁애 도
▁열린 다.<|endoftext|>
▁홈 경기에서
▁보 레
▁페 인
▁파 벌
▁패 밀
▁전북 은
▁개개 인의
바 키아
▁대 국
▁키 르
▁춘 천시
▁없 으나,
▁불 은
▁아오 이
프라이 즈
▁그 던
▁실 증
▁배우 이다.
▁동료 로
' 만
▁같 으면
▁사람 만
▁퍼 시픽
사 범
▁주 체가
▁7CT_00 41
▁이곳 의
▁모 방
▁느 슨
▁맨 유
▁사용 하기도
▁발표 한다.
▁의무 화
▁팩 션
▁2배 로
▁불확실 성이
▁제너 럴
. 50
▁부 는
▁조선 총독
▁관 동
▁열 리지
▁네 타
▁학교 와
▁부산 국제
▁( Lv
▁잠 들어
나라 가
▁일 가의
▁이 노우에
▁지방 자치
담 은
▁0 이
▁박 선
▁' 청년
▁언 뜻
▁P ark
▁노래 의
▁한때 는
▁BTAE02 02
▁안 쓰
▁탁 월
▁BSAE02 02
/ 20
▁바 실
▁희생 플라이
▁이기 면
▁높 이가
▁독립 된
5 90
였 는지
▁자 켓
▁B 조
▁맛 볼
▁희생 을
▁추가바람 <|endoftext|>
5 80
됐 는데
섭 의
▁그 들과
▁3 164
▁성 질을
▁ 졌다.
▁금지 하고
▁밀레 니
소 추
▁노 이즈
▁속 삭
▁가이드 라인
▁S V
▁돌 봐
▁비용 으로
▁과징 금
▁농 사
" '
통 한
▁수 와
▁가 며
▁보 자.<|endoftext|>
▁고 자
▁재 기
▁증 세를
▁견 제를
▁판결 했다.
▁달 릴
▁확인 되었다.
▁보이 면
▁캐나다 의
▁그중 에서도
.4 %,
▁깨달 은
▁니코 니코
경 제를
▁내 주며
▁개입 한
▁ っと
▁추 는
▁만들 게
▁이 북
▁대 적
▁분류: 독일의
자동 차는
m l
▁무 수
위원 을
st yle
▁대법 원이
▁강경 화
처 리를
▁감 고
▁백 승
▁개선 된
▁캡 쳐
▁5 세
▁막 말
▁전통 시장
▁창작 물
▁부족 하다.
▁드립 이
▁국내총 생산
▁주 루
광 의
도 /JX<|endoftext|>
받 았던
▁I OC
드립 니다.<|endoftext|>
▁6 %
▁애 칭
▁케 이지
▁상무 는
▁아바 타
▁미쓰 비시
▁세 수
▁따 름
▁매 끄
▁영화 ,
▁전체 에게
▁ 았다.<|endoftext|>
메 드
▁외 국의
▁자존 심
▁3 40
▁구조 의
▁감사 원
▁BSEO03 39
▁벌어 진다.
▁BTEO03 39
주 기를
에서 야
▁교 사의
▁징 병
▁카메 라가
( 파
부 리
▁성 악
▁김 여
▁40 만
▁중앙 일보
▁라인 업을
▁바이러 스가
▁' 임
▁동 물이
▁루 피
▁사랑 하고
▁운 명이
▁루 이지
▁원 룸
▁볼 티
▁조사 하는
▁사냥 을
렸 다"고
성 동
▁기 온은
▁여 왕의
▁노력 해
▁컨셉 을
항 은
▁발 암
▁탄 도
▁반영 하는
▁스파이더 맨
▁비공 개로
▁서 점
▁기술 인
▁드러 낸다.
크 림
▁유 교
▁명 장
혐 오
▁5 세대
▁뿐 이
▁한정 된
▁미사일 이
▁김기 춘
▁이병 헌
▁닛 폰
▁' 레
되었 습니다.<|endoftext|>
▁바른 정
▁산 란
▁소비 가
리 더
▁일 원이
-0000 26
▁성장 세를
▁파트너 십
▁낮 지만
제 3
▁4 터
-0000 11
▁절 규
▁불법 으로
▁튀어나 온
▁제 이크
▁알 릴
기관 에서
▁소비 자에게
기 일
츠 <|endoftext|>
피 싱
네 시
▁덕 수
▁옹호 하는
p ,
」 의
▁없 다시피
▁역 관광
▁죽 었다고
▁좀 비가
▁BTHO03 88
▁분류:19 2
▁비서실 장
황 의
▁공짜 로
샤 를
▁예 선에서
▁머 무는
▁압 구
통신 에
▁미 묘하게
▁판 명
▁국회의 장
▁하 네
▁선두 를
콤 보
▁노 조의
▁채 보
▁이미 지와
▁존재 .
▁자리 에는
▁안 전에
▁거의 /MAG<|endoftext|>
▁지도 부는
▁대 졸
▁불 능
▁F em
▁소환 된
▁운전 면허
▁증권 사
▁' 허
▁따 냈다.
안 내
웅 이
▁' N
▁내 줬다.
▁잡 혔
▁나라 로
되 자,
▁게 리
연구 소는
▁BSHO04 32
▁BTDO02 75
▁BSDO02 75
/ 8
▁반 으로
▁0 .1%
▁K N
▁예정 이었으나
▁BTHO04 32
▁토 목
▁슈퍼 스타
▁갈등 은
▁N BC
▁이회 창
목 표
▁사 역
▁멤버 는
▁낮 다는
’ (
석 한
▁1 개의
() 라는
▁사망 자가
▁시 도는
▁좋 으면
▁간 행
-0000 45
▁용 맹
▁금융 권
▁추락 한
▁세계 일보
▁자 와
▁캐릭터 들은
▁안전 관리
▁일러스트 레이터
중 일
▁이 르고
▁대 통합
▁다음날 인
▁성 실히
▁실 점을
▁C ity
▁너 프를
▁터 지면서
▁발사 한다.
▁18 세기
▁전투 력을
▁지속 시간이
2 리
스 킨
▁송 정
▁멀 히
▁분위 기로
▁BTEO00 78
▁BSEO00 78
개 와
성 '
-0000 65
▁Sum mer
바 인
▁손 질
▁오타 쿠
탄 ,
▁형 인
▁플레이 로
▁하나 라도
▁추가 되는
▁향 한다.
▁제3 회
▁픽 업
▁유 익
▁통 로
▁포 효
▁안타까 워
▁정동 영
6 개월
지 식
▁미 사키
▁생 을
▁M aster
▁스크 래
해 달라는
▁E lect
▁밑 의
▁유가 증권
▁내걸 고
▁회고 록
▁코 스를
▁론 칭
▁코칭 스태
총 괄
▁군 포
-0001 02
▁퍼 진
▁아 킬
▁섬 세
▁넷 마블
▁행 운의
▁모습 의
▁응 원을
▁2차 대전
▁시행 할
개발 을
▁선출 된
브 ,
▁1 무
▁결 산
▁레 저
▁앨 리
▁데뷔 했다.
▁A4 D4
▁이적 분류:
화 되면서
▁보 다가
▁찾 게
▁비고 <|endoftext|>
▁강 압
▁아이템 의
내 기도
트 리스
▁정보 의
버리 고,
카 드의
필 리
▁두 렵
▁먹 어도
▁기 조를
▁끌어 모
▁이슈 를
관 인
▁송 신
▁BTHO01 29
▁BSHO01 29
정의 당
▁도 장
▁대안 으로
되 나
▁브레이 커
▁도 난
-0001 15
▁조성 하는
▁굴 욕을
이므로 ,
▁민주평화 당
국 가의
▁G old
▁학교 법인
보 리
▁일 갈
▁알 프레
▁시설 에
▁5 시간
▁5 경기
▁강 해서
▁BTHO01 26
▁BSHO01 26
▁쏟아 부
▁미니 시리즈
▁폭탄 이
▁스펙 트럼
▁곤란 한
▁경복 궁
▁야 채
르 르
▁오 페
▁몰 라서
▁곧 이어
▁좌우 로
▁일 "이라며
▁타 선을
▁끝 없는
▁나섰 다.<|endoftext|>
▁종업 원
z e
엔 젤
▁나 들이
▁' 꽃
▁' 현
▁많 다
점 프
▁8 회초
· 판매
▁10 주년
▁20 6
▁D ance
▁파견 된
현 에게
▁지 침을
▁찬 사를
▁드리 블
판 <|endoftext|>
▁대 승을
▁통신 은
▁함 대를
▁굳 은
▁유리 하다.
▁" The
▁높 았던
스턴 트
▁인 류를
▁도 미
▁기록 했고,
▁렉 스
▁오후 에
(...) 을
▁공 로
▁7CT_000 8
( 03
했 어요
▁않 다면
▁중요 하다는
리카 와
▁SK텔레콤 은
인 들과
▁E m
▁분쟁 을
- X
▁아 처
▁' L
▁상 권
스트 ,
▁늦 추
▁레이저 를
▁하도 급
▁구독 자
장 치가
▁달리 기
▁높을 수록
▁Col le
▁우 위
▁실 태를
-0000 36
▁과 장은
▁진행 되면서
생활 에
람 이
카 트
▁공 소시
▁어이 없는
▁한국 거래
▁T op
▁도망 치는
▁소득 을
데자 네이
▁구 절
▁멤버 인
·· ·
▁전환 이
▁193 1년
좌 파
▁되 던
▁키 우기
▁제공 되는
▁부 장은
▁연기 대상
▁고 공
▁노 량
▁토 착
▁15 일에
대표 가
▁d ay
▁( 주
▁추가 했다.
▁늘 린
공 신
러 로
▁F .
▁평화 로운
▁형사 처벌
▁kt 는
▁d es
▁닉 네
▁중 2
▁직 전의
▁계획 대로
▁마 티
레이 션을
▁태 권
-0000 49
▁J YP
▁전달 하고
당 한다.<|endoftext|>
▁스 며
플레이 오프
▁사건 이다.
▁"요 즘
각 형
▁열 기로
▁글 자를
▁통계 청
▁연 신
▁빚 고
▁받 도록
▁S G
▁제 23
▁준 우승을
▁난 감
▁표현 으로
▁활약 하는
▁시달 리고
▁후 엔
▁민주주의 의
▁연 막
▁프로듀 싱
인사 이드
▁3 )
▁마 야
▁증가 합니다.<|endoftext|>
▁보 일러
▁난 다.<|endoftext|>
벨 의
▁서 른
▁잡 는다.
▁엄 중한
▁서울시 립
▁킹 덤
▁무한 한
▁' 방
-0000 39
▁경쟁 에
▁6자 회담
기 정
수 비
▁심 장이
▁테마 로
▁구 명
▁런 칭
▁코미 디언
▁이 남
t ain
▁작 사,
▁못한 다면
▁월등 히
▁호 조
▁"이 를
▁사라 졌다.<|endoftext|>
▁의무 적으로
▁'대 통령
▁' 차
▁무기 한
방송 이
▁쾌 적
▁업그레이 드가
▁평상 시
▁활약 하고
▁종류 는
▁임명 되었다.
▁오래 전부터
▁시대 에는
▁"미 국이
▁대표팀 의
▁보 성
컨 벤션
▁대체 하는
▁복귀 했다.
(1 만
▁* 200
병 원의
▁조 정이
▁핵 탄
▁시민 들을
▁타이밍 이
▁초래 할
▁신 예
▁개발 할
▁고려 하여
▁창조 경제
튼 의
▁H .
▁검토 한
고 문
세 력의
주 곡
기 면
령 과
죄 가
of t
▁공격 하면
0년 )
▁6· 13
▁평가 된다.
유공 자
버 리기
▁추가 한
▁바이올 린
▁윤 곽
▁일주 일에
▁시즌 은
▁홈 플러스
▁시 에서
▁고 노
▁부 메
▁어 내는
▁후 자는
▁모델 이다.
▁프로젝 트는
▁현실 이다.
▁스스로 도
▁오염 된
) "<|endoftext|>
3 .
공 단은
▁( 大
▁교 부
▁입 수한
am es
km 의
▁미 터
02 년
▁디 오
▁국정 운영
▁내 부를
-0001 18
▁가지 지
▁펜 실
▁오스 틴
테 는
▁비교 가
▁술 집
▁꼭 두
나 갔
▁" 배
▁공 의
▁비 호
▁치 른다.
시키 거나
▁발전 이
▁2010년 에
( d
▁100 00
▁헌 병
시 대를
▁기 온
in '
거리 에서
▁' 치
하이 오
드 라이브
▁C y
ar ch
▁이동 한
▁의견 은
▁올림픽 에서
8 일
▁루 스
▁가족 들을
▁풍 선
▁역임 한
오 며
현 에
▁도 화
▁가담 한
샤 가
▁연이 은
익 이
▁보아 도
▁진 실이
▁청구 했다.
▁권총 을
중 에는
▁중 이며
▁별 개
캐 롤라이나
▁장비 는
▁근로 기준
초 는
▁J ust
'( 감독
▁피에 르
▁기 에
▁신 성한
▁임 의의
▁기관 지
민 턴
▁제 명
▁그때 는
▁펴 낸
▁생 기지
부분 에
▁지속 되는
▁무 안
▁수준 이다.<|endoftext|>
▁고백 을
2 는
x x
▁친 밀
-0000 88
▁부진 으로
입 국
.6 %,
▁머 리와
▁착 지
▁오브 젝트
▁핑 계로
▁종전 선언
▁가 한
▁카 무
▁비교 했을
▁KB L
▁김포 공항
▁보 스는
▁인 출
시 위
▁- 원<|endoftext|>
▁들 린다.
▁순 례
▁성 모
▁작품 .
▁찍 으면
▁전 현
▁일 어서
▁유 수
▁승 기를
▁21 :
어가 고
▁아우 구
법 무
출 혈
▁자유 로
▁조성 해
▁건너 가
s )<|endoftext|>
▁구 타
▁빵 을
▁' 군
▁' 디
03 년
▁감독 에게
▁25 일부터
▁증 시가
▁2017 .
▁시도 했다.
▁해소 하기
망 은
▁범죄 가
▁나루 토
▁급 제
▁기념 하는
▁시설 물
▁애초 부터
▁노태 우
▁제각 각
▁별 명으로
스럽 다"고
▁제20 대
▁그 닥
▁조 업
▁레 닌
に <|endoftext|>
주 머니
▁장점 이다.
▁붙 였다.
▁8CT_00 12
▁과거 가
▁이 불
▁2 종
▁상태 에서도
▁검사 장
당 인
두 ,
▁관 저
▁서 사
▁포 스를
▁구조 는
.9 %,
▁꼽 혔다.
▁갈 려
▁봤 는데
▁투 어를
▁핵실험 을
7 명
달 리
화 하여
▁기 정
▁의 사는
▁안 영
▁판 이
▁치 뤄
▁현실 로
▁of f
▁오브 젝
카 도
▁정 영
▁D igital
▁O LED
구 경
되 긴
천 안
▁조 미
▁교 착
▁것으로 도
▁아군 에게
▁전화 통
▁연합 군
▁6 시간
▁못 하기
했 어요.<|endoftext|>
▁1 화에서
▁C L
.: <|endoftext|>
▁오징 어
▁떨어 지면서
▁기념 식
▁3일 간
▁생명 력을
▁귀 농
▁음악 적
▁열 차는
▁공개 해
▁부당 하게
▁부수 고
▁돌 리
▁깨 뜨
▁위험 성이
▁마 셨
▁관계 도
▁연방 준비
브 르
육 성
▁살 림
▁가 에
▁거 취
▁참여 가
▁봄 이
▁정부서울 청사에서
정책 이
바이 러스
▁로 페
▁기대 했다.
▁처벌 이
▁풀 어나
▁핵심 적인
▁산탄 총
쉬 의
▁것 인지는
▁말 하지만
이었 다
자들 로부터
▁관리 할
▁본 디
▁브 셀
▁7CT_00 34
▁반 정부
▁줄 임
▁출마 한
구 만
시 네마
▁경 순
▁활 기
절 대
▁2 초
▁마 징
▁뭐 ,
▁바라 본
▁경제협력개발 기구
▁' 블랙
내 로
보 존
시 행
▁했 더니
.6 2
▁컨셉 으로
▁서식 하는
12 일
▁수석 의
▁ 았다는
▁소 를
▁전신 인
▁제 의를
▁2011년 에
/ L
▁우승 자
▁색 으로
▁튀 김
▁'201 9
▁텔레 비
이 름
(이 상
▁있 지는
▁더 미
▁따 지자
▁돌 출
▁증 세
▁빌 어
▁(201 5
▁민족 주의
▁복지 부
▁이스탄 불
▁정 했다.
▁의 지로
▁8 시간
▁도입 하는
과 <|endoftext|>
▁영입 한
▁심 은
id ae
▁슈 팅을
EM ANI
▁발렌 시아
라 인의
▁선 한
▁리 지
-0001 14
▁정교 한
▁다 리에
▁구 단이
▁못 하지만
▁못 했기
-0001 13
▁엘 더
▁내려 앉
B E
▁남 성과
14 일
▁찾아 보
뮤 지컬
조 원을
▁전자 상거래
▁양측 의
▁대 만의
▁" 청와
▁특수 부대
▁다 면
▁입장 에서도
▁카운 티
▁진 전이
▁원 문
엑 스포
▁편 인데,
▁히 고
▁천 마
▁한편 으로
▁이야기 .
, 0
▁생명 과
▁차량 과
▁해 밀
▁간 다고
▁머 리는
▁분류:영 국의
시 경
사 이즈
파 르
▁성공 한다.<|endoftext|>
▁무기 징
▁5 가지
▁16 00
▁일 진
▁서 너
▁원 리를
▁파 나마
▁허 다
▁글 에
▁난 해
▁100 억
포 털
▁수 사와
▁부 대는
▁넘 사벽
▁봉 화
▁내려 갔다.
▁부 정부
▁승 <|endoftext|>
▁등판 한
▁D T
il ity
▁BTHO04 05
▁울산 광역시
▁10년 이
sv g|
a ul
▁기 해
▁사용 가능
▁동일 하다.<|endoftext|>
P 의
꼬 리
▁맵 에서
논 의
▁" 삼성
▁성장 해
▁되 거나
▁질 책
▁워낙 에
▁효과 와
16 일
▁중 으로
▁자동 화
▁아 멜
▁Conne ction
기 밀
▁박 철
▁외모 와
▁있 듯
▁고 소득
▁최고 로
왔 고
▁주 임
▁선생 은
▁3 권
▁시작 했다고
▁' 분
▁번 영
▁상황 "이라며
▁해결 될
▁초·중 ·고
/ 초
▁2 화
▁진 성
시 다.
활 용
▁준 다고
▁복 직
▁발견 돼
▁센 티
B ,
비 용이
▁마 나를
▁들어오 지
en e
▁분명 하게
P 가
퍼 레이션
▁앞 다
▁점유 율을
u el
▁유 모
▁엄청 나
▁끌어 들이
▁명중 률이
A V
– 0
01 1
▁의혹 은
조 달
▁충돌 을
종합 운동장
▁점 진
▁2016년 부터
▁이벤트 에
▁취임 <|endoftext|>
▁비율 로
· 감독
후 지
▁보 수를
노 키
사 례
암 은
▁요 소는
▁8 %
▁것처럼 ,
▁중 등
▁추진 하기로
▁암호 화폐
칼 리
▁동 탁
▁재 구성
▁활동 하던
-01 3
▁빙 결
▁'스 마트
▁게 ,
▁회 유
▁2008년 부터
권 익
▁군 대의
은행 에
▁ 었
해 제
▁주 전으로
▁자릿 수
▁절 로
.3 %,
▁사례 다.
▁게시 물
▁지내 던
▁모 시고
▁T W
▁출발 하는
▁강요 하는
▁그제 서야
’ 고
▁평가 에
▁시리즈 로
▁구축 하고
▁날 린다.
▁가족 ,
▁" 위
▁서울 특별
▁정리 하고
▁영 락
▁공개 를
▁공 군의
▁고 가의
▁방 관
▁죽 었을
at ive
어 찌
▁곡 이다.<|endoftext|>
▁사 연이
▁들어 야
er m
▁마시 며
▁남경 필
▁이 블
▁신 관
▁긴 장이
▁감소 로
▁끊 은
▁성격 과
학 사
▁현 금을
▁행 방을
▁센 스
요 코
▁마 사키
▁고 온
▁선 뜻
▁토 탈
▁지원 하지
▁내려 가는
▁신흥 국
▁할지 라도
▁넘 으면
▁넘 기고
▁되었 기
▁점령 한
▁2 /3
▁회 견
▁위기 에서
경 보
▁피 살
▁임 페
단 지가
배 는
▁본 회의를
▁북한 산
▁국가 들은
▁이사 회를
스페 인
클 러
항 만
▁받 기로
▁패 를
▁사업 가
▁노력 에
▁보조 금을
▁어 업
▁서 치
▁있어서 도
▁원칙 으로
▁죽어 가는
드 리고
였 으니
슨 과
▁김 범
선 )
▁4 호선
▁임 재
터 키
▁의 전
▁지도 자가
협 회에
▁교 직
▁구성 은
▁이 청
▁더 럽
▁트위터 에서
▁심 리로
▁빠 진다.
항 으로
▁우승 팀
▁(M BC)
▁닛 산
▁Rem ix
지 아
▁세 츠
부장판 사
▁삼 진을
▁문 무
▁충 성을
▁7CT_00 45
▁따라 붙
▁중국 에서는
▁당시 는
▁풍 성
C 의
▁독 자들이
▁친 노
▁12월 까지
▁알 몸
▁것이 냐
하다 ,
▁대화 와
▁2개 가
▁A ,
▁긴 밀히
▁BTHO01 16
▁BSHO01 16
▁사라 지게
▁콜라보 레이션
▁유 추
▁괴롭 히는
▁지혜 를
문화 재단
▁리 코
▁부인 하고
· 교육
▁점 프를
▁불쌍 한
▁200 m
▁V al
▁북 중
▁정보 에
▁( 17
.7 %,
▁** **
▁쥬 얼
▁플레 임
▁풍 요
▁1위 인
▁시키 고
▁제7 회
C ,
ER O
▁싸우 다가
퀘 스트
분류: 199
▁치료 제
중 대
▁아이스 하키
▁초 까지
▁우려 하고
▁갤 럭
op le
▁찌 질
▁것 이라면
▁등장 하기
▁기록 으로
-0002 03
익 스피
▁아 루
▁많았 지만
▁최적 화된
▁헤 엄
▁떠올 랐
상 (
▁성 숙한
▁대결 이
▁싸워 야
U E
패 치
▁" 차
▁오 현
▁G od
▁빌 미로
▁케네 디
독 재
▁공격 도
▁제일 모
하 단
때 의
▁한 유
▁알 비
▁데미 지도
▁웨 폰
공간 으로
조 사가
▁바 다가
- EN
식 사
합 리
▁사용 된다.<|endoftext|>
▁대통령 으로
▁철 학을
▁떠 서
▁내 쫓
▁키 웠
▁허용 하지
( 에
S 는
▁구 석에
▁독 거
▁수호 자
▁의존 도가
상 품을
▁프로 축구
나 우
201 6
▁선호 도가
▁지자 체가
▁가 문이
▁건강 하게
달러 에
▁왼 쪽으로
▁설 날
▁극복 하기
▁석유 화학
너 와
득 점으로
▁" 또
▁문제 에서
▁법 안은
▁먹 이는
▁극 장에서
▁묘 지
▁엠 넷
▁교통사고 로
중 .
▁하 든
▁벌 금을
▁알아 볼
▁10 :
▁홍 문
▁희 박
▁맥 주를
급 히
물 고
탄 생
▁서울 지방경찰청
-0001 25
__03 /MAG<|endoftext|>
▁4 00만
▁만 점
/S S<|endoftext|>
-01 7
▁책임 자
▁ und
▁‘ 이
b um
▁성 기
-0000 99
▁" 국제
승 ,
▁' 난
▁지식 과
수학 능력
▁기록 이다.
▁자연 을
▁갑작 스런
어 인
▁올 시즌
▁경쟁 률을
▁뉴욕 의
▁나이트 메
▁약 세를
이드 가
▁2개 ,
▁아름다 움을
벽 에
▁구 강
▁국가 보안
▁소프트 뱅크
▁조항 이
▁원 심을
붕 괴
▁네 놈
▁시절 인
▁상 여
▁승 급
▁식 이
▁1 에서
▁브 라이
▁Pro ject
▁주목 하고
▁장면 으로
▁아파트 에서
▁범죄 자
▁대륙 의
▁찰 리
방 지법
카 제
▁따 르고
▁루 리
▁10 일부터
▁명 작
▁확보 가
▁국방 부가
▁금호 타이어
▁타 게
▁활동 했던
▁오 즈
-0001 24
▁웃 돌
▁선발 투수
▁뿌 린
▁가계 대출
간 ,
스 부르크
하 나가
▁S he
▁코 치로
▁생각 한다.<|endoftext|>
▁생활 의
▁쌍 용차
▁요시 노
▁2 일부터
▁비 위
지 므로
▁오 영
▁불 안을
▁경제 ,
소 문
▁세 자
▁반 감을
▁참고 인
▁상위 호환
▁서해 안
▁신 라의
▁오 류를
▁계 룡
▁어느 덧
▁과거 로
▁마련 하기
▁초 유의
▁예정 이며,
▁항목 이
▁경희 대
▁대 청
▁09 월
L PGA
▁하지만 /MAJ<|endoftext|>
국 이다.
▁조 로
▁오 면서
▁B .
▁떠 들
▁청년 이
했 다"는
▁' 산
▁로 제
-0001 12
▁풀 기
▁발견 되었다.
▁중앙 선
▁갈등 과
▁며느 리
▁국 수
▁' 조선
▁적 들의
▁별 칭
▁분리 된
▁모 셔
▁복 역
▁잔 혹한
▁촉구 하고
▁바 흐
해야 하는
▁달라 졌다.
▁싸운 다.
6 일
됐 는데,
저 장
▁연 립
▁들어 섰다.
▁질 질
▁영 산
▁롯데 가
▁ 으면서
각 에
▁공 과
▁밝 게
▁됐 지만
▁붙여 진
▁제 22
▁카드 에
▁공 로를
▁5 만원
▁로 키
▁하 태
▁자 바
▁조 처를
▁김 에
▁가장 __01/MAG<|endoftext|>
▁색 의
▁운동 은
천 면
▁갈등 의
) '의
/ 15
화 성
희 <|endoftext|>
해 버리는
▁제 사
▁돈 도
▁혈 관
심 ,
▁올라 섰다.
계획 에
▁스크 립
▁ST X
▁충 원
▁디 스코
▁거론 되는
▁포르 노
▁추천 하는
▁스케 치
▁등 용
▁포 션
해야 할
▁보도 했다.<|endoftext|>
▁힌 두
▁식 재
방송 은
▁그 간의
▁번 호는
▁경기 로
▁트렌 드
▁고 압
▁포 리즘
▁맵 에
▁세종 문화
(오 른
가격 은
요 "
▁해 보고
▁원 피
▁탄 산
▁협박 을
▁폭넓 게
▁이데 올로
▁형 상을
▁공감 대를
▁과감 히
슬 레
▁사 스케
▁제공 했다.
▁KB 금융
프 레이
▁수 분
▁보 듯
▁진행 에
C O
▁ 린다.
남 ,
슈 트
▁9 0년
▁링 크를
전쟁 이
▁비 에
▁들 통
▁참 지
▁BTEO00 77
▁BSEO00 77
▁참가 를
▁쏘 면
구 .
▁해 명을
▁기다 리
한 다'는
▁서 리
__08 /NNG<|endoftext|>
9년 에
▁접 하고
▁100 대
▁출연 진
▁보험 료를
▁주먹 으로
실 장,
▁대답 했다.
▁일회 용
▁정 오
▁말 에는
▁이루어 진다.
▁미 정
▁결 함
▁추 도
▁서버 를
▁사건 ,
▁돈 의
▁성동 구
▁B aby
지 (
▁처 지에
▁맡 길
▁깨 이
▁이지 스
6 명
▁공간 은
▁남북 이
▁펼쳐 졌다.
▁배터 리를
더 라<|endoftext|>
▁사람 인
▁골 짜
▁사고 에
▁종교 의
창 ,
▁퇴 진을
▁자연 히
▁안 다"고
▁정부 세종
▁엔 진의
▁예정 이었다.
▁2차 전에서
▁이따 금
▁개 나
▁지원 금
요? "<|endoftext|>
▁충 당
▁7CT_00 03
▁장비 의
▁모자 란
▁NH 농협
▁문 법
▁불가 리아
인지 도
25 일
▁역사 학
▁울산 시
아 로
혜 원
▁종 의
▁G R
▁러시아 를
▁버금 가는
경 주
▁명의 의
지 에게
▁문 에
▁16 :
▁통과 하는
' (이하
▁관심 도
▁작용 한
▁호르 몬
길 에서
▁낙 인
▁분류 된다.
봉 의
▁이 분
▁사 명을
▁5 명을
▁안 좋은
▁알 폰
▁2018년 에
▁무기 인
▁198 7
▁의견 에
▁집 단의
▁혐의 는
▁우리나라 가
▁비 엔
▁4 위를
▁김정 숙
~ 100
공 원을
로 프
▁선택 지가
▁소 유의
B O
》 을
▁조 교
▁인정 받은
▁개선 과
▁처 해
▁재 심
▁서울 지방
▁표 시로
▁태어 날
- 이
카 즈
민 일보
▁기 리는
▁클 립
▁2015년 에는
▁애 들이
▁전환 하는
그 리스
▁활동 으로
▁소속 인
▁제3 의
▁추첨 을
▁독 수리
▁대응 해
▁규 슈
▁제거 할
▁BTBZ00 69
▁BSBZ00 69
▁아모레 퍼시픽
▁들 었다고
▁대표 에
▁중요 시
▁서귀포 시
en a
▁6CT_00 44
Z02 20
b all
▁공 보
▁펜 싱
▁모 시
▁국가 안전
▁영 암
▁미래 는
▁불가능 하다는
▁08 월
▁오 르게
▁코 를
u z
되 기는
ar th
시간 대
팔 로
▁부분 만
복 과
적 이었던
니 컬
▁한 목
-000 57
▁대구 ·경북
활동 이
▁전 역을
▁분 자
▁배 치가
▁n ow
봉 은
▁이 공
▁지역 별로
▁BTEO00 95
▁BSEO00 95
▁운행 이
▁분 실
▁수 은
▁김 전
▁들 며
▁레벨 은
▁알았 는데
버 터
운동 가
▁방과 후
▁부 혀
▁위 례
▁설 정한
루 냐
▁정 중
▁4 주
▁버 터
▁애 착
둘 이
-0001 29
▁기능 성
▁통 에
▁흔 들어
▁바티 칸
▁분위 기의
시설 로
▁국토교통 부는
▁도착 할
▁올스타 전
▁중 이며,
▁스 물
▁입 히고
기술 이
” 이라
바 오
숭 이
▁데 이트를
▁5CT_00 43
관계 의
▁4년 제
( !
▁자 루
▁제1 야
▁티베 트
용 역
함 에도
▁판 례
ag ue
관계 자는
극 이
처 분을
▁김 씨를
태 양
▁겨울 에
기 :
▁그룹 은
▁생기 게
▁드 론을
개 방
머 리가
히 고,
▁저 해
▁버 렸다.<|endoftext|>
▁밝혔 다고
▁논 설
-0001 35
-0001 34
▁찌 르는
▁3차 전
▁흥행 에
▁한 계에
▁과학기술 정보통신
▁정보 <|endoftext|>
▁넘어 갔다.
▁문체 부
▁아르메 니아
( 40
-00 20
슬 라비아
▁말 고,
▁도 산
▁권고 했다.
여 단
▁스테 파
▁분홍 색
메 뉴
▁' 핵
▁나타 낸다.
전쟁 을
▁태 도에
▁왕 궁
▁되었 으나
최 순실
▁고 르는
▁B 1
▁M r.
공 예
▁수 첩
▁결국 ,
▁U I
▁블리자 드
열 한
▁알 선
▁정부 로부터
라이 즈
▁결론 은
▁호 리
▁송 병
▁보호 하고
만 인
▁저 자가
▁지금 과
▁증가 를
ン <|endoftext|>
농 민
▁대 정부
▁내년 에는
▁은행 이
▁192 4년
▁부유 한
코 ()
▁아 디
▁다 그
▁올 리면서
방송 의
( 미국
만 과
▁효 능
▁점검 하고
▁차 후
▁문제 "라고
기업 은
▁틸러 슨
패 드
▁중 론
▁신 발을
▁width= 15
▁휘 하
▁결성 된
( 나
▁무 빙
-0000 58
▁송 광
▁일 직
▁승 부가
▁사령 탑
▁유죄 로
간 부
▁보 나
▁B est
▁저 수
2 18
b ps
▁구 가
▁공모 전
십 리
▁기 체의
▁C ap
백 으로
▁width= 150
▁운동 장
▁헬 로
▁a u
▁부르 지
▁수 니
▁실 체를
▁R S
▁height= 15
▁정반 대
▁복 종
-0001 00
-0000 59
한 일
▁기 타를
▁주 립
▁부 쳐
▁4 단계
▁0 .5%
▁쿠 폰
▁부산 ,
▁슬라이 드
쇼핑 몰
▁8 명이
▁누 리고
▁분야 로
관계 는
아 들
▁패 치가
▁업무 가
완 전한
▁헌 납
▁가해 자
▁운영 되는
▁짓 은
▁발동 하는
▁항소심 에서
▁노원 구
▁히 스
▁공허 의
관 객
▁주 문이
13 일
▁전문 가는
▁싸움 은
[...]
