{"<s>":0,"<pad>":1,"</s>":2,"<unk>":3,"<mask>":4,"!":5,"\"":6,"#":7,"%":8,"&":9,"'":10,"(":11,")":12,"*":13,"+":14,",":15,"-":16,".":17,"/":18,"0":19,"1":20,"2":21,"3":22,"4":23,"5":24,"6":25,"7":26,"8":27,"9":28,":":29,";":30,"<":31,"=":32,">":33,"?":34,"A":35,"B":36,"C":37,"D":38,"E":39,"F":40,"G":41,"H":42,"I":43,"J":44,"K":45,"L":46,"M":47,"N":48,"O":49,"P":50,"Q":51,"R":52,"S":53,"T":54,"U":55,"V":56,"W":57,"X":58,"Y":59,"Z":60,"\\":61,"]":62,"_":63,"a":64,"b":65,"c":66,"d":67,"e":68,"f":69,"g":70,"h":71,"i":72,"j":73,"k":74,"l":75,"m":76,"n":77,"o":78,"p":79,"r":80,"s":81,"t":82,"u":83,"v":84,"w":85,"x":86,"y":87,"z":88,"{":89,"|":90,"}":91,"~":92,"·":93,"×":94,"–":95,"‘":96,"’":97,"“":98,"”":99,"→":100,"▁":101,"★":102,"、":103,"《":104,"》":105,"「":106,"」":107,"い":108,"う":109,"か":110,"し":111,"た":112,"っ":113,"て":114,"で":115,"と":116,"な":117,"に":118,"の":119,"は":120,"ま":121,"ら":122,"る":123,"ん":124,"イ":125,"ン":126,"・":127,"ー":128,"大":129,"가":130,"각":131,"간":132,"갈":133,"감":134,"갑":135,"값":136,"갔":137,"강":138,"갖":139,"같":140,"개":141,"객":142,"갤":143,"거":144,"걱":145,"건":146,"걸":147,"검":148,"겁":149,"것":150,"게":151,"겐":152,"겠":153,"겨":154,"격":155,"겪":156,"견":157,"결":158,"겸":159,"겹":160,"겼":161,"경":162,"계":163,"고":164,"곡":165,"곤":166,"곧":167,"골":168,"곳":169,"공":170,"과":171,"곽":172,"관":173,"괄":174,"광":175,"괜":176,"괴":177,"굉":178,"교":179,"구":180,"국":181,"군":182,"굳":183,"굴":184,"궁":185,"권":186,"귀":187,"규":188,"균":189,"그":190,"극":191,"근":192,"글":193,"금":194,"급":195,"긍":196,"기":197,"긴":198,"길":199,"김":200,"깊":201,"까":202,"깔":203,"깝":204,"깨":205,"꺼":206,"께":207,"껴":208,"꼬":209,"꼭":210,"꼽":211,"꽃":212,"꽤":213,"꾸":214,"꾼":215,"꿈":216,"뀌":217,"끄":218,"끈":219,"끊":220,"끌":221,"끔":222,"끝":223,"끼":224,"낌":225,"나":226,"낙":227,"난":228,"날":229,"남":230,"납":231,"났":232,"낭":233,"낮":234,"내":235,"낸":236,"낼":237,"냈":238,"냉":239,"냐":240,"냥":241,"너":242,"널":243,"넓":244,"넘":245,"넣":246,"네":247,"넥":248,"넷":249,"녀":250,"년":251,"념":252,"녕":253,"노":254,"녹":255,"논":256,"놀":257,"놈":258,"농":259,"높":260,"놓":261,"뇌":262,"누":263,"눈":264,"뉴":265,"느":266,"는":267,"늘":268,"능":269,"늦":270,"니":271,"닉":272,"닌":273,"닐":274,"님":275,"닛":276,"닝":277,"다":278,"닥":279,"단":280,"닫":281,"달":282,"담":283,"답":284,"당":285,"대":286,"댄":287,"댓":288,"더":289,"덕":290,"던":291,"덜":292,"덤":293,"덧":294,"덩":295,"데":296,"덱":297,"덴":298,"델":299,"도":300,"독":301,"돈":302,"돌":303,"동":304,"돼":305,"됐":306,"되":307,"된":308,"될":309,"두":310,"둔":311,"둘":312,"둠":313,"둥":314,"뒤":315,"뒷":316,"듀":317,"드":318,"득":319,"든":320,"듣":321,"들":322,"듬":323,"듭":324,"듯":325,"등":326,"디":327,"딘":328,"딜":329,"딩":330,"따":331,"딱":332,"딸":333,"땅":334,"때":335,"떠":336,"떡":337,"떤":338,"떨":339,"떻":340,"또":341,"똑":342,"뛰":343,"뜨":344,"뜻":345,"띄":346,"라":347,"락":348,"란":349,"랄":350,"람":351,"랍":352,"랐":353,"랑":354,"래":355,"랙":356,"랜":357,"램":358,"랩":359,"랫":360,"랭":361,"략":362,"량":363,"러":364,"럭":365,"런":366,"럴":367,"럼":368,"럽":369,"렀":370,"렇":371,"레":372,"렉":373,"렌":374,"려":375,"력":376,"련":377,"렬":378,"렴":379,"렵":380,"렸":381,"령":382,"례":383,"로":384,"록":385,"론":386,"롤":387,"롭":388,"롯":389,"롱":390,"뢰":391,"료":392,"룡":393,"루":394,"룬":395,"룰":396,"룸":397,"룹":398,"뤄":399,"류":400,"륙":401,"률":402,"르":403,"른":404,"를":405,"름":406,"릉":407,"리":408,"릭":409,"린":410,"릴":411,"림":412,"립":413,"릿":414,"링":415,"마":416,"막":417,"만":418,"많":419,"말":420,"맛":421,"망":422,"맞":423,"맡":424,"매":425,"맥":426,"맨":427,"맵":428,"맹":429,"맺":430,"머":431,"먹":432,"먼":433,"멀":434,"멈":435,"멋":436,"멍":437,"메":438,"멘":439,"멜":440,"멤":441,"며":442,"면":443,"멸":444,"명":445,"몇":446,"모":447,"목":448,"몬":449,"몰":450,"몸":451,"못":452,"몽":453,"묘":454,"무":455,"묵":456,"문":457,"묻":458,"물":459,"뭐":460,"뭔":461,"뮤":462,"므":463,"미":464,"믹":465,"민":466,"믿":467,"밀":468,"밍":469,"및":470,"밑":471,"바":472,"박":473,"밖":474,"반":475,"받":476,"발":477,"밝":478,"밤":479,"밥":480,"방":481,"배":482,"백":483,"밴":484,"밸":485,"뱅":486,"버":487,"번":488,"벌":489,"범":490,"법":491,"벗":492,"베":493,"벤":494,"벨":495,"벼":496,"벽":497,"변":498,"별":499,"병":500,"보":501,"복":502,"본":503,"볼":504,"봄":505,"봇":506,"봉":507,"봐":508,"봤":509,"부":510,"북":511,"분":512,"불":513,"붉":514,"붕":515,"붙":516,"뷔":517,"뷰":518,"브":519,"븐":520,"블":521,"비":522,"빅":523,"빈":524,"빌":525,"빙":526,"빚":527,"빛":528,"빠":529,"빨":530,"빵":531,"빼":532,"뽑":533,"뿌":534,"뿐":535,"쁘":536,"쁜":537,"사":538,"삭":539,"산":540,"살":541,"삶":542,"삼":543,"상":544,"새":545,"색":546,"생":547,"샤":548,"서":549,"석":550,"선":551,"설":552,"섬":553,"섭":554,"섯":555,"섰":556,"성":557,"세":558,"센":559,"셀":560,"셈":561,"셉":562,"셋":563,"셔":564,"션":565,"셜":566,"셨":567,"셰":568,"소":569,"속":570,"손":571,"솔":572,"송":573,"쇄":574,"쇠":575,"쇼":576,"수":577,"숙":578,"순":579,"술":580,"숨":581,"숭":582,"숲":583,"쉬":584,"쉽":585,"슈":586,"스":587,"슨":588,"슬":589,"슴":590,"습":591,"슷":592,"승":593,"시":594,"식":595,"신":596,"실":597,"싫":598,"심":599,"십":600,"싱":601,"싶":602,"싸":603,"싼":604,"쌍":605,"쌓":606,"써":607,"썼":608,"쏘":609,"쏟":610,"쓰":611,"쓴":612,"쓸":613,"씨":614,"씩":615,"씬":616,"아":617,"악":618,"안":619,"앉":620,"않":621,"알":622,"암":623,"압":624,"앗":625,"았":626,"앙":627,"앞":628,"애":629,"액":630,"앤":631,"앨":632,"야":633,"약":634,"얀":635,"양":636,"얘":637,"어":638,"억":639,"언":640,"얻":641,"얼":642,"엄":643,"업":644,"없":645,"엇":646,"었":647,"엉":648,"에":649,"엑":650,"엔":651,"엘":652,"엠":653,"여":654,"역":655,"연":656,"열":657,"염":658,"엽":659,"였":660,"영":661,"옆":662,"예":663,"옛":664,"오":665,"옥":666,"온":667,"올":668,"옮":669,"옵":670,"옷":671,"옹":672,"와":673,"완":674,"왔":675,"왕":676,"왜":677,"외":678,"왼":679,"요":680,"욕":681,"용":682,"우":683,"욱":684,"운":685,"울":686,"움":687,"웃":688,"웅":689,"워":690,"원":691,"월":692,"웠":693,"웨":694,"웹":695,"위":696,"윈":697,"윌":698,"유":699,"육":700,"윤":701,"율":702,"융":703,"으":704,"은":705,"을":706,"음":707,"읍":708,"응":709,"의":710,"이":711,"익":712,"인":713,"일":714,"읽":715,"잃":716,"임":717,"입":718,"잇":719,"있":720,"잉":721,"잊":722,"자":723,"작":724,"잔":725,"잖":726,"잘":727,"잠":728,"잡":729,"장":730,"재":731,"쟁":732,"저":733,"적":734,"전":735,"절":736,"젊":737,"점":738,"접":739,"정":740,"제":741,"젝":742,"젠":743,"젤":744,"져":745,"졌":746,"조":747,"족":748,"존":749,"졸":750,"좀":751,"종":752,"좋":753,"좌":754,"죄":755,"죠":756,"주":757,"죽":758,"준":759,"줄":760,"중":761,"줘":762,"줬":763,"쥐":764,"쥬":765,"즈":766,"즉":767,"즌":768,"즐":769,"즘":770,"증":771,"지":772,"직":773,"진":774,"질":775,"짐":776,"집":777,"짓":778,"징":779,"짜":780,"짝":781,"짧":782,"째":783,"쪽":784,"쫓":785,"쯤":786,"찌":787,"찍":788,"차":789,"착":790,"찬":791,"찮":792,"찰":793,"참":794,"창":795,"찾":796,"채":797,"책":798,"챔":799,"챙":800,"처":801,"척":802,"천":803,"철":804,"첨":805,"첩":806,"첫":807,"청":808,"체":809,"쳐":810,"쳤":811,"초":812,"촉":813,"촌":814,"총":815,"촬":816,"최":817,"추":818,"축":819,"춘":820,"출":821,"춤":822,"충":823,"춰":824,"취":825,"츠":826,"측":827,"층":828,"치":829,"칙":830,"친":831,"칠":832,"침":833,"칭":834,"카":835,"칸":836,"칼":837,"캐":838,"캔":839,"캠":840,"캡":841,"커":842,"컨":843,"컬":844,"컴":845,"컵":846,"컷":847,"케":848,"켄":849,"켓":850,"켜":851,"켰":852,"코":853,"콘":854,"콜":855,"콤":856,"콩":857,"쾌":858,"쿄":859,"쿠":860,"쿨":861,"퀘":862,"퀴":863,"큐":864,"크":865,"큰":866,"클":867,"큼":868,"키":869,"킨":870,"킬":871,"킹":872,"타":873,"탁":874,"탄":875,"탈":876,"탐":877,"탑":878,"탓":879,"탕":880,"태":881,"택":882,"탱":883,"터":884,"턴":885,"털":886,"테":887,"텍":888,"텐":889,"텔":890,"템":891,"토":892,"톤":893,"톨":894,"톱":895,"통":896,"퇴":897,"투":898,"튀":899,"튜":900,"트":901,"특":902,"튼":903,"틀":904,"티":905,"틱":906,"틴":907,"틸":908,"팀":909,"팅":910,"파":911,"판":912,"팔":913,"패":914,"팩":915,"팬":916,"퍼":917,"펀":918,"페":919,"펙":920,"펜":921,"펠":922,"펴":923,"편":924,"펼":925,"평":926,"폐":927,"포":928,"폭":929,"폰":930,"폴":931,"폼":932,"표":933,"푸":934,"풀":935,"품":936,"풍":937,"퓨":938,"프":939,"픈":940,"플":941,"피":942,"픽":943,"핀":944,"필":945,"핑":946,"하":947,"학":948,"한":949,"할":950,"함":951,"합":952,"항":953,"해":954,"핵":955,"했":956,"행":957,"향":958,"허":959,"헌":960,"험":961,"헤":962,"헨":963,"헬":964,"혀":965,"혁":966,"현":967,"혈":968,"혐":969,"협":970,"혔":971,"형":972,"혜":973,"호":974,"혹":975,"혼":976,"홀":977,"홈":978,"홍":979,"화":980,"확":981,"환":982,"활":983,"황":984,"회":985,"획":986,"효":987,"후":988,"훈":989,"훨":990,"휘":991,"휴":992,"흉":993,"흐":994,"흑":995,"흔":996,"흘":997,"흡":998,"흥":999,"희":1000,"히":1001,"힌":1002,"힐":1003,"힘":1004,"en":1005,"te":1006,"of":1007,"end":1008,"xt":1009,"text":1010,"endof":1011,"<|":1012,"|>":1013,"text|>":1014,"endoftext|>":1015,"<|endoftext|>":1016,"다.":1017,"▁이":1018,"▁<|endoftext|>":1019,"▁있":1020,"▁1":1021,"00":1022,"으로":1023,"에서":1024,"▁2":1025,"▁대":1026,"▁사":1027,"▁그":1028,"▁수":1029,"▁지":1030,"▁한":1031,"▁아":1032,"다.<|endoftext|>":1033,"▁전":1034,"▁가":1035,"▁하":1036,"▁것":1037,"▁시":1038,"▁기":1039,"▁보":1040,"▁정":1041,"했다.":1042,"▁자":1043,"▁다":1044,"▁\"":1045,"하는":1046,"▁나":1047,"01":1048,"▁등":1049,"▁경":1050,"▁일":1051,"▁제":1052,"▁'":1053,"▁주":1054,"▁공":1055,"▁중":1056,"▁3":1057,"▁인":1058,"▁상":1059,"▁모":1060,"▁부":1061,"▁마":1062,"▁위":1063,"하고":1064,"▁유":1065,"지만":1066,"이다.":1067,"▁오":1068,"▁있다.":1069,"▁때":1070,"▁않":1071,"▁비":1072,"▁소":1073,"▁없":1074,"▁어":1075,"▁미":1076,"▁조":1077,"▁고":1078,"▁스":1079,"▁여":1080,"▁의":1081,"▁해":1082,"▁내":1083,"▁B":1084,"-00":1085,"▁국":1086,"▁선":1087,"▁말":1088,"▁4":1089,"▁연":1090,"▁관":1091,"▁만":1092,"▁무":1093,"이라":1094,"에게":1095,"▁5":1096,"▁분":1097,"▁서":1098,"다\"":1099,"..":1100,"▁신":1101,"▁있는":1102,"▁최":1103,"다는":1104,"▁(":1105,"▁발":1106,"▁방":1107,"▁동":1108,"▁개":1109,"▁도":1110,"▁201":1111,"▁영":1112,"▁구":1113,"▁바":1114,"▁안":1115,"다고":1116,"▁성":1117,"었다.":1118,"▁우":1119,"▁문":1120,"▁세":1121,"▁거":1122,"▁되":1123,"들이":1124,"▁강":1125,"▁장":1126,"까지":1127,"▁생":1128,"▁-":1129,"▁후":1130,"면서":1131,"▁6":1132,"고,":1133,"▁불":1134,".<|endoftext|>":1135,"▁김":1136,"▁진":1137,"▁당":1138,"▁결":1139,"▁실":1140,"▁19":1141,"▁통":1142,"▁원":1143,"에는":1144,"▁현":1145,"▁더":1146,"▁노":1147,"▁7":1148,"▁반":1149,"▁적":1150,"▁8":1151,"▁받":1152,"▁특":1153,"▁남":1154,"▁차":1155,"▁예":1156,"하게":1157,"부터":1158,"▁교":1159,"▁출":1160,"▁따":1161,"▁많":1162,"▁추":1163,"▁때문":1164,"▁역":1165,"적으로":1166,"▁알":1167,"▁같":1168,"▁재":1169,"적인":1170,"한다.":1171,"▁포":1172,"▁들":1173,"다\"고":1174,"▁단":1175,"▁계":1176,"G<|endoftext|>":1177,"▁파":1178,"▁감":1179,"류:":1180,"▁게":1181,"▁또":1182,"▁배":1183,"▁10":1184,"▁작":1185,"/N":1186,"▁입":1187,")<|endoftext|>":1188,"▁대한":1189,"▁올":1190,"하기":1191,"▁아니":1192,"▁매":1193,"▁프":1194,"는데":1195,"▁타":1196,"02":1197,"▁카":1198,"▁9":1199,"에서는":1200,"▁못":1201,"▁설":1202,"/NN":1203,"▁두":1204,"▁물":1205,"▁건":1206,"▁사람":1207,"▁피":1208,"▁확":1209,"▁한국":1210,"▁경우":1211,"▁회":1212,"▁달":1213,"▁S":1214,"들은":1215,"▁지난":1216,"레이":1217,"▁참":1218,"▁리":1219,"▁된":1220,"으며":1221,"▁과":1222,"▁평":1223,"▁박":1224,"03":1225,"라고":1226,"▁요":1227,"▁함":1228,"▁위해":1229,"▁200":1230,"▁것으로":1231,"▁데":1232,"▁BT":1233,"들의":1234,"▁초":1235,"▁열":1236,"▁분류:":1237,"▁것이":1238,"▁본":1239,"▁이후":1240,"▁외":1241,"▁직":1242,"라는":1243,"▁에":1244,"▁드":1245,"▁저":1246,"▁때문에":1247,"이라고":1248,"▁명":1249,"▁좋":1250,"/M":1251,"▁자신":1252,"리고":1253,"대로":1254,"▁학":1255,"▁BS":1256,"▁할":1257,"▁행":1258,"▁사용":1259,"▁밝":1260,"▁A":1261,"▁점":1262,"하지":1263,"▁화":1264,"하여":1265,"리는":1266,"였다.":1267,"기를":1268,"▁크":1269,"▁처":1270,"▁운":1271,"스트":1272,"▁뒤":1273,"에도":1274,"▁서울":1275,"▁한다.":1276,"▁총":1277,"▁했":1278,"▁새":1279,"▁집":1280,"CT":1281,"이나":1282,"들을":1283,"통령":1284,"▁앞":1285,"▁변":1286,"▁코":1287,"▁12":1288,"해서":1289,"▁맞":1290,"▁심":1291,"▁필":1292,"▁양":1293,"▁살":1294,"▁높":1295,"▁청":1296,"▁다른":1297,"▁그러":1298,"하면":1299,"지만,":1300,"▁미국":1301,"▁라":1302,"▁투":1303,"▁함께":1304,"▁로":1305,"▁가능":1306,"▁활":1307,"000":1308,"▁호":1309,"▁했다.":1310,"CT_":1311,"▁북":1312,"▁M":1313,"▁돌":1314,"▁버":1315,"▁같은":1316,"▁판":1317,"▁하는":1318,"()":1319,"▁대통령":1320,"▁치":1321,"기도":1322,"▁문제":1323,"보다":1324,"하며":1325,"▁11":1326,"▁금":1327,"▁종":1328,"▁들어":1329,"▁검":1330,"▁잘":1331,"▁증":1332,"HO":1333,"지는":1334,"in":1335,"▁0":1336,"▁C":1337,"▁간":1338,"▁있다.<|endoftext|>":1339,"▁각":1340,"▁일본":1341,"▁편":1342,"▁목":1343,"/NNG<|endoftext|>":1344,"▁정도":1345,"▁:":1346,"▁속":1347,"▁임":1348,"▁메":1349,"▁걸":1350,"▁체":1351,"...":1352,"았다.":1353,"다가":1354,"▁트":1355,"리를":1356,"▁및":1357,"▁사실":1358,"▁승":1359,"▁이상":1360,"CT_00":1361,"기에":1362,"▁손":1363,"▁시작":1364,"▁약":1365,"▁민":1366,"th":1367,"▁하지만":1368,"▁아이":1369,"▁패":1370,"▁공격":1371,"/MA":1372,"▁생각":1373,"▁언":1374,"0년":1375,"04":1376,"▁산":1377,"19":1378,"▁따라":1379,"er":1380,"▁통해":1381,"▁T":1382,"on":1383,"학교":1384,"되는":1385,"▁쓰":1386,"an":1387,"▁합":1388,"으나":1389,"▁말했다.":1390,"사를":1391,"▁정부":1392,"▁가장":1393,"▁삼":1394,"▁법":1395,"▁표":1396,"▁대표":1397,"▁하나":1398,"▁독":1399,"▁밝혔":1400,"▁번":1401,"▁군":1402,"▁것은":1403,"▁은":1404,"▁근":1405,"▁레":1406,"▁만들":1407,"▁애":1408,"▁있었":1409,"▁그리고":1410,"▁관련":1411,"▁죽":1412,"▁취":1413,"▁이어":1414,"▁토":1415,"니다.":1416,"이라는":1417,"자는":1418,"장을":1419,"▁않는":1420,"▁플":1421,"거나":1422,"▁중국":1423,"▁K":1424,"장은":1425,"▁날":1426,"됐다.":1427,"▁모습":1428,"다\"며":1429,"▁것을":1430,"▁광":1431,"리가":1432,"▁순":1433,"이다.<|endoftext|>":1434,"▁채":1435,"▁태":1436,"▁모두":1437,"▁충":1438,"지를":1439,"기가":1440,"▁지역":1441,"▁완":1442,"▁음":1443,"▁프로":1444,"력을":1445,"▁형":1446,"▁상황":1447,"▁L":1448,"▁캐":1449,"▁15":1450,"/MAG<|endoftext|>":1451,"▁20":1452,"▁대해":1453,"▁것이다.":1454,"▁넘":1455,"위원":1456,"다면":1457,"▁야":1458,"▁복":1459,"▁관계":1460,"▁사이":1461,"▁등장":1462,"된다.":1463,"▁밝혔다.":1464,"▁다시":1465,"▁힘":1466,"자가":1467,"▁줄":1468,"▁당시":1469,"▁업":1470,"▁베":1471,"▁환":1472,"▁세계":1473,"으며,":1474,"▁D":1475,"▁없는":1476,"처럼":1477,"▁그러나":1478,"되어":1479,"하다.":1480,"▁친":1481,"▁디":1482,"▁폭":1483,"▁끝":1484,"장이":1485,"졌다.":1486,"▁F":1487,"▁찾":1488,"▁현재":1489,"성이":1490,"▁필요":1491,"▁P":1492,"8년":1493,"▁준":1494,"하면서":1495,"▁막":1496,"5년":1497,"7년":1498,"▁큰":1499,"-0000":1500,"에서도":1501,"ar":1502,"▁있어":1503,"▁게임":1504,"▁항":1505,"되었":1506,"▁잡":1507,"▁브":1508,"지고":1509,"▁존":1510,"6년":1511,"했다.<|endoftext|>":1512,"▁눈":1513,"▁진행":1514,"해야":1515,"도록":1516,"▁이름":1517,"이었":1518,"▁선수":1519,"▁협":1520,"는데,":1521,"▁우리":1522,"▁누":1523,"or":1524,"▁시간":1525,"▁이날":1526,"▁용":1527,"▁18":1528,"20":1529,"▁볼":1530,"▁규":1531,"▁논":1532,"▁창":1533,"▁담":1534,"▁나오":1535,"-0001":1536,"10":1537,"▁그런":1538,"으면":1539,"▁영화":1540,"▁이번":1541,"시아":1542,"▁경기":1543,"▁등을":1544,"4년":1545,"▁또한":1546,"▁첫":1547,"▁하고":1548,"들에게":1549,"▁위한":1550,"▁많은":1551,"EO":1552,"이트":1553,"▁병":1554,"▁커":1555,"▁효":1556,"▁식":1557,"▁모든":1558,"리아":1559,"▁벌":1560,"▁G":1561,"▁히":1562,"▁30":1563,"▁그는":1564,"▁허":1565,"이는":1566,"사가":1567,"성을":1568,"▁백":1569,"▁절":1570,"▁I":1571,"9년":1572,"▁팀":1573,"▁권":1574,"▁된다.":1575,"▁온":1576,"▁이용":1577,"▁13":1578,"기는":1579,"▁국가":1580,"스터":1581,"▁빠":1582,"▁테":1583,"▁의원":1584,"▁너":1585,"201":1586,"▁이런":1587,"▁많이":1588,"▁키":1589,"▁얼":1590,"▁199":1591,"상을":1592,"▁16":1593,"▁지원":1594,"▁클":1595,"▁네":1596,"▁기록":1597,"력이":1598,"회의":1599,"▁특히":1600,"▁아니라":1601,"▁추가":1602,"▁난":1603,"▁BTHO":1604,"▁별":1605,"며,":1606,"▁천":1607,"id":1608,"▁먹":1609,"한다.<|endoftext|>":1610,"3년":1611,"▁철":1612,"▁북한":1613,"),":1614,"▁이유":1615,"주의":1616,"30":1617,"▁N":1618,"이지":1619,"▁14":1620,"▁결과":1621,"2년":1622,"스를":1623,"\"이라고":1624,"라이":1625,"▁축":1626,"▁자신의":1627,"▁상태":1628,"정을":1629,"▁늘":1630,"50":1631,"▁처음":1632,"▁길":1633,"▁E":1634,"▁페":1635,"들과":1636,"▁/":1637,"▁보여":1638,"가는":1639,"-0002":1640,"이고":1641,"▁갈":1642,"▁다음":1643,"▁왕":1644,"▁곳":1645,"▁사건":1646,"al":1647,"국의":1648,"▁느":1649,"▁홍":1650,"데,":1651,"▁결국":1652,"▁피해":1653,"인이":1654,"▁보고":1655,"▁경찰":1656,"르면":1657,"▁상대":1658,"▁질":1659,"▁17":1660,"▁국민":1661,"시간":1662,"▁지난해":1663,"▁황":1664,"11":1665,"▁w":1666,"▁사회":1667,"▁책":1668,"니다.<|endoftext|>":1669,"리스":1670,"▁경제":1671,"▁블":1672,"▁극":1673,"▁이미":1674,"▁나온":1675,"▁악":1676,"되었다.":1677,"▁내용":1678,"▁보면":1679,"▁,":1680,"▁R":1681,"▁떨":1682,"▁기술":1683,"▁여러":1684,"자의":1685,"사는":1686,"이스":1687,"▁방송":1688,"▁후보":1689,"원을":1690,"▁사업":1691,"▁능":1692,"▁접":1693,"했던":1694,"▁농":1695,"기로":1696,"▁갖":1697,"▁설명":1698,"하고,":1699,"▁국내":1700,"▁‘":1701,"1년":1702,"▁터":1703,"▁물론":1704,"▁H":1705,"▁알려":1706,"릭터":1707,"▁연구":1708,"제로":1709,"▁듯":1710,"▁될":1711,"▁글":1712,"▁않았":1713,"▁엄":1714,"▁지금":1715,"▁#":1716,"▁감독":1717,"▁범":1718,"▁최근":1719,"▁보인":1720,"화를":1721,"▁골":1722,"▁그래":1723,"▁얻":1724,"▁돌아":1725,"▁없다.":1726,"▁시즌":1727,"자를":1728,"▁일부":1729,"▁측":1730,"▁잠":1731,"▁몰":1732,"▁향":1733,"▁이를":1734,"렇게":1735,"▁루":1736,"▁정치":1737,"▁기업":1738,"▁캐릭터":1739,"지가":1740,"▁다만":1741,"랜드":1742,"le":1743,"▁아닌":1744,"▁싶":1745,"▁와":1746,"되고":1747,"▁월":1748,"▁역시":1749,"로운":1750,"서는":1751,"명이":1752,"스의":1753,"▁수도":1754,"▁따르면":1755,"▁밀":1756,"▁운영":1757,"▁교육":1758,"st":1759,"▁머":1760,"▁탈":1761,"▁동안":1762,"▁을":1763,"▁나타":1764,"▁기준":1765,"▁해당":1766,"▁이야":1767,"▁최고":1768,"▁바로":1769,"▁있을":1770,"▁않은":1771,"어나":1772,"▁않고":1773,"12":1774,"at":1775,"M<|endoftext|>":1776,"▁존재":1777,".2":1778,"▁떠":1779,"하였":1780,"18":1781,"시키":1782,"▁매우":1783,"▁BSHO":1784,"▁발생":1785,"라도":1786,"▁등의":1787,"▁계획":1788,"▁떨어":1789,"▁활동":1790,"▁이에":1791,"▁예정":1792,"▁증가":1793,"▁상당":1794,"▁일반":1795,"대한":1796,"▁O":1797,"▁계속":1798,"▁면":1799,"도가":1800,"▁싸":1801,"리즈":1802,"가지":1803,"▁탄":1804,"원이":1805,"▁되었":1806,"▁효과":1807,"▁《":1808,"하였다.":1809,"▁25":1810,"▁~":1811,"15":1812,"▁대상":1813,"▁있었다.":1814,"▁100":1815,"씨는":1816,"▁자체":1817,"▁플레이":1818,"사의":1819,"▁포함":1820,"▁발표":1821,"위를":1822,"ou":1823,"▁러":1824,"▁직접":1825,"▁좋은":1826,"▁*":1827,"주는":1828,"▁낮":1829,"부분":1830,"습니다.":1831,"▁수준":1832,"스가":1833,"▁만들어":1834,"▁받아":1835,"▁있다는":1836,"▁공개":1837,"▁개발":1838,"re":1839,"▁귀":1840,"idth":1841,"▁평가":1842,"▁혼":1843,"▁없이":1844,"▁맡":1845,"idth=":1846,"이었다.":1847,"리에":1848,"▁W":1849,"40":1850,"▁한다.<|endoftext|>":1851,"인의":1852,"치를":1853,"에선":1854,"했다고":1855,"▁결정":1856,"▁둘":1857,"▁제공":1858,"명을":1859,"▁확인":1860,"▁올해":1861,"도를":1862,"16":1863,"▁급":1864,"▁작품":1865,"어서":1866,"렸다.":1867,"▁몸":1868,"13":1869,"'을":1870,"▁여성":1871,"▁부분":1872,"/MM<|endoftext|>":1873,"▁아무":1874,"▁전체":1875,"인지":1876,"▁즉":1877,"대를":1878,"▁성공":1879,"므로":1880,"▁학생":1881,"▁“":1882,"▁열린":1883,"센터":1884,"르는":1885,"▁주장":1886,"도로":1887,"분류:":1888,"▁핵":1889,"왔다.":1890,".0":1891,"▁전투":1892,"▁송":1893,"17":1894,"▁모습을":1895,"위원회":1896,"하자":1897,"▁마음":1898,"지막":1899,"장의":1900,"(...":1901,"▁오후":1902,"▁삼성":1903,"▁붙":1904,"▁팬":1905,"▁뿐":1906,"-0003":1907,"14":1908,"식을":1909,"▁풀":1910,"전을":1911,"▁조사":1912,"기업":1913,".5":1914,"▁전문":1915,"점을":1916,"▁혐":1917,"▁좀":1918,"▁울":1919,"▁198":1920,"▁높은":1921,"▁엔":1922,"▁3월":1923,"▁스타":1924,"▁대부분":1925,"▁다양":1926,"▁참여":1927,"이가":1928,"▁의미":1929,"▁뉴":1930,"'를":1931,"▁인터":1932,"▁거의":1933,"▁몇":1934,"원의":1935,"▁같이":1936,"전히":1937,"장에서":1938,"▁찾아":1939,"▁슈":1940,"시에":1941,"▁22":1942,"드는":1943,"P<|endoftext|>":1944,"스는":1945,"수가":1946,"▁어느":1947,"▁되는":1948,"ic":1949,"▁등이":1950,"거리":1951,"__":1952,"밖에":1953,"60":1954,"▁중요":1955,"▁4월":1956,"▁U":1957,"▁정보":1958,"▁제작":1959,"▁홈":1960,"하겠":1961,"▁요구":1962,"부는":1963,"▁24":1964,"▁육":1965,"▁윤":1966,"▁현대":1967,"25":1968,"▁마지막":1969,"▁폐":1970,"▁가운":1971,"▁V":1972,"하려":1973,"의를":1974,"▁너무":1975,"AA":1976,"는다.":1977,"수를":1978,"he":1979,"▁영향":1980,"70":1981,"is":1982,"▁기본":1983,"대표":1984,"▁되어":1985,"▁5월":1986,"▁width=":1987,"▁이는":1988,"▁압":1989,"BS":1990,"▁것도":1991,"▁케":1992,"드를":1993,"▁시리즈":1994,"▁23":1995,"▁주인":1996,"▁그의":1997,"▁올라":1998,"▁대학":1999,"▁학교":2000,"ing":2001,"▁국제":2002,"▁50":2003,"▁12월":2004,"▁출신":2005,"▁라이":2006,"▁인간":2007,"▁6월":2008,"그램":2009,"자로":2010,"▁7월":2011,"▁최대":2012,"▁자유":2013,"200":2014,"▁사진":2015,"▁돈":2016,"치는":2017,"스로":2018,"▁9월":2019,"수는":2020,"다'":2021,"▁희":2022,"▁어려":2023,"▁워":2024,"▁놓":2025,"▁어떤":2026,"마다":2027,"▁격":2028,"▁먼":2029,"▁10월":2030,"전에":2031,"▁21":2032,"인을":2033,"▁쿠":2034,"명의":2035,"▁팔":2036,"▁달리":2037,"▁검찰":2038,"▁대신":2039,"▁뛰":2040,"들도":2041,"80":2042,"스타":2043,"▁배우":2044,"▁문화":2045,"와의":2046,"만원":2047,"▁좋아":2048,"머니":2049,"▁주요":2050,"▁가운데":2051,"▁헤":2052,"▁강화":2053,"▁8월":2054,"회를":2055,"▁침":2056,"▁1월":2057,"인은":2058,"되지":2059,"▁판매":2060,"등학교":2061,"트를":2062,"있는":2063,"▁이동":2064,"▁레이":2065,"났다.":2066,"▁8CT_00":2067,"▁새로운":2068,"▁정책":2069,"▁암":2070,"과의":2071,"▁과정":2072,"▁뜻":2073,"원은":2074,"▁정상":2075,"▁있다고":2076,"▁기자":2077,"지도":2078,"▁크게":2079,"▁민주":2080,"장에":2081,"(...)":2082,"▁정도로":2083,"▁제외":2084,"▁되었다.":2085,"▁관계자는":2086,"▁것\"이라고":2087,"▁11월":2088,"om":2089,"▁드러":2090,"▁역할":2091,"▁기존":2092,"ig":2093,"억원":2094,"으니":2095,"나라":2096,"▁과거":2097,"▁인물":2098,"▁구성":2099,"▁다양한":2100,"▁BSEO":2101,"▁스킬":2102,"▁도시":2103,"로는":2104,"로,":2105,"▁휴":2106,"▁27":2107,"진다.":2108,"▁응":2109,"-000":2110,"▁쉽":2111,"▁추진":2112,"▁사랑":2113,"▁소속":2114,"▁26":2115,"나는":2116,"it":2117,"이션":2118,"90":2119,"대의":2120,"▁2월":2121,"동안":2122,"▁선택":2123,"▁아직":2124,".3":2125,"▁28":2126,"▁부산":2127,"▁한편":2128,"▁지적":2129,"럼프":2130,"!<|endoftext|>":2131,"▁국회":2132,"▁인해":2133,"▁비슷":2134,"리의":2135,"없이":2136,"이며":2137,"▁가지고":2138,"▁BTEO":2139,"▁중심":2140,"24":2141,"교육":2142,"▁만큼":2143,"▁때문이다.":2144,"정이":2145,"▁대한민":2146,"▁받고":2147,"▁유지":2148,"▁생산":2149,"라마":2150,"▁방법":2151,"\"<|endoftext|>":2152,"▁위치":2153,"▁적용":2154,"▁덕":2155,"스템":2156,"기의":2157,"▁는":2158,"▁공식":2159,"선을":2160,"사업":2161,"▁\"이":2162,"▁하지":2163,"am":2164,"했고,":2165,"▁1일":2166,"▁없었":2167,"상이":2168,"▁보인다.":2169,"?<|endoftext|>":2170,"정부":2171,"▁그대로":2172,"▁엘":2173,"▁언급":2174,"▁또는":2175,"▁준비":2176,"ion":2177,"▁전국":2178,"리그":2179,"▁끌":2180,"제를":2181,"으나,":2182,"하던":2183,"이라며":2184,"▁곡":2185,"사에":2186,"한국":2187,"대에":2188,"es":2189,"안을":2190,"▁타이":2191,"▁→":2192,"민주":2193,"▁출연":2194,"▁사망":2195,"▁있다\"고":2196,"▁카드":2197,"임을":2198,"▁선거":2199,"▁주인공":2200,"▁특별":2201,"리지":2202,"이터":2203,"ac":2204,"자인":2205,"▁봉":2206,"이자":2207,"▁있던":2208,"▁니":2209,"어가":2210,"▁긴":2211,"▁자기":2212,"어난":2213,"▁J":2214,"▁분석":2215,"▁던":2216,"▁이전":2217,"▁2015년":2218,"대가":2219,"35":2220,"▁놀":2221,"▁여기":2222,"▁숨":2223,"▁말을":2224,"▁그녀":2225,"▁가족":2226,"-0004":2227,"음을":2228,"르게":2229,"▁2016년":2230,"물을":2231,"▁오전":2232,"은행":2233,"▁기간":2234,"ol":2235,"▁40":2236,"▁지나":2237,"▁만든":2238,"▁공동":2239,"▁대해서":2240,"▁시절":2241,"▁설치":2242,"▁서비":2243,"▁쪽":2244,"▁아버":2245,"동을":2246,"▁씨":2247,"▁왜":2248,"▁인정":2249,"▁시민":2250,"▁답":2251,"▁장관":2252,"▁받은":2253,"▁비판":2254,"▁29":2255,"▁더욱":2256,"연구":2257,"▁관심":2258,"▁th":2259,"▁그렇":2260,"▁그냥":2261,"▁발견":2262,"▁사고":2263,"▁제대로":2264,"▁실제로":2265,"▁프랑":2266,"▁참고":2267,"이를":2268,"번째":2269,"▁만나":2270,"▁퍼":2271,"▁전쟁":2272,"▁넣":2273,"▁청와":2274,"▁않았다.":2275,"▁축구":2276,"▁그것":2277,"▁사람이":2278,"▁차량":2279,"▁자동":2280,"으로,":2281,"▁규모":2282,"도의":2283,"▁트럼프":2284,"▁석":2285,"22":2286,"▁마련":2287,"▁않아":2288,"▁마법":2289,"▁친구":2290,"▁먼저":2291,"기관":2292,"▁2017년":2293,"▁혐의":2294,"▁방문":2295,"▁2014년":2296,"as":2297,"경기":2298,"▁최종":2299,"▁금융":2300,"▁강조":2301,"▁독일":2302,"▁망":2303,"▁조선":2304,"▁노동":2305,"▁프로그램":2306,"운드":2307,"▁슬":2308,"▁갑":2309,"▁불가":2310,"▁활용":2311,"권을":2312,"▁컨":2313,"▁깨":2314,"▁착":2315,"▁고려":2316,"▁지방":2317,"하기도":2318,"▁이제":2319,"▁투자":2320,"▁쓸":2321,"▁자신이":2322,"▁티":2323,"금을":2324,"▁개인":2325,"▁m":2326,"▁최초":2327,"ad":2328,")는":2329,"냈다.":2330,"감을":2331,"▁풍":2332,"하지만":2333,"멤버":2334,"▁서로":2335,"▁제품":2336,"▁각각":2337,"▁s":2338,"인데":2339,"부를":2340,"▁지속":2341,"▁어떻":2342,"▁콘":2343,"▁해결":2344,"개월":2345,".4":2346,"▁하루":2347,"▁위원":2348,"이드":2349,"▁앞서":2350,"\"라고":2351,"el":2352,"▁상승":2353,"▁능력":2354,"▁살아":2355,"▁참가":2356,"▁유명":2357,"▁이러":2358,"▁방식":2359,"▁논란":2360,"▁주민":2361,"▁조금":2362,"▁우승":2363,"▁가격":2364,"▁주변":2365,"▁영국":2366,"il":2367,"치가":2368,"▁여자":2369,"65":2370,"▁구조":2371,"▁좌":2372,"B<|endoftext|>":2373,"23":2374,"움을":2375,"▁6CT_00":2376,"▁음악":2377,"▁어린":2378,"▁비롯":2379,"BC":2380,"▁혹":2381,"▁그런데":2382,"▁가지":2383,"화가":2384,"▁겨":2385,"장,":2386,"▁경쟁":2387,"▁예상":2388,"롯데":2389,"이기":2390,"▁이루":2391,"▁못한":2392,"▁방어":2393,"▁가까":2394,"▁환경":2395,"▁빌":2396,"▁의견":2397,"이어":2398,"서를":2399,"▁b":2400,"▁이렇게":2401,"▁산업":2402,"▁어떻게":2403,"▁흔":2404,"▁의해":2405,"▁차지":2406,"사와":2407,"▁헌":2408,"계를":2409,"▁생활":2410,"으로는":2411,"▁찍":2412,"문을":2413,"이지만":2414,"수의":2415,"▁경우가":2416,"지역":2417,"지에":2418,"사로":2419,"▁비교":2420,"료를":2421,"▁듣":2422,"하거나":2423,"▁된다.<|endoftext|>":2424,"하다.<|endoftext|>":2425,"▁멤버":2426,"....":2427,"▁상당히":2428,"▁197":2429,"29":2430,"▁2018년":2431,"27":2432,"▁이것":2433,"▁정신":2434,"과는":2435,"▁퇴":2436,"세를":2437,"▁중앙":2438,"▁부족":2439,"▁내려":2440,"'의":2441,"▁전망":2442,"파트":2443,"▁괴":2444,"▁없어":2445,")의":2446,"▁기대":2447,"▁빨":2448,"습니다.<|endoftext|>":2449,"만큼":2450,"▁가진":2451,".7":2452,"▁2013년":2453,"▁등에":2454,"▁해외":2455,"▁비해":2456,"▁바람":2457,"▁잔":2458,"했다는":2459,"ht":2460,"▁판단":2461,"▁일이":2462,"▁안전":2463,"▁인천":2464,"▁가능성이":2465,"▁얼마":2466,"우는":2467,"▁노래":2468,"▁감소":2469,".8":2470,"▁나라":2471,"자들이":2472,"▁그래서":2473,"지로":2474,"문화":2475,"마트":2476,"히려":2477,"28":2478,"▁있도록":2479,"34":2480,"다<|endoftext|>":2481,"▁정말":2482,"▁칼":2483,"부가":2484,"약을":2485,"한다는":2486,"디오":2487,"했을":2488,"이크":2489,"▁장면":2490,"▁외국":2491,"그룹":2492,"▁나오는":2493,"장과":2494,"라며":2495,"제가":2496,"▁관리":2497,"▁졸":2498,"'에":2499,"/S":2500,"▁강력":2501,"정은":2502,"▁모델":2503,"▁문제가":2504,"린다.":2505,",000":2506,"▁BTHO01":2507,"▁BSHO01":2508,"사회":2509,"\"이라며":2510,"일에":2511,"/E":2512,"▁애니":2513,"▁알고":2514,"GO":2515,"▁출시":2516,"▁어렵":2517,"▁이해":2518,"▁시스템":2519,"이며,":2520,"▁러시아":2521,"▁원래":2522,".6":2523,"▁사라":2524,"▁하면":2525,"중에":2526,"▁견":2527,"▁오는":2528,"▁해도":2529,"▁참석":2530,"▁펼":2531,"'이":2532,"▁대통령은":2533,"▁오히려":2534,"리카":2535,"지의":2536,"정한":2537,"▁즐":2538,"인트":2539,"▁딸":2540,"▁묘":2541,"리어":2542,"였던":2543,"다며":2544,"▁역사":2545,"려고":2546,"프트":2547,"▁표현":2548,"▁빼":2549,"33":2550,"▁움":2551,"라인":2552,"단체":2553,"▁넘어":2554,"us":2555,"▁않을":2556,"점이":2557,"▁언론":2558,"99":2559,"▁t":2560,"▁주로":2561,"-01":2562,"대학교":2563,"▁얘":2564,"장으로":2565,"일,":2566,"▁있으며,":2567,"격을":2568,"도는":2569,"▁+":2570,"구를":2571,"▁웃":2572,"▁징":2573,"니까":2574,"▁소비":2575,"어로":2576,"▁빈":2577,"훈련":2578,"▁롯데":2579,"내는":2580,"▁대통령이":2581,"▁미래":2582,"▁프리":2583,"/NNB<|endoftext|>":2584,"▁우려":2585,"전에서":2586,"▁받았":2587,"▁유럽":2588,"▁7CT_00":2589,"▁녹":2590,"행을":2591,"▁청와대":2592,"▁등으로":2593,"▁선발":2594,"▁쇼":2595,"▁자리":2596,"55":2597,"▁형태":2598,"기사":2599,"▁이러한":2600,"▁나는":2601,"요.":2602,"▁변경":2603,"▁현실":2604,"▁평균":2605,"▁of":2606,"▁탑":2607,"개의":2608,"▁자주":2609,"▁경험":2610,"가가":2611,"▁기능":2612,"▁궁":2613,"26":2614,"림픽":2615,"▁남자":2616,"되었다.<|endoftext|>":2617,"오는":2618,"했지만":2619,"▁밤":2620,"▁보도":2621,"▁몬":2622,"시는":2623,"지,":2624,".1":2625,"니아":2626,"▁2012년":2627,"▁X":2628,"▁적이":2629,"더라도":2630,"36":2631,"었다.<|endoftext|>":2632,"▁사실상":2633,"▁섬":2634,"px":2635,"▁꾸":2636,"▁대비":2637,"▁이야기":2638,"▁실제":2639,"불어":2640,"스크":2641,"▁아니다.":2642,"▁않는다.":2643,"▁재판":2644,"▁수사":2645,"▁집중":2646,"▁f":2647,"▁멀":2648,"▁얼굴":2649,"▁영상":2650,"▁동시에":2651,"▁성장":2652,"르고":2653,"▁the":2654,"업을":2655,"▁SK":2656,"같은":2657,"▁스토":2658,"▁대한민국":2659,"대학":2660,"▁c":2661,"▁잃":2662,"km":2663,"어를":2664,"▁있지만":2665,"▁번째":2666,"스와":2667,"▁엄청":2668,"▁인사":2669,"된다.<|endoftext|>":2670,"▁나온다.":2671,"ro":2672,"▁위험":2673,"적이":2674,"▁드라마":2675,"로부터":2676,"▁색":2677,"▁받는":2678,"▁아래":2679,"▁이뤄":2680,"▁나가":2681,"▁도입":2682,"에서의":2683,"▁됐":2684,"▁돼":2685,"▁초반":2686,"원에":2687,"하다":2688,"/NNP<|endoftext|>":2689,"지지":2690,"가를":2691,"▁솔":2692,"▁지지":2693,"▁회복":2694,"▁확대":2695,"▁승리":2696,"비를":2697,"▁만에":2698,"▁건설":2699,")은":2700,"▁31":2701,"▁있게":2702,"▁분위":2703,"et":2704,"하며,":2705,"▁움직":2706,"21":2707,"재인":2708,"▁1,":2709,"▁반면":2710,"▁개최":2711,"▁그렇게":2712,"39":2713,"▁1년":2714,"부의":2715,"45":2716,"▁낙":2717,"치고":2718,"▁리그":2719,"아서":2720,"산업":2721,"부에":2722,"▁자연":2723,"학생":2724,"▁반대":2725,"▁진출":2726,"▁대회":2727,"▁담당":2728,"로서":2729,"▁보호":2730,".9":2731,"▁마을":2732,"시켜":2733,"▁적극":2734,"한다고":2735,"▁분야":2736,"ay":2737,"and":2738,"▁이벤":2739,"▁의혹":2740,"▁앨":2741,"ag":2742,"들에":2743,"일부터":2744,"▁싱":2745,"▁조직":2746,"▁개선":2747,"un":2748,"▁대구":2749,"▁2차":2750,"38":2751,"▁이때":2752,"▁외교":2753,"군의":2754,"0년대":2755,"▁숙":2756,"위에":2757,"▁결혼":2758,"▁전혀":2759,"48":2760,"ter":2761,"▁힘들":2762,"▁것이다.<|endoftext|>":2763,"도,":2764,"▁봐":2765,"▁후반":2766,"▁행정":2767,"▁두고":2768,"씨가":2769,"기술":2770,"',":2771,")을":2772,"하기로":2773,"▁바이":2774,"▁보여주":2775,"▁나서":2776,"정보":2777,"%,":2778,"소를":2779,"▁더불어":2780,"▁지난달":2781,"드의":2782,"▁대응":2783,"▁업무":2784,"원에서":2785,"▁있고":2786,"했고":2787,"사일":2788,"▁당연":2789,"▁목표":2790,"경제":2791,"시의":2792,"▁LG":2793,"다\"면서":2794,"▁믿":2795,"▁.":2796,"▁유일":2797,"▁역할을":2798,"자,":2799,"▁마찬":2800,"상의":2801,"스,":2802,"▁설명했다.":2803,"▁전했다.":2804,"75":2805,"자와":2806,"GO03":2807,"▁들어가":2808,"시설":2809,"▁반응":2810,"원으로":2811,"▁정확":2812,"▁공연":2813,"▁전에":2814,"리,":2815,"▁마찬가지":2816,"▁5CT_00":2817,"▁p":2818,"회담":2819,"문에":2820,")를":2821,"▁기억":2822,"보다는":2823,"▁영향을":2824,"▁뽑":2825,"▁d":2826,"▁무기":2827,"▁모양":2828,"▁푸":2829,"▁월드":2830,"▁실패":2831,"하다는":2832,"▁있기":2833,"ed":2834,"...<|endoftext|>":2835,"▁스트":2836,"▁꿈":2837,"▁곧":2838,"▁특수":2839,"▁예정이다.":2840,"▁196":2841,"▁제주":2842,"체를":2843,"스러":2844,"▁확보":2845,"▁과정에서":2846,"▁내가":2847,"▁있어서":2848,"드가":2849,")이":2850,"▁오늘":2851,"▁찬":2852,"44":2853,"▁됐다.":2854,"▁지하":2855,"어진":2856,"요.<|endoftext|>":2857,"▁따른":2858,"▁맥":2859,"▁땅":2860,"▁있고,":2861,"▁빛":2862,"▁발언":2863,"▁묻":2864,"나가":2865,"▁컴":2866,"▁오른":2867,"▁소환":2868,"▁건물":2869,"▁2019년":2870,"▁BTHO04":2871,"▁많다.":2872,"는지":2873,"▁때는":2874,"▁밝혀":2875,"▁한번":2876,"▁관광":2877,"▁상대로":2878,"▁60":2879,"▁있으며":2880,"일까지":2881,"▁선정":2882,"▁유저":2883,"▁보내":2884,"분에":2885,"되면서":2886,"▁발매":2887,"▁전략":2888,"ch":2889,"▁대전":2890,"▁무엇":2891,"▁발전":2892,"▁꽤":2893,"▁실시":2894,"▁일단":2895,"▁그리":2896,"▁사무":2897,"▁필요한":2898,"포츠":2899,"▁처리":2900,"▁목소":2901,"'로":2902,"▁경기도":2903,"▁설립":2904,"▁제기":2905,"식이":2906,"▁갖고":2907,"▁BTHO03":2908,"▁스스로":2909,"촬영":2910,"▁건강":2911,"트가":2912,"▁보통":2913,"연합":2914,")에":2915,"/V":2916,"▁순간":2917,"'가":2918,"▁써":2919,"대는":2920,"▁한다는":2921,"▁여전히":2922,"이의":2923,"▁방향":2924,"▁앞으로":2925,"▁중요한":2926,"관이":2927,"▁지도":2928,"▁그림":2929,"성은":2930,"버스":2931,"▁어머니":2932,"77":2933,"▁사람들이":2934,"▁힘을":2935,"▁입장":2936,"▁레벨":2937,"▁데미":2938,"리오":2939,"▁해야":2940,"관계":2941,"▁수상":2942,"▁읽":2943,"다”":2944,"운동":2945,"▁합의":2946,"▁광주":2947,"▁맛":2948,"▁바뀌":2949,"▁가져":2950,"시장":2951,"▁2011년":2952,"▁연속":2953,"▁뭐":2954,"방송":2955,"▁요청":2956,"▁TV":2957,"▁벗":2958,"▁비슷한":2959,"▁익":2960,"구가":2961,"위가":2962,"▁시행":2963,"▁까":2964,"와는":2965,"▁소개":2966,"▁각종":2967,"▁연결":2968,"▁-2":2969,"▁술":2970,"체가":2971,"▁쓴":2972,"▁부담":2973,"AA01":2974,"▁책임":2975,"▁사실을":2976,"▁완전히":2977,"이기도":2978,"▁파괴":2979,"▁노력":2980,"고를":2981,"▁품":2982,"ight":2983,"▁혁":2984,"갔다.":2985,"▁흥":2986,")가":2987,"학과":2988,"▁흑":2989,"▁의원은":2990,"▁따라서":2991,"시킨":2992,"▁있는데":2993,"▁시장":2994,"위는":2995,"▁전부":2996,"트로":2997,"▁흐":2998,"▁대체":2999,"▁제한":3000,"차를":3001,"관리":3002,"32":3003,"적을":3004,"조사":3005,"▁어디":3006,"▁유닛":3007,"▁삶":3008,"지어":3009,"개를":3010,"량이":3011,"▁공간":3012,"▁충분":3013,"▁논의":3014,"▁불구":3015,"▁아마":3016,"▁우선":3017,"▁받았다.":3018,"▁그가":3019,"프로":3020,"▁기념":3021,"▁잘못":3022,"▁거래":3023,"▁데뷔":3024,"▁프랑스":3025,"37":3026,"▁해서":3027,"▁깊":3028,"보면":3029,"▁남북":3030,"하는데":3031,"▁슈퍼":3032,"▁졸업":3033,"'는":3034,"▁2010년":3035,"▁촉":3036,"▁몬스터":3037,"▁콜":3038,"▁경영":3039,"▁미국의":3040,"▁가능한":3041,"도시":3042,"명은":3043,"▁말이":3044,"▁정부가":3045,"▁휘":3046,"근혜":3047,"학년":3048,"▁수출":3049,"ve":3050,"▁나왔":3051,"▁항공":3052,"▁했다.<|endoftext|>":3053,"▁끊":3054,"%로":3055,"▁작은":3056,"▁국정":3057,"▁연합":3058,"▁못하고":3059,"아가":3060,"개발":3061,"▁인터뷰":3062,"▁쉬":3063,"▁하다.":3064,"▁관한":3065,"88":3066,"었던":3067,"어도":3068,"느냐":3069,"▁수가":3070,"경찰":3071,"▁시간이":3072,"구의":3073,"전이":3074,"두고":3075,"단을":3076,"신이":3077,"▁혹은":3078,"▁문서":3079,"▁액":3080,"▁나와":3081,"▁남아":3082,"▁자세":3083,"▁지정":3084,"▁교수":3085,"▁겪":3086,"▁핵심":3087,"▁행동":3088,"세대":3089,"▁한다\"고":3090,"▁아예":3091,"▁샤":3092,"▁기관":3093,"▁내년":3094,"▁Y":3095,"▁\"그":3096,"메이션":3097,"▁예산":3098,"▁대통령의":3099,"im":3100,"'라는":3101,"수록":3102,"리와":3103,"선거":3104,"69":3105,"▁있는데,":3106,"▁·":3107,"▁변호":3108,"▁3일":3109,"▁아이템":3110,"▁신청":3111,"▁주는":3112,"▁인터넷":3113,"oo":3114,"▁(201":3115,"▁이유로":3116,"▁설정":3117,"사,":3118,"\"고":3119,"▁사례":3120,"▁아주":3121,"으면서":3122,"▁를":3123,"▁202":3124,"▁되고":3125,"성과":3126,"조차":3127,"▁이름을":3128,"스럽":3129,"화에서":3130,"▁게다가":3131,"쳤다.":3132,"나마":3133,"지원":3134,"▁쉽게":3135,"으로서":3136,"▁선보":3137,"▁그룹":3138,"▁보는":3139,"해도":3140,"전자":3141,"리로":3142,"우스":3143,"당이":3144,"▁2년":3145,"▁다르":3146,"상에":3147,"▁대상으로":3148,"▁운동":3149,"▁알려졌다.":3150,"라면":3151,"▁불가능":3152,"▁류":3153,"서울":3154,"소년":3155,"ow":3156,"세계":3157,"정책":3158,"움이":3159,"ent":3160,"보고":3161,"▁조건":3162,"▁왔":3163,"하다고":3164,"▁염":3165,"가의":3166,"▁단순":3167,"▁노선":3168,"하도록":3169,"자들의":3170,"되면":3171,"달러":3172,"같이":3173,"!!":3174,"▁최소":3175,"위로":3176,"회가":3177,"▁시청":3178,"▁전해":3179,"▁동일":3180,"입니다.":3181,"▁구속":3182,"▁독립":3183,"58":3184,"▁스페":3185,"율이":3186,"▁성격":3187,"▁가는":3188,"▁기사":3189,"▁10일":3190,"신을":3191,"이었던":3192,"▁아파트":3193,"▁탐":3194,"리기":3195,"▁일으":3196,"드로":3197,"▁폴":3198,"▁셈":3199,"79":3200,"수로":3201,"▁짓":3202,"자기":3203,"▁대표는":3204,"▁사람은":3205,"타를":3206,"시가":3207,"▁일을":3208,"▁다.":3209,"레스":3210,"▁이끌":3211,"▁옆":3212,"▁문제를":3213,"▁과학":3214,"▁5일":3215,"▁확정":3216,"▁촬영":3217,"점으로":3218,"▁상황에서":3219,"▁것에":3220,"199":3221,"▁대선":3222,"▁추정":3223,"▁전용":3224,"▁누구":3225,"▁2일":3226,"성의":3227,"▁알아":3228,"▁글로":3229,"했다\"고":3230,"▁고객":3231,"▁참고로":3232,"▁안정":3233,"▁마이":3234,"준다.":3235,"너지":3236,"▁득":3237,"▁옮":3238,"▁BSHO04":3239,"▁)":3240,"▁통합":3241,"업체":3242,"64":3243,"스코":3244,"▁혐의로":3245,"▁성능":3246,"▁보유":3247,"▁계약":3248,"▁행사":3249,"▁15일":3250,"▁챔":3251,"▁심지어":3252,"▁군사":3253,"▁서비스":3254,"▁끼":3255,"▁납":3256,"▁문재인":3257,"▁획":3258,"보는":3259,"▁회사":3260,"회에서":3261,"▁교통":3262,"어들":3263,"▁캠":3264,"당은":3265,"▁정부는":3266,"▁것.":3267,"▁특징":3268,"디어":3269,"E02":3270,"▁원내":3271,"▁높아":3272,"78":3273,"▁뮤":3274,"자들은":3275,"▁훨":3276,"▁부모":3277,"▁70":3278,"▁조성":3279,"▁중인":3280,"▁시설":3281,"겠다는":3282,"▁제시":3283,"▁딜":3284,"기,":3285,"기와":3286,"▁대형":3287,"원,":3288,"▁맨":3289,"68":3290,"▁본격":3291,"▁자신을":3292,"시키는":3293,"▁20일":3294,"였다.<|endoftext|>":3295,"▁지켜":3296,"상으로":3297,"력은":3298,"▁그래도":3299,"관은":3300,"▁달라":3301,"▁이들은":3302,"▁것이라고":3303,"▁꽃":3304,"간의":3305,"▁나머":3306,"▁오래":3307,"일을":3308,"▁있다\"며":3309,"▁덧":3310,"▁훨씬":3311,"▁소재":3312,"▁점을":3313,"진을":3314,"려는":3315,"▁다이":3316,"한테":3317,"자리":3318,"시즌":3319,"▁하이":3320,"ru":3321,"단의":3322,"▁뇌":3323,"▁시도":3324,"▁있었던":3325,"없는":3326,"피언":3327,"/J":3328,"군이":3329,"▁4일":3330,"▁보이":3331,"만이":3332,"인데,":3333,"▁스테":3334,"로를":3335,"간에":3336,"▁훈련":3337,"59":3338,"▁욕":3339,"▁상품":3340,"▁전달":3341,"정에":3342,"▁배경":3343,"▁쓰는":3344,"▁브랜드":3345,"▁확실":3346,"일본":3347,"▁보이는":3348,"▁직원":3349,"100":3350,"누리":3351,"▁이상의":3352,"당한":3353,"▁애니메이션":3354,"겼다.":3355,"▁문제는":3356,"▁스마트":3357,"▁&":3358,"▁되었다.<|endoftext|>":3359,"▁위해서":3360,"▁변화":3361,"▁강력한":3362,"게임":3363,"▁30일":3364,"까지는":3365,"▁쳐":3366,"▁고용":3367,"▁받을":3368,"▁치료":3369,"▁연기":3370,"▁없다.<|endoftext|>":3371,"▁주목":3372,"▁강한":3373,"▁국회의":3374,"▁굉":3375,"▁인도":3376,"/NNG":3377,"▁7일":3378,"단이":3379,"▁앨범":3380,"심을":3381,"어야":3382,"▁전문가":3383,"량을":3384,"만을":3385,"▁전반":3386,"▁죄":3387,"▁옥":3388,"▁패배":3389,"▁홀":3390,"▁자동차":3391,"ir":3392,"▁기반":3393,"성에":3394,"▁12일":3395,"▁발사":3396,"▁브라":3397,"트의":3398,"비가":3399,"만에":3400,"▁25일":3401,"함을":3402,"63":3403,"▁지급":3404,"▁억":3405,"국이":3406,"▁28일":3407,"▁공급":3408,"▁v":3409,"▁드래":3410,"▁폭발":3411,"▁소설":3412,"▁자체가":3413,"▁청년":3414,"▁27일":3415,"▁제2":3416,"▁14일":3417,"▁틀":3418,"▁정부의":3419,"▁혼자":3420,"▁되면":3421,"ur":3422,"▁하며":3423,"▁헬":3424,"▁우주":3425,"▁시점":3426,"▁뒷":3427,"▁배치":3428,"▁아시아":3429,"▁이하":3430,"▁타고":3431,"▁8일":3432,"▁비용":3433,"05":3434,"당의":3435,"롭게":3436,"▁협력":3437,"▁9일":3438,"물이":3439,"▁거쳐":3440,"▁넓":3441,"▁확률":3442,"▁않다.":3443,"▁업체":3444,"지와":3445,"▁공공":3446,"/MAJ":3447,"▁2009년":3448,"▁나이":3449,"▁굉장":3450,"으로써":3451,"▁이탈":3452,"중앙":3453,"▁11일":3454,"▁딱":3455,"▁흡":3456,"▁평화":3457,"▁이와":3458,"▁제1":3459,"▁BTB":3460,"▁BSB":3461,"▁부정":3462,"▁194":3463,"▁전환":3464,"▁성우":3465,"▁하게":3466,"시켰":3467,"▁대해서는":3468,"▁진짜":3469,"▁3년":3470,"▁잇":3471,"하라":3472,"▁국무":3473,"▁겸":3474,"▁전기":3475,"버린":3476,"▁26일":3477,"▁웨":3478,"▁대화":3479,"▁냉":3480,"▁국방":3481,"▁영어":3482,"▁차례":3483,"▁메이":3484,"▁탓":3485,"▁전통":3486,"▁불법":3487,"▁사용하는":3488,"환경":3489,"▁들고":3490,"▁피해를":3491,"무를":3492,"이라면":3493,"히는":3494,"▁2008년":3495,"74":3496,"▁21일":3497,"▁없었다.":3498,"해진":3499,"▁검토":3500,"▁안에":3501,"▁17일":3502,"관을":3503,"▁흘":3504,"▁18일":3505,"겠다고":3506,"생활":3507,"▁13일":3508,"명으로":3509,"▁구축":3510,"해주":3511,"▁22일":3512,"▁1차":3513,"▁젊":3514,"특별":3515,"▁하기":3516,"▁불과":3517,"▁낮은":3518,"세가":3519,"수한":3520,"▁19일":3521,"에게는":3522,"실을":3523,"▁KBS":3524,"있다.":3525,"▁수는":3526,"놓고":3527,"진이":3528,"▁프로젝":3529,"▁l":3530,"인으로":3531,"▁시험":3532,"▁24일":3533,"▁이사":3534,"00만":3535,"▁195":3536,"▁16일":3537,"▁23일":3538,"▁범죄":3539,"라운드":3540,"▁다니":3541,"/MAJ<|endoftext|>":3542,"▁어려운":3543,"▁언제":3544,"▁쌓":3545,"시를":3546,"▁신경":3547,"▁6일":3548,"▁2017":3549,"CT_000":3550,"통신":3551,"▁35":3552,"치로":3553,"▁나왔다.":3554,"▁분명":3555,"▁꼽":3556,"▁불러":3557,"규모":3558,"상은":3559,"▁중심으로":3560,"▁아들":3561,"▁처음으로":3562,"▁경우도":3563,"하나":3564,"다,":3565,"▁되지":3566,"▁없다는":3567,"▁통과":3568,"▁덧붙":3569,"▁인근":3570,"▁의료":3571,"인가":3572,"세기":3573,"▁내부":3574,"▁꼬":3575,"▁이벤트":3576,"▁BSA":3577,"▁느낌":3578,"ff":3579,"▁기획":3580,"▁일본의":3581,"▁BTA":3582,"▁덕분에":3583,"▁모습이":3584,"▁일정":3585,"▁반영":3586,"▁여행":3587,"▁주의":3588,"▁초기":3589,"▁구매":3590,"▁기다":3591,"▁원작":3592,"무리":3593,"▁굴":3594,"▁거부":3595,"▁명칭":3596,"▁단체":3597,"▁챔피언":3598,"▁조합":3599,"▁보스":3600,"과학":3601,"▁짧":3602,"▁29일":3603,"▁사태":3604,"▁빅":3605,"▁BTEO00":3606,"▁BSEO00":3607,"'으로":3608,"▁박근혜":3609,"지면서":3610,"31":3611,"▁중단":3612,"민주당":3613,"비아":3614,"▁잡아":3615,"▁수행":3616,"▁기준으로":3617,"▁BSEO03":3618,"▁블랙":3619,"▁선언":3620,"▁영웅":3621,"다!":3622,"▁아르":3623,"▁크리스":3624,"▁활약":3625,"▁80":3626,"ik":3627,"▁글로벌":3628,"감이":3629,"▁지구":3630,"▁똑":3631,"▁하면서":3632,"▁벌어":3633,"▁꼭":3634,"▁만드는":3635,"%를":3636,"▁벽":3637,"▁직후":3638,"▁수입":3639,"분을":3640,"▁그동안":3641,"▁작업":3642,"▁개정":3643,"스에":3644,"▁올림픽":3645,"▁것과":3646,"호를":3647,"▁특정":3648,"▁택":3649,"▁수밖에":3650,"▁회의":3651,"'에서":3652,"▁린":3653,"▁그를":3654,"▁강조했다.":3655,"▁심각":3656,"▁갤":3657,"▁2007년":3658,"우리":3659,"무원":3660,"▁대법":3661,"▁지키":3662,"▁오브":3663,"으므로":3664,"▁동료":3665,"씨의":3666,"▁꺼":3667,"▁위반":3668,"▁도로":3669,"일이":3670,"반도":3671,"73":3672,"차가":3673,"▁이유는":3674,"ct":3675,"▁in":3676,"인물":3677,"티브":3678,"▁계열":3679,"▁국민의":3680,"76":3681,"89":3682,"▁운행":3683,"dd":3684,"-1":3685,"▁종합":3686,"계의":3687,"▁신고":3688,"스러운":3689,"▁이야기를":3690,"▁강원":3691,"▁센":3692,"회는":3693,"▁장기":3694,"하였다.<|endoftext|>":3695,"▁굳":3696,"49":3697,"▁그나마":3698,"▁습":3699,"드시":3700,"▁제출":3701,"▁출전":3702,"이고,":3703,"▁수비":3704,"▁달러":3705,"▁MBC":3706,"▁a":3707,"ot":3708,"인과":3709,"른다.":3710,"소가":3711,"▁발동":3712,"▁달성":3713,"▁무시":3714,"▁「":3715,"nd":3716,"이란":3717,"▁뜨":3718,"▁투입":3719,"전의":3720,"▁The":3721,"▁사용할":3722,"▁아프":3723,"영화":3724,"이버":3725,"▁없을":3726,"▁걱":3727,"▁라고":3728,"▁못했다.":3729,"▁가능하다.":3730,"섰다.":3731,"▁희망":3732,"▁민간":3733,"주를":3734,"공항":3735,"트는":3736,"▁늦":3737,"선이":3738,"국민":3739,"▁라는":3740,"다니":3741,"em":3742,"기고":3743,"/NNG+":3744,"▁보니":3745,"▁공격을":3746,"회에":3747,"페이지":3748,"▁하락":3749,"▁1위":3750,"▁파악":3751,"라가":3752,"▁하여":3753,"정의":3754,"▁으로":3755,"랐다.":3756,"▁계획이다.":3757,"__01":3758,"동산":3759,"▁수록":3760,"▁돈을":3761,"▁제안":3762,"국은":3763,"▁절대":3764,"▁굉장히":3765,"▁유리":3766,"▁위협":3767,"▁옛":3768,"▁영업":3769,"▁벨":3770,"▁매출":3771,"os":3772,"사에서":3773,"▁벤":3774,"대한민":3775,"이면":3776,"역을":3777,"TV":3778,"받은":3779,"▁불구하고":3780,"▁못하는":3781,"▁나무":3782,"▁물리":3783,"문이":3784,"▁등장하는":3785,"카이":3786,"▁항목":3787,"다운":3788,"▁내용을":3789,"▁비행":3790,"▁여론":3791,"▁보다":3792,"유의":3793,"▁동물":3794,"▁가입":3795,"▁획득":3796,"▁모르":3797,"신의":3798,"명,":3799,"▁혈":3800,"▁장애":3801,"아이":3802,"계가":3803,"66":3804,"▁남성":3805,"▁비중":3806,"▁구간":3807,"um":3808,"▁주택":3809,"과를":3810,"▁한정":3811,"▁현지":3812,"▁새누리":3813,"▁BTEO03":3814,"▁정의":3815,"43":3816,"▁둔":3817,"▁연출":3818,"▁자료":3819,"▁k":3820,"▁새로":3821,"만의":3822,"나무":3823,"▁g":3824,"▁아내":3825,"▁나머지":3826,"조건":3827,"더니":3828,"지방":3829,"▁불안":3830,"▁상황이":3831,"▁일어나":3832,"▁접근":3833,"▁이곳":3834,"졌다.<|endoftext|>":3835,"라의":3836,"피소":3837,"▁앞에서":3838,"IC":3839,"▁만한":3840,"▁옷":3841,"구는":3842,"▁대중":3843,"▁시간을":3844,"선의":3845,"군은":3846,"종의":3847,"▁있지만,":3848,"▁여기서":3849,"▁무슨":3850,"(이":3851,"▁투표":3852,"▁중에":3853,"▁싫":3854,"▁FC":3855,"▁수요":3856,"주시":3857,"▁빠져":3858,"리며":3859,"▁차단":3860,"이라도":3861,"▁밖":3862,"▁원내대표":3863,"정치":3864,"▁도착":3865,"이,":3866,"제의":3867,"▁이루어":3868,"▁맞아":3869,"았던":3870,"▁철도":3871,"▁St":3872,"호가":3873,"대전":3874,"ver":3875,"▁얼마나":3876,"06":3877,"▁자랑":3878,"▁스포츠":3879,"단은":3880,"▁홍보":3881,"▁인상":3882,"▁있다":3883,"▁베이":3884,"▁엄청난":3885,"자에":3886,"자.":3887,"▁1만":3888,"력과":3889,"▁교수는":3890,"▁야구":3891,"▁같다.":3892,"▁특성":3893,"보니":3894,"▁구체":3895,"법을":3896,"42":3897,"동,":3898,"▁엑":3899,"분이":3900,"▁반드시":3901,"▁혜":3902,"▁은행":3903,"▁관련해":3904,"고등학교":3905,"▁경찰은":3906,"으로부터":3907,".c":3908,"▁후에":3909,"지게":3910,"▁n":3911,"▁교체":3912,"나이":3913,"▁위에":3914,"▁링":3915,"▁했지만":3916,"ra":3917,"'이라는":3918,"▁방침":3919,"▁추천":3920,"▁최고의":3921,"복지":3922,"▁자리를":3923,"ation":3924,"▁장비":3925,"▁털":3926,"▁괜":3927,"▁마찬가지로":3928,"항공":3929,"석이":3930,"▁감사":3931,"▁온라인":3932,"▁울산":3933,"다\"는":3934,"▁외국인":3935,"▁이들":3936,"▁종료":3937,"겠다\"고":3938,"▁선고":3939,"했으나":3940,"▁플레이어":3941,"▁비롯한":3942,"▁등록":3943,"스티":3944,"▁인한":3945,"▁히로":3946,"마저":3947,"▁이용해":3948,"되기":3949,"▁약속":3950,"▁젊은":3951,"▁것이라는":3952,"▁갈등":3953,"▁앞두고":3954,"▁생존":3955,"▁한다고":3956,"▁1000":3957,"by":3958,"▁한국의":3959,"▁당연히":3960,"▁쓰러":3961,"도에":3962,"▁정권":3963,"스(":3964,"▁행복":3965,"▁뿌":3966,"▁갑자기":3967,"▁케이":3968,").":3969,"▁끝나":3970,"교통":3971,"▁고민":3972,"▁역대":3973,"자에게":3974,"▁대책":3975,"레이드":3976,"▁2018":3977,"텐츠":3978,"▁항상":3979,"▁밖에":3980,"노동":3981,"품을":3982,"말로":3983,"▁근무":3984,"▁년":3985,"'은":3986,"시마":3987,"▁봤":3988,"▁고양":3989,"▁보수":3990,"▁에피소":3991,"▁가면":3992,"▁정규":3993,"57":3994,"▁경남":3995,"형을":3996,"▁사는":3997,"▁앉":3998,"▁미사일":3999,"▁작가":4000,"ri":4001,"▁얘기":4002,"타로":4003,"56":4004,"▁여기에":4005,"▁전시":4006,"▁인식":4007,"텔레":4008,"▁제목":4009,"▁삭":4010,"았다.<|endoftext|>":4011,"▁바꾸":4012,"▁느끼":4013,"▁했던":4014,"▁난이":4015,"▁입장을":4016,"▁아버지":4017,"다른":4018,"▁남편":4019,"지면":4020,"▁쌍":4021,"지기":4022,"▁버전":4023,"▁나타나":4024,"▁지휘":4025,"▁강남":4026,"▁유니":4027,"제는":4028,"금융":4029,"▁마무리":4030,"만으로":4031,"▁어린이":4032,"▁선생":4033,"▁비밀":4034,"안이":4035,"마을":4036,"▁채용":4037,"▁없다고":4038,"▁내놓":4039,"화에":4040,"▁시대":4041,"▁가까운":4042,"47":4043,"▁전날":4044,"▁드래곤":4045,"▁낸":4046,"ul":4047,"술을":4048,"계에":4049,"▁포기":4050,"V+":4051,"▁정상회담":4052,"▁빠른":4053,"▁허용":4054,"▁맺":4055,"했으며,":4056,"▁주장했다.":4057,"▁통일":4058,"▁제외한":4059,"▁여름":4060,"▁중소":4061,"이즈":4062,"주택":4063,"퓨터":4064,"▁가수":4065,"ER":4066,"력으로":4067,"▁밴":4068,"력의":4069,"▁시작했다.":4070,"▁끝에":4071,"▁부여":4072,"화된":4073,"▁작중":4074,"보험":4075,"▁2016":4076,"▁북한의":4077,"주년":4078,"▁완성":4079,"__02":4080,"▁놓고":4081,"뉴스":4082,"▁사이에":4083,"▁h":4084,"▁츠":4085,"▁많아":4086,"▁주도":4087,"▁떠나":4088,"▁본인":4089,"▁측은":4090,"다'는":4091,"받는":4092,"산을":4093,"▁중이다.":4094,"내고":4095,"간다.":4096,"트남":4097,"▁왼":4098,"▁뉴욕":4099,"▁끌어":4100,"▁감독은":4101,"▁분노":4102,"▁크로":4103,"ak":4104,"▁앞에":4105,"플레이":4106,"▁바라":4107,"다\"라고":4108,"▁칭":4109,"op":4110,"▁우리나라":4111,"▁\"지":4112,"▁상황을":4113,"▁둘러":4114,"▁45":4115,"▁취급":4116,"▁버스":4117,"▁전자":4118,"▁금지":4119,"41":4120,"▁않으면":4121,"르크":4122,"▁기타":4123,"▁하늘":4124,"사고":4125,"▁논란이":4126,"▁라인":4127,"▁맵":4128,"정도":4129,"▁10년":4130,"거래":4131,"▁생긴":4132,"▁제조":4133,"▁참조":4134,"▁음식":4135,"▁만약":4136,"주가":4137,"▁죽음":4138,"▁적은":4139,"시로":4140,"호선":4141,"대회":4142,"▁주고":4143,"▁지배":4144,"본부":4145,"에만":4146,"안전":4147,"ce":4148,"▁재미":4149,"▁5년":4150,"▁좋다.":4151,"바이":4152,"야마":4153,"AA00":4154,"▁당선":4155,"하려는":4156,"▁밑":4157,"▁개혁":4158,"__01/NNG<|endoftext|>":4159,"▁손을":4160,"▁바탕":4161,"·미":4162,"▁홈페이지":4163,"▁소녀":4164,"▁500":4165,"'(":4166,"▁수익":4167,"▁보였다.":4168,"려서":4169,"병원":4170,"ST":4171,"▁든":4172,"▁쏟":4173,"▁코스":4174,"\"라며":4175,"▁맞춰":4176,"▁나타났다.":4177,"46":4178,"프를":4179,"▁데이터":4180,"이닝":4181,"건을":4182,"란드":4183,"▁제일":4184,"선수":4185,"증을":4186,"▁것처럼":4187,"▁예술":4188,"▁32":4189,"▁엄마":4190,"▁국립":4191,"▁대변":4192,"▁활동을":4193,"▁통한":4194,"▁도쿄":4195,"▁그/MM<|endoftext|>":4196,"▁결승":4197,"▁런":4198,"▁서울시":4199,"포인트":4200,"▁복귀":4201,"▁근로":4202,"▁보기":4203,"/JK":4204,"▁효과를":4205,"▁실험":4206,"회사":4207,"▁방면":4208,"▁2006년":4209,"▁디자인":4210,"▁파워":4211,"리게":4212,")로":4213,"관에서":4214,"▁듀":4215,"▁수정":4216,"요일":4217,"▁광고":4218,"▁하고,":4219,"▁최초로":4220,"▁방영":4221,"▁정보를":4222,"▁희생":4223,"▁최저":4224,"▁필요가":4225,"하다가":4226,"▁경기를":4227,"▁바다":4228,"▁경우는":4229,"화의":4230,"▁90":4231,"▁대부분의":4232,"▁관심을":4233,"이로":4234,"▁도망":4235,"ut":4236,"▁2015":4237,"▁말한다.":4238,"식으로":4239,"▁따로":4240,"광역":4241,"다”고":4242,"론을":4243,"▁제재":4244,"▁맹":4245,"▁세월":4246,"▁칠":4247,"▁나올":4248,"었다고":4249,"▁소유":4250,"▁맞는":4251,"▁직업":4252,"▁도전":4253,"▁듣고":4254,"타임":4255,"▁증거":4256,"▁아름":4257,"▁사회적":4258,"▁이탈리아":4259,"ine":4260,"(1":4261,"▁힐":4262,"기간":4263,"해를":4264,"▁등은":4265,"▁월드컵":4266,"▁비난":4267,"석을":4268,"했지만,":4269,"방을":4270,"95":4271,"▁등장인물":4272,"▁보험":4273,"▁짜":4274,"계획":4275,"자동":4276,"▁개념":4277,"▁대사":4278,"▁있다면":4279,"러스":4280,"▁y":4281,"리트":4282,"냐는":4283,"▁스피":4284,"▁민주당":4285,"▁2,":4286,"▁우리가":4287,"국제":4288,"스토":4289,"▁소리":4290,"많은":4291,"▁경우에는":4292,"위의":4293,"보를":4294,"▁연장":4295,"점은":4296,"▁앤":4297,"%<|endoftext|>":4298,"▁달려":4299,"리면":4300,"▁임명":4301,"▁사람을":4302,"▁현장":4303,"▁패턴":4304,"▁부르":4305,"진은":4306,"승을":4307,"▁능력을":4308,"▁평소":4309,"니스":4310,"▁다소":4311,"▁대미":4312,"레벨":4313,"▁홈런":4314,"키는":4315,"카드":4316,"분기":4317,"▁공유":4318,"▁활성":4319,"▁좋지":4320,"▁충분히":4321,"▁명의":4322,"건설":4323,"▁잠시":4324,"한다\"고":4325,"▁<":4326,"▁만난":4327,"▁포함한":4328,"▁없고":4329,"▁장소":4330,"▁칸":4331,"▁마치":4332,"인들이":4333,"구에":4334,"▁갔":4335,"다(...)":4336,"▁근거":4337,"▁이외":4338,"(S":4339,"대에서":4340,"▁출발":4341,"▁부동산":4342,"▁챙":4343,"▁부활":4344,"만한":4345,"▁신뢰":4346,"kg":4347,"▁태어":4348,"율을":4349,"▁판결":4350,"▁상징":4351,"주고":4352,"부터는":4353,"▁취임":4354,"'라고":4355,"▁1회":4356,"▁남은":4357,"198":4358,"▁정도의":4359,"▁마음을":4360,"리스트":4361,"주로":4362,"▁웹":4363,"▁때마다":4364,"었고,":4365,"▁깔":4366,"▁빠르게":4367,"▁스토리":4368,"듯이":4369,"▁조정":4370,"08":4371,"▁차이가":4372,"▁테러":4373,"▁아침":4374,"▁것\"이라며":4375,"▁우리는":4376,"▁정리":4377,"려면":4378,"▁빨리":4379,"▁300":4380,"▁곤":4381,"전쟁":4382,"▁번역":4383,"▁호텔":4384,"▁꾸준":4385,"▁한화":4386,"음에도":4387,"률이":4388,"▁사실이":4389,"(201":4390,"▁그린":4391,"▁컴퓨터":4392,"▁늘어":4393,"▁덧붙였다.":4394,"일보":4395,"▁기록했다.":4396,"▁반발":4397,"▁여담":4398,"▁2005년":4399,"mm":4400,"▁전북":4401,"▁생명":4402,"▁있으면":4403,"▁\"아":4404,"▁완전":4405,"▁사상":4406,"▁가게":4407,"~201":4408,"▁작성":4409,"우고":4410,"▁소득":4411,"들로":4412,"▁점에서":4413,"▁속에서":4414,"IA":4415,"▁유명한":4416,"▁결과를":4417,"▁공격력":4418,")에서":4419,"▁위치한":4420,"별로":4421,"이에":4422,"대,":4423,"▁정당":4424,"ia":4425,"▁없다\"고":4426,"▁가르":4427,"▁그때":4428,"▁떨어진":4429,"평가":4430,"체육":4431,"▁e":4432,"▁않게":4433,"군을":4434,"▁건축":4435,"▁신규":4436,"단에":4437,"▁유치":4438,"스테":4439,"질을":4440,"oc":4441,"회견":4442,"▁살해":4443,"씨를":4444,"▁검은":4445,"시킬":4446,"호는":4447,"▁때,":4448,"▁분양":4449,"성도":4450,"▁장착":4451,"이브":4452,"하지만,":4453,"▁기소":4454,"/SP<|endoftext|>":4455,"▁대기":4456,"▁제거":4457,"부와":4458,"▁중간":4459,"▁저지":4460,"▁하자":4461,"▁두산":4462,"라를":4463,"▁지금까지":4464,"▁애초":4465,"▁BTGO03":4466,"▁오랜":4467,"▁BSGO03":4468,"수도":4469,"부로":4470,"율은":4471,"▁압박":4472,"▁나선":4473,"▁단계":4474,"감독":4475,"▁부탁":4476,"▁명령":4477,"리티":4478,"▁상위":4479,"안에":4480,"/VV+":4481,"▁관련된":4482,"▁SBS":4483,"▁사람의":4484,"▁나누":4485,"한다면":4486,"▁김영":4487,"▁Z":4488,"웠다.":4489,")와":4490,"차례":4491,"▁38":4492,"션을":4493,"▁밥":4494,"▁페이스":4495,"조선":4496,"금이":4497,"서관":4498,"▁개봉":4499,"▁충격":4500,"라스":4501,"조를":4502,"▁효과가":4503,"단계":4504,"▁별로":4505,"▁뒤에":4506,"▁속에":4507,"했으며":4508,"▁회원":4509,"▁대북":4510,"62":4511,"▁반복":4512,"▁있지":4513,"72":4514,"▁거주":4515,"여서":4516,"▁싱글":4517,"▁스파":4518,"▁유사":4519,"▁씨는":4520,"거나,":4521,"▁적을":4522,"인,":4523,"%가":4524,"서비":4525,"▁아이돌":4526,"▁거기":4527,"실에서":4528,"▁클래":4529,"▁체력":4530,"▁가끔":4531,"▁띄":4532,"▁and":4533,"반기":4534,"▁프로젝트":4535,"▁도움이":4536,"▁수원":4537,"▁검사":4538,"제에":4539,"▁종교":4540,"▁KT":4541,"▁베트남":4542,"▁의심":4543,"로가":4544,"소득":4545,"▁에너지":4546,"대한민국의":4547,"▁괜찮":4548,"▁법률":4549,"-0005":4550,"지에서":4551,"▁하지만,":4552,"▁있었다.<|endoftext|>":4553,"문의":4554,"▁트위":4555,"▁중국의":4556,"나,":4557,"치의":4558,"▁사과":4559,"도와":4560,"겠지만":4561,"▁향해":4562,"▁카메":4563,"▁헌법":4564,"▁동생":4565,"▁약간":4566,"▁퀘":4567,"▁분류":4568,"했는데":4569,"속도로":4570,"▁보인다.<|endoftext|>":4571,"▁가슴":4572,"▁올려":4573,"▁명예":4574,"▁투수":4575,"관광":4576,"▁33":4577,"져서":4578,"▁하는데":4579,"▁연습":4580,"..<|endoftext|>":4581,"▁강제":4582,"▁마스터":4583,"▁받지":4584,"인다.":4585,"98":4586,"▁머리":4587,"▁측면":4588,"▁이재":4589,"▁얻을":4590,"▁수석":4591,"▁해석":4592,"크로":4593,"▁31일":4594,"▁근처":4595,"▁정작":4596,"▁일어":4597,"▁새누리당":4598,"71":4599,"카와":4600,"▁무역":4601,"cm":4602,"▁기자회견":4603,"▁지적했다.":4604,"▁운전":4605,"▁스마트폰":4606,"▁썼":4607,"▁조작":4608,"▁이적":4609,"ap":4610,"하다\"고":4611,"▁공화":4612,"▁대출":4613,"▁척":4614,"▁인기":4615,"스럽게":4616,"상에서":4617,"▁공정":4618,"▁넘는":4619,"쪽으로":4620,"▁관객":4621,"▁혁신":4622,"▁디지":4623,"▁현재는":4624,"▁알게":4625,"▁점점":4626,"▁사람들은":4627,"▁로마":4628,"나의":4629,"▁통신":4630,"남도":4631,"장판":4632,"▁종류":4633,"미가":4634,"▁진입":4635,"▁부인":4636,"▁이른":4637,"하겠다\"고":4638,"▁리더":4639,"▁사전":4640,"▁체험":4641,"▁완벽":4642,"▁그려":4643,"▁고통":4644,"보기":4645,"원과":4646,"전문":4647,"▁만화":4648,"▁이로":4649,"▁경우,":4650,"크를":4651,"경을":4652,"▁잊":4653,"▁이름이":4654,"▁겨울":4655,"▁있습니다.":4656,"▁끝난":4657,"▁짝":4658,"야말로":4659,"▁가정":4660,"▁압도":4661,"▁넥":4662,"▁바람에":4663,"▁무려":4664,"▁다가":4665,"▁짐":4666,"▁클리어":4667,"▁작곡":4668,")과":4669,"▁수용":4670,"▁향후":4671,"▁감안":4672,"▁걱정":4673,"라서":4674,"모토":4675,"▁쏘":4676,"한국당":4677,"적이고":4678,"개로":4679,"▁눈에":4680,"▁작년":4681,"▁때까지":4682,"93":4683,"▁제3":4684,"▁대한민국의":4685,"면,":4686,"▁밝힌":4687,"▁의견을":4688,"어의":4689,"스케":4690,"▁출생":4691,"들어":4692,"▁개편":4693,"▁하였다.":4694,"ruby":4695,"▁쏟아":4696,"나게":4697,"▁제국":4698,"▁취업":4699,"67":4700,"명에":4701,"▁검찰은":4702,"(,":4703,"/EC":4704,"▁미리":4705,"▁유튜":4706,"진의":4707,"▁처벌":4708,"▁의한":4709,"▁위해서는":4710,"▁유엔":4711,"▁KB":4712,"하겠다는":4713,"▁식으로":4714,"협회":4715,"▁2004년":4716,"▁도와":4717,"활동":4718,"▁뛰어":4719,"성,":4720,"▁멸":4721,"▁있으니":4722,"시티":4723,"적으로는":4724,"국가":4725,"P+":4726,"▁비롯해":4727,"▁메인":4728,"▁전화":4729,"데이트":4730,"▁절반":4731,"우가":4732,"자들을":4733,"▁봄":4734,"ard":4735,"수사":4736,"▁BSAA01":4737,"▁BTAA01":4738,"▁만족":4739,"▁관심이":4740,"▁규정":4741,"트리":4742,"▁열어":4743,"▁기초":4744,"▁적절":4745,"▁쫓":4746,"▁오르":4747,"▁돌아가":4748,"od":4749,"아버":4750,"▁에서":4751,"▁설계":4752,"▁고위":4753,"▁의사":4754,"로의":4755,"▁수많은":4756,"▁한반도":4757,"▁청소년":4758,"합니다.":4759,"▁세종":4760,"-2":4761,"했기":4762,"▁st":4763,"바일":4764,"▁바탕으로":4765,"▁안타":4766,"공격":4767,"▁시작한":4768,"권이":4769,"▁태양":4770,"▁은퇴":4771,"▁36":4772,"▁체결":4773,"▁늘어나":4774,"▁중에서":4775,"▁-1":4776,"▁Q":4777,"▁경북":4778,"고는":4779,"▁탈출":4780,"북한":4781,"하이":4782,"▁の":4783,"09":4784,"▁소모":4785,"07":4786,"▁화장":4787,"▁회장":4788,"▁모드":4789,"▁타격":4790,"이익":4791,"▁...":4792,"점에서":4793,"51":4794,"▁지상":4795,"▁로봇":4796,"▁193":4797,"▁걸쳐":4798,"다시":4799,"▁3개":4800,"▁더불어민주당":4801,"▁소송":4802,"▁아니면":4803,"▁좋아하는":4804,"권의":4805,"▁생각해":4806,"FA":4807,"▁지금은":4808,"▁방식으로":4809,"▁엔딩":4810,"▁보도했다.":4811,"▁쓰고":4812,"▁전설":4813,"▁매년":4814,"▁다르게":4815,"어버":4816,"시대":4817,"투자":4818,"▁주문":4819,"▁북미":4820,"▁형성":4821,"all":4822,"▁공포":4823,"되며":4824,"▁화면":4825,"이다":4826,"받고":4827,"▁열고":4828,"▁합류":4829,"체의":4830,"▁알려져":4831,"▁취소":4832,"▁도움을":4833,"▁촉구":4834,"▁표시":4835,"▁흉":4836,"조의":4837,"입니다.<|endoftext|>":4838,"▁상태에서":4839,"▁예를":4840,"켓몬":4841,"수,":4842,"▁홍콩":4843,"▁시각":4844,"o.":4845,"▁나름":4846,"▁덤":4847,"▁기회를":4848,"▁말에":4849,"▁법무":4850,"▁십":4851,"▁전면":4852,"▁기술을":4853,"니티":4854,"량은":4855,"B01":4856,"예술":4857,"▁그리스":4858,"자들":4859,"▁뭔":4860,"▁김정은":4861,"▁몽":4862,"▁덜":4863,"차는":4864,"공사":4865,"자치":4866,"▁Ch":4867,"안타":4868,"▁민족":4869,"▁토론":4870,"스<|endoftext|>":4871,"▁사항":4872,"▁제도":4873,"▁아무리":4874,"▁센터":4875,"▁업데이트":4876,"바로":4877,"▁받아들":4878,"▁유일한":4879,",/SP<|endoftext|>":4880,"▁컬":4881,"사진":4882,"ang":4883,"▁펼쳐":4884,"억원을":4885,"▁높다.":4886,"구역":4887,"▁발생한":4888,"▁자세한":4889,"▁형사":4890,"▁길을":4891,"▁2019":4892,"▁재정":4893,"청은":4894,"▁싶은":4895,"F<|endoftext|>":4896,"▁보장":4897,"▁밝히":4898,"▁튀":4899,"▁멋":4900,"▁카이":4901,"▁(N":4902,"85":4903,"▁메시":4904,"▁이르":4905,"나다":4906,"87":4907,"▁돌려":4908,"▁유통":4909,",<|endoftext|>":4910,"마자":4911,"대책":4912,"▁(200":4913,"▁전개":4914,"▁확장":4915,"81":4916,"먼트":4917,"▁2000":4918,"▁원칙":4919,"▁빚":4920,"▁에피소드":4921,"ate":4922,"▁대규모":4923,"%에":4924,"▁고정":4925,"개혁":4926,"이던":4927,"판을":4928,"▁붉":4929,"▁아카":4930,"음이":4931,"▁운용":4932,"▁점이":4933,"(2":4934,"▁초대":4935,"▁상관":4936,"▁의원이":4937,"▁구입":4938,"▁아쉬":4939,"▁스크":4940,"▁펜":4941,"▁협의":4942,"▁열리는":4943,"▁()":4944,"▁내용이":4945,"▁등에서":4946,"▁to":4947,"▁경기에서":4948,"▁34":4949,"▁대결":4950,"▁상당한":4951,"▁보조":4952,"생을":4953,"▁뛰어난":4954,"▁하나의":4955,"스에서":4956,"▁사건을":4957,"▁이게":4958,"어는":4959,"▁혐의를":4960,"아야":4961,"서가":4962,"▁힘든":4963,"▁대표적인":4964,"(),":4965,"▁쿨":4966,"▁감염":4967,"▁덱":4968,"한다":4969,"▁4년":4970,"▁주식":4971,"▁맞추":4972,"▁퀘스트":4973,"▁이들이":4974,"▁불편":4975,"▁나중에":4976,"미를":4977,"▁죽은":4978,"AR":4979,"·중":4980,"길을":4981,"▁성향":4982,"차로":4983,"▁목적":4984,"심히":4985,"▁가서":4986,"임금":4987,"▁이란":4988,"▁블루":4989,"ill":4990,"지션":4991,"▁디자":4992,"▁1~":4993,"▁분류:대한민국의":4994,"미널":4995,"▁긍":4996,"▁전작":4997,"▁몸을":4998,"▁추가로":4999,"▁말했다.<|endoftext|>":5000,"92":5001,"▁사진을":5002,"▁집행":5003,"냐고":5004,"▁정치적":5005,"▁이름은":5006,"▁인구":5007,"라우":5008,"거운":5009,"▁아키":5010,"▁널":5011,"▁말하는":5012,"치지":5013,"▁일은":5014,"▁원하는":5015,"▁안보":5016,"ie":5017,"▁다루":5018,"▁거리":5019,"▁기여":5020,"기자":5021,"▁인공":5022,"(C":5023,"라,":5024,"▁그럼":5025,"▁김성":5026,"▁1인":5027,"▁그러면서":5028,"▁문을":5029,"▁셀":5030,"가와":5031,"▁다행":5032,"▁'이":5033,"▁때도":5034,"▁멈":5035,"당을":5036,"▁승리를":5037,"▁미니":5038,"하려고":5039,"사건":5040,"광역시":5041,"▁롤":5042,"▁도중":5043,"▁입고":5044,"▁방안을":5045,"IP":5046,"▁묘사":5047,"▁불리":5048,"▁거짓":5049,"▁자녀":5050,"▁실질":5051,"장인":5052,"▁성적":5053,"▁정식":5054,"▁기계":5055,"▁나오고":5056,"▁공중":5057,"500":5058,"외로":5059,"▁2개":5060,"사무":5061,"▁부회":5062,"탄을":5063,"했다\"며":5064,"▁부문":5065,"장관":5066,"르트":5067,"▁본인이":5068,"▁돌파":5069,"정상":5070,"▁선물":5071,"▁국토":5072,"정으로":5073,"▁차별":5074,"▁글을":5075,"▁게임을":5076,"▁근접":5077,"▁편이다.":5078,"▁잉":5079,"▁동아":5080,"▁총선":5081,"▁살인":5082,"▁완료":5083,"▁외에도":5084,"▁2000년":5085,"▁숲":5086,"▁평가를":5087,"▁흔들":5088,"▁메르":5089,"▁파티":5090,"체는":5091,"▁징역":5092,"▁사업을":5093,"가로":5094,"▁앙":5095,"▁시기":5096,"호의":5097,"▁직전":5098,"▁바닥":5099,"이와":5100,"▁듯한":5101,"+,/SP<|endoftext|>":5102,"어,":5103,"▁삭제":5104,"▁랜":5105,"초등학교":5106,"53":5107,"질이":5108,"▁분리":5109,"조가":5110,"▁보건":5111,"했는데,":5112,"▁빙":5113,"▁인수":5114,"▁꾸준히":5115,"니다":5116,"력에":5117,"()의":5118,"NS":5119,"▁랭":5120,"96":5121,"▁타입":5122,"▁공항":5123,"이니":5124,"ong":5125,"▁최강":5126,"렸다.<|endoftext|>":5127,"▁대로":5128,"▁이승":5129,"▁멜":5130,"▁이달":5131,"▁국회의원":5132,"▁일행":5133,"▁윌":5134,"▁출마":5135,"하겠다고":5136,"▁회담":5137,"▁상처":5138,"드리":5139,"▁채널":5140,"▁날아":5141,"는다.<|endoftext|>":5142,"▁소련":5143,"지자":5144,"분의":5145,"▁배틀":5146,"▁2002년":5147,"▁단독":5148,"▁하다.<|endoftext|>":5149,"▁프레":5150,"▁알려진":5151,"▁옵":5152,"가,":5153,"발전":5154,"▁철저":5155,"▁규제":5156,"▁그녀의":5157,"(19":5158,"모를":5159,"서에":5160,"▁포인트":5161,"▁전남":5162,"▁엘리":5163,"▁파이":5164,"▁충돌":5165,"▁탓에":5166,"▁못해":5167,"사카":5168,"즈의":5169,"ea":5170,"직을":5171,"(?":5172,"구나":5173,"▁붕":5174,"가족":5175,"▁연계":5176,"자들에게":5177,"▁단지":5178,"FF":5179,"적이다.":5180,"▁변신":5181,"▁목숨":5182,"▁균":5183,"▁무료":5184,"▁이건":5185,"▁임시":5186,"▁사냥":5187,"▁보이고":5188,"▁부상":5189,"art":5190,"▁찌":5191,"▁확산":5192,"▁he":5193,"▁비핵":5194,"표를":5195,"▁대표가":5196,"기지":5197,"▁비상":5198,"량의":5199,"▁외부":5200,"54":5201,"동이":5202,"▁미션":5203,"용으로":5204,"iki":5205,"84":5206,"금은":5207,"▁선임":5208,"로그":5209,"▁탈락":5210,"▁예비":5211,"▁공무원":5212,"▁모아":5213,"▁콤":5214,"▁회장은":5215,"▁킹":5216,"▁2003년":5217,"▁탱":5218,"었고":5219,"ec":5220,"▁조종":5221,"▁때문에,":5222,"▁느껴":5223,"시오":5224,"▁폐지":5225,"▁페이스북":5226,"점에":5227,"올림픽":5228,"▁조치":5229,"▁의무":5230,"▁'201":5231,"▁사기":5232,"방에":5233,"일러":5234,"었을":5235,"류를":5236,"▁체포":5237,"▁편의":5238,"VP":5239,"서의":5240,"-02":5241,"%)":5242,"재판":5243,"▁포켓몬":5244,"▁김정":5245,"국을":5246,"▁당장":5247,"'와":5248,"▁집단":5249,"▁반대로":5250,"▁유튜브":5251,"▁\"대":5252,"이었다.<|endoftext|>":5253,"로드":5254,"▁발표한":5255,"▁경상":5256,"▁본래":5257,"▁유도":5258,"신은":5259,"▁얻어":5260,"로도":5261,"대와":5262,"북도":5263,"▁사이트":5264,"일의":5265,"▁시내":5266,"워크":5267,"▁인기를":5268,"세의":5269,"▁입학":5270,"▁첨":5271,"▁2루":5272,"()<|endoftext|>":5273,"디아":5274,"▁소방":5275,"▁분류:19":5276,"--":5277,"▁전년":5278,"스카":5279,"▁북한이":5280,"▁이내":5281,"▁서비스를":5282,"형이":5283,"▁벗어나":5284,"님이":5285,"52":5286,"치게":5287,"마의":5288,"문학":5289,"▁타카":5290,"▁먹고":5291,"▁'아":5292,"▁최대한":5293,"▁타이틀":5294,"주민":5295,"▁무장":5296,"▁물러":5297,"▁주말":5298,"▁카페":5299,"▁이들의":5300,"▁자격":5301,"비는":5302,"▁등장한":5303,"동의":5304,"▁vs":5305,"▁대단":5306,"▁기존의":5307,"▁저항":5308,"▁내에서":5309,"▁캡":5310,"▁트위터":5311,"임이":5312,"▁가득":5313,"재를":5314,"▁동원":5315,"▁한편,":5316,"▁모르는":5317,"▁모바일":5318,"▁게시":5319,"락을":5320,"▁최초의":5321,"▁아니고":5322,"▁유일하게":5323,"▁않는다.<|endoftext|>":5324,"▁지하철":5325,"▁150":5326,"▁무리":5327,"▁지원을":5328,"▁요즘":5329,"ON":5330,"▁소년":5331,"91":5332,"▁말해":5333,"▁아는":5334,"▁클럽":5335,"▁고등학교":5336,"▁2014":5337,"▁영입":5338,"▁댓":5339,"ight=":5340,"▁상태로":5341,"문은":5342,"▁보이지":5343,"▁보여준":5344,"▁권한":5345,"▁먹는":5346,"시키고":5347,"▁경찰에":5348,"▁레드":5349,"▁인권":5350,"▁긍정":5351,"소에":5352,"▁파트":5353,"▁뿐만":5354,"▁매일":5355,"▁쥐":5356,"▁춘":5357,"▁발표했다.":5358,"II":5359,"▁줄어들":5360,"합니다.<|endoftext|>":5361,"식에":5362,"▁오프":5363,"줬다.":5364,"▁그만":5365,"요?":5366,"▁집에":5367,"▁켄":5368,"▁37":5369,"구로":5370,"'과":5371,"▁무너":5372,"사랑":5373,"협의":5374,"(M":5375,"▁뉴스":5376,"화,":5377,"▁라이브":5378,"▁르":5379,"▁몰아":5380,"▁간단":5381,"▁요리":5382,"화와":5383,"▁바른":5384,"▁상황에":5385,"▁표기":5386,"▁싸움":5387,"▁내용은":5388,"▁등과":5389,"▁가까이":5390,"▁스위":5391,"▁아베":5392,"관의":5393,"전은":5394,"▁하나로":5395,"wiki":5396,"▁특이":5397,"받아":5398,"▁관측":5399,"중국":5400,"사이":5401,"▁떡":5402,":00":5403,"▁즉,":5404,"▁경고":5405,"▁부분이":5406,"프가":5407,"▁설득":5408,"▁다음과":5409,"▁가로":5410,"▁싸우":5411,"▁적극적으로":5412,"라.":5413,"철도":5414,"것도":5415,"패를":5416,"▁장관은":5417,"▁들여":5418,"▁우수":5419,"▁열심히":5420,"▁192":5421,"▁보낸":5422,"▁후속":5423,"피아":5424,"▁중소기업":5425,"▁복지":5426,"▁위의":5427,"▁48":5428,"▁대통령과":5429,"트라":5430,"▁임대":5431,"▁대학교":5432,"▁했다고":5433,"▁눈을":5434,"our":5435,"▁몇몇":5436,"▁마침":5437,"▁2020년":5438,"나와":5439,"지법":5440,"▁이걸":5441,"▁무조건":5442,"피스":5443,"▁팀의":5444,"▁셋":5445,"▁누군":5446,"겠다.":5447,"쪽에":5448,"▁신설":5449,"▁자유한국당":5450,"연을":5451,"▁텐":5452,"▁커뮤":5453,"▁성과":5454,"IN":5455,"▁무엇보다":5456,"(T":5457,"▁하였":5458,"안은":5459,"시민":5460,"▁뜻을":5461,"복을":5462,"중한":5463,"se":5464,"관련":5465,"▁윈":5466,"▁탄핵":5467,"소는":5468,"▁밝혔다.<|endoftext|>":5469,"▁지역의":5470,"▁살펴":5471,"공원":5472,"%의":5473,"었지만":5474,"조합":5475,"권에":5476,"시,":5477,"▁규모의":5478,"▁한글":5479,"범죄":5480,"사인":5481,"(약":5482,"▁아프리카":5483,"실에":5484,"렀다.":5485,"▁In":5486,"널드":5487,"(A":5488,"▁구분":5489,"▁프리미":5490,"▁사건이":5491,"▁지명":5492,"▁상대적으로":5493,"시험":5494,"▁일자리":5495,"▁등급":5496,"구,":5497,"Z00":5498,"가고":5499,"▁가리":5500,"▁멘":5501,"▁보아":5502,"▁싫어":5503,"▁탑재":5504,"▁불리는":5505,"선에":5506,"포를":5507,"든지":5508,"▁그에":5509,"서,":5510,"▁중반":5511,"▁조사를":5512,"▁동맹":5513,"연히":5514,"함이":5515,"▁마리":5516,"▁갖추":5517,"▁광역":5518,"▁긴급":5519,"▁책임을":5520,"석은":5521,"▁거듭":5522,"무라":5523,"▁사용자가":5524,"▁종종":5525,"▁목록":5526,"었다는":5527,"▁지시":5528,"▁창업":5529,"▁감독이":5530,"메달":5531,"▁에이":5532,"카오":5533,"▁디지털":5534,"▁워낙":5535,"):":5536,"물의":5537,"▁발휘":5538,"▁찾는":5539,"국에":5540,"AN":5541,"▁보상":5542,"▁많았":5543,"▁스테이지":5544,"▁필수":5545,"범한":5546,"▁나타난":5547,"age":5548,"▁해군":5549,"▁혜택":5550,"▁개입":5551,"▁연주":5552,"px;":5553,"61":5554,"▁대기업":5555,"▁잡고":5556,"▁명이":5557,"▁봐도":5558,"▁라디오":5559,"▁생각을":5560,"▁-<|endoftext|>":5561,"▁노출":5562,"▁이름으로":5563,"▁이익":5564,"▁개막":5565,"▁미세":5566,"▁들이":5567,"▁여야":5568,"▁속도":5569,"▁이용한":5570,"실이":5571,"▁치명":5572,"부,":5573,"▁아군":5574,"▁추측":5575,"▁생각이":5576,"▁신체":5577,"▁작용":5578,"사항":5579,"일은":5580,"시켰다.":5581,"▁\"내":5582,"▁계획을":5583,"83":5584,"▁무사":5585,"페이":5586,"▁심각한":5587,"▁\"미":5588,"▁병원":5589,"▁애초에":5590,"래도":5591,"상태":5592,"\"라는":5593,"장애":5594,"▁39":5595,"▁문제로":5596,"▁가깝":5597,"2,":5598,"▁다운":5599,"▁카운":5600,"싱턴":5601,"▁1개":5602,"▁주소":5603,"▁4개":5604,"이지만,":5605,"▁문학":5606,"행정":5607,"마가":5608,"등급":5609,"▁흐름":5610,"에게서":5611,"레인":5612,"▁댓글":5613,"▁HP":5614,"스탄":5615,"▁자살":5616,"▁파견":5617,"▁사람들":5618,"크가":5619,"▁핀":5620,"▁걸어":5621,"▁댄":5622,"▁들어간":5623,"▁인터뷰에서":5624,"▁소통":5625,"▁할머니":5626,"▁굳이":5627,"▁훈":5628,"목을":5629,"▁객":5630,"▁빼앗":5631,"▁경향":5632,"▁(19":5633,"▁그저":5634,"▁바란":5635,"▁시나":5636,"▁수준의":5637,"▁나섰다.":5638,"▁특유의":5639,"▁효율":5640,"▁주요기사":5641,"▁누가":5642,"(...)<|endoftext|>":5643,"▁편집":5644,"▁단순히":5645,"▁싶어":5646,"각을":5647,"000만":5648,"▁오리":5649,"▁이유가":5650,"▁에어":5651,"▁안내":5652,"pl":5653,"▁사법":5654,"▁끝내":5655,"다'고":5656,"▁록":5657,"시스템":5658,"▁대답":5659,"▁오픈":5660,"부모":5661,"▁능력이":5662,"▁텔레":5663,"▁붉은":5664,"▁곳에":5665,"보호":5666,"식의":5667,"▁동의":5668,"▁AP":5669,"하니":5670,"ack":5671,"▁관계를":5672,"▁큐":5673,"▁닥":5674,"/SF<|endoftext|>":5675,"▁연방":5676,"if":5677,"▁전해졌다.":5678,"width=":5679,"▁여담으로":5680,"이야":5681,"▁마이크":5682,"명과":5683,"▁말고":5684,"▁나오지":5685,"FC":5686,"이상":5687,"▁협상":5688,"▁우리의":5689,"▁(NP":5690,"▁옮겨":5691,"포르":5692,"▁셈이다.":5693,"했다":5694,"면을":5695,"리면서":5696,"▁관광객":5697,"▁\"우":5698,"▁히어로":5699,"수와":5700,"▁혼란":5701,"▁이기":5702,"▁자본":5703,"악의":5704,"언을":5705,"97":5706,"에게도":5707,"▁보여주는":5708,"▁국가대표":5709,"▁무한":5710,"▁일러":5711,"DO":5712,"경영":5713,"▁떠올":5714,"▁예측":5715,"축구":5716,"▁없어서":5717,"▁스코":5718,"사키":5719,"시안":5720,"▁안에서":5721,"▁업그":5722,"우를":5723,"▁보였":5724,"'이라고":5725,"▁왔다.":5726,"▁?":5727,"▁그걸":5728,"골을":5729,"▁데이":5730,"▁줄어":5731,"▁점검":5732,"심이":5733,"▁엔진":5734,"▁물건":5735,"▁융":5736,"▁지속적으로":5737,"▁카드를":5738,"'s":5739,"▁육군":5740,"▁이명":5741,"크의":5742,"▁예고":5743,"▁깊은":5744,"▁노조":5745,"드에":5746,"재가":5747,"조정":5748,"스키":5749,"▁width=20":5750,"▁공략":5751,"산이":5752,"▁음반":5753,"보가":5754,"82":5755,"▁마르":5756,"▁탄생":5757,"▁엉":5758,"▁동영":5759,"단지":5760,"▁범위":5761,"▁살아남":5762,"▁힘이":5763,"▁겹":5764,"기준":5765,"지컬":5766,"TA":5767,"▁렌":5768,"전으로":5769,"화로":5770,"▁네이버":5771,"▁위로":5772,"기<|endoftext|>":5773,"▁값":5774,"▁내는":5775,"▁\"이번":5776,"동생":5777,"▁올랐다.":5778,"▁떨어져":5779,"▁점은":5780,"▁과정을":5781,"▁개그":5782,"▁주력":5783,"▁회피":5784,"▁장난":5785,"▁놈":5786,"요<|endoftext|>":5787,"▁애플":5788,"▁엠":5789,"자동차":5790,"▁그야말로":5791,"ab":5792,"▁1위를":5793,"▁진화":5794,"▁방해":5795,"▁이정":5796,"▁2회":5797,"타가":5798,"식은":5799,"대상":5800,"▁들어서":5801,"▁비교적":5802,"▁PC":5803,"▁다크":5804,"재단":5805,"중학교":5806,"너스":5807,"▁수도권":5808,"1,":5809,"▁이다.":5810,"▁제가":5811,"▁청구":5812,"▁콘텐츠":5813,"으로도":5814,"▁있습니다.<|endoftext|>":5815,"▁외에":5816,"▁개의":5817,"나를":5818,"▁요시":5819,"▁못할":5820,"▁\"한":5821,"▁고급":5822,"▁=":5823,"▁묵":5824,"▁밀어":5825,"▁2001년":5826,"▁섭":5827,"▁내세":5828,"▁트리":5829,"즈를":5830,"▁전력":5831,"▁어둠":5832,"미의":5833,"▁데려":5834,"▁새벽":5835,"지구":5836,"▁올린":5837,"▁맡은":5838,"▁손에":5839,"▁하며,":5840,"구조":5841,"▁입은":5842,"함으로써":5843,"▁평양":5844,"▁55":5845,"▁내에":5846,"▁개통":5847,"▁한다":5848,"▁짧은":5849,"▁혀":5850,"공화":5851,"▁75":5852,"▁연예":5853,"▁아나":5854,"▁어울":5855,"▁후,":5856,"▁형태로":5857,"▁3,":5858,"▁것.<|endoftext|>":5859,"랫폼":5860,"협력":5861,"▁아동":5862,"▁연간":5863,"▁기본적으로":5864,"▁공부":5865,"▁미술":5866,"드와":5867,"▁사이에서":5868,"▁지닌":5869,"인들의":5870,"▁착용":5871,"▁김종":5872,"▁2위":5873,"▁\"사":5874,"▁이쪽":5875,"우의":5876,"▁가치":5877,"▁질문에":5878,"성장":5879,"▁영역":5880,"뿐만":5881,"니어":5882,"▁암살":5883,"▁부대":5884,"수수":5885,"▁답변":5886,"면서도":5887,"▁인류":5888,"▁임금":5889,"▁있어야":5890,".5%":5891,"▁이슬":5892,"가에":5893,"인에":5894,"▁턴":5895,"했다가":5896,"▁대폭":5897,"▁전망이다.":5898,"▁30분":5899,"▁보급":5900,"률을":5901,"제한":5902,"화는":5903,"▁시전":5904,"▁포항":5905,"▁사용한":5906,"▁모른":5907,"팀은":5908,"미는":5909,"▁성폭":5910,"▁말한":5911,"▁차이":5912,"▁예방":5913,"▁5개":5914,"달라고":5915,"▁특별한":5916,"▁나의":5917,"ort":5918,"▁2.":5919,"성으로":5920,"진다.<|endoftext|>":5921,"공업":5922,"▁붙잡":5923,"웨이":5924,"르의":5925,"▁근데":5926,"아의":5927,"▁놀라":5928,"가능":5929,"소에서":5930,"명한":5931,"▁살고":5932,"잖아":5933,"▁BSHO03":5934,"▁쉽지":5935,"소의":5936,"▁야마":5937,"▁기동":5938,"▁오토":5939,"▁최후":5940,"비전":5941,"▁세월호":5942,"학자":5943,"▁그녀는":5944,"과정":5945,"▁브라질":5946,"▁기능을":5947,"발을":5948,"▁NC":5949,"▁거두":5950,"지며":5951,"판에":5952,"▁선호":5953,"▁정확한":5954,"▁사퇴":5955,"▁킬":5956,"▁제외하면":5957,"▁사장":5958,"▁8CT_000":5959,"▁솔로":5960,"▁아웃":5961,"▁이래":5962,"▁연합뉴스":5963,"▁건너":5964,"학을":5965,"능력":5966,"▁그들의":5967,"▁때문.":5968,"▁고향":5969,"▁않도록":5970,"▁체육":5971,"▁패러":5972,"▁자체는":5973,"▁물어":5974,"▁장면이":5975,"▁때부터":5976,"제도":5977,"▁끝까지":5978,"▁순위":5979,"드라마":5980,"선은":5981,"ss":5982,"▁반도":5983,"식품":5984,"▁여의":5985,"▁고대":5986,"▁담은":5987,"▁하는데,":5988,"▁등장한다.":5989,"▁높이":5990,"▁겁":5991,"ew":5992,"▁거대한":5993,"동에":5994,"▁일어난":5995,"▁2013":5996,"▁붙어":5997,"다면,":5998,"세트":5999,"▁녀":6000,"▁쓰레":6001,"라이더":6002,"▁단일":6003,"▁신용":6004,"야구":6005,".\"<|endoftext|>":6006,"점,":6007,"ers":6008,"▁인생":6009,"▁전사":6010,"▁그만큼":6011,"드,":6012,"마를":6013,"▁되면서":6014,"▁자리에서":6015,"▁공을":6016,"▁픽":6017,"og":6018,"▁내고":6019,"▁주거":6020,"시와":6021,"▁소리를":6022,"▁받는다.":6023,"리<|endoftext|>":6024,"▁팀이":6025,"▁의미가":6026,"하는데,":6027,"케팅":6028,"▁막아":6029,"▁#<|endoftext|>":6030,"안의":6031,"▁공사":6032,"▁소프트":6033,"바람":6034,"▁자원":6035,"연금":6036,"▁모습으로":6037,"▁)<|endoftext|>":6038,"권은":6039,"계는":6040,"▁42":6041,"안보":6042,"▁김태":6043,"▁받게":6044,"▁왼쪽":6045,")으로":6046,"▁대해서도":6047,"관에":6048,"__02/NNG<|endoftext|>":6049,"레이션":6050,"▁콩":6051,"▁자율":6052,"▁43":6053,"▁수술":6054,"종합":6055,"▁뒤집":6056,"▁탑승":6057,"▁스케":6058,"▁인간의":6059,"되자":6060,"▁배출":6061,"▁덴":6062,"▁플래":6063,"▁1억":6064,"▁펀":6065,"▁생각하면":6066,"ord":6067,"▁부진":6068,"테인":6069,"비의":6070,"▁거론":6071,"▁흔히":6072,"▁모여":6073,"▁크다.":6074,"▁분위기":6075,"▁전주":6076,"▁거기에":6077,"고가":6078,"터를":6079,"▁영혼":6080,"공을":6081,"▁원정":6082,"해온":6083,"수에":6084,"▁다만,":6085,"짜리":6086,"▁본인의":6087,"담을":6088,"▁아무런":6089,"위원장":6090,"▁출판":6091,"▁위안":6092,"▁셰":6093,"▁편성":6094,"▁44":6095,"hi":6096,"kr":6097,"▁무게":6098,"▁오버":6099,"▁흘러":6100,"파크":6101,"▁부하":6102,"지검":6103,"▁(S":6104,"▁만들어진":6105,"법인":6106,"만은":6107,"▁계산":6108,"▁접촉":6109,"스턴":6110,"▁듯.":6111,"군에":6112,"▁1.":6113,"▁정기":6114,"▁내내":6115,"}}":6116,"▁성남":6117,"병을":6118,"▁인기가":6119,"-3":6120,"하였고,":6121,"▁지역에":6122,"▁춤":6123,"설을":6124,"▁멀리":6125,"▁반응을":6126,"말을":6127,"▁65":6128,"되었고,":6129,"▁AI":6130,"▁금액":6131,"상위":6132,"86":6133,"▁사령":6134,"▁해제":6135,"▁밸":6136,"▁브리":6137,"▁커피":6138,"▁워싱턴":6139,"▁생겨":6140,"▁2만":6141,"▁의외로":6142,"▁낭":6143,"▁ruby":6144,"▁위기":6145,"▁무대":6146,"터리":6147,"▁가능성을":6148,"▁위하여":6149,"왕의":6150,"▁겨우":6151,"▁대법원":6152,"▁되기":6153,"▁합격":6154,"씨와":6155,"▁상호":6156,"시리즈":6157,"▁초청":6158,"▁방안":6159,"▁표준":6160,"▁출범":6161,"▁극복":6162,"▁일자":6163,"▁자리에":6164,"▁많았다.":6165,"부(":6166,"▁km":6167,"ant":6168,"▁기울":6169,"▁의하면":6170,"관,":6171,"▁선배":6172,"ue":6173,"▁따르면,":6174,"평양":6175,"yle":6176,"▁이전에":6177,"세로":6178,"곳에":6179,"되고,":6180,"▁덩":6181,"▁탁":6182,"▁있으나":6183,"▁정체":6184,"▁즉시":6185,"▁공통":6186,"▁검색":6187,"▁확실히":6188,"ont":6189,"▁심리":6190,"AT":6191,"▁일제":6192,"▁01":6193,"프라":6194,"▁며":6195,"▁캐나다":6196,"▁이라는":6197,"▁길이":6198,"▁머리를":6199,"▁수십":6200,"▁세워":6201,"▁넘겨":6202,"▁하드":6203,"미래":6204,"즈가":6205,"▁서울대":6206,"▁부르는":6207,"▁통상":6208,"▁채택":6209,"물로":6210,"▁만들었다.":6211,"▁머물":6212,"▁실행":6213,"▁일러스트":6214,"자.<|endoftext|>":6215,"▁이것은":6216,"▁해주":6217,"(3":6218,"▁총리":6219,".com":6220,"▁3차":6221,"▁올라가":6222,"ound":6223,"▁모집":6224,"용이":6225,"사령":6226,"▁포지션":6227,"▁이야기가":6228,"▁계기로":6229,"▁마주":6230,"▁화려":6231,"▁준다.":6232,"ps":6233,"▁이후로":6234,"▁의식":6235,"하면서도":6236,"▁응답":6237,"ity":6238,"▁곳이":6239,"▁수준으로":6240,"래프트":6241,"▁테마":6242,"키의":6243,"▁늘어난":6244,".12":6245,"▁때문이다.<|endoftext|>":6246,"~3":6247,"▁그것을":6248,"▁자금":6249,"아파트":6250,"▁간의":6251,"베이":6252,"▁소화":6253,"▁할인":6254,"제품":6255,"배우":6256,"▁종족":6257,"▁여부를":6258,"PG":6259,"▁호소":6260,"유가":6261,"▁로드":6262,"▁이른바":6263,"▁삼성전":6264,"iz":6265,"끼리":6266,"▁1:":6267,"월드":6268,"▁진영":6269,"▁했으나":6270,"▁복잡":6271,"▁목적으로":6272,"▁많다.<|endoftext|>":6273,"▁응원":6274,"▁스페인":6275,"▁충청":6276,"뱅크":6277,"▁방법을":6278,"▁플랫폼":6279,"▁활성화":6280,"▁거절":6281,"혔다.":6282,"▁주지":6283,"▁서버":6284,"▁맞고":6285,"▁2012":6286,"▁정책을":6287,"▁에너":6288,"▁\"최":6289,"▁포함해":6290,"▁수치":6291,"됐다.<|endoftext|>":6292,"현재":6293,"지라":6294,"▁풀어":6295,"▁마시":6296,"/NP<|endoftext|>":6297,"▁득점":6298,"▁\"어":6299,"소녀":6300,"▁비서":6301,"ith":6302,"▁되고,":6303,"했습니다.":6304,"▁관람":6305,"▁시리즈의":6306,"▁갖춘":6307,"▁방송된":6308,"▁생각하는":6309,"▁아니냐는":6310,"률은":6311,"민이":6312,"자원":6313,"ell":6314,"계약":6315,"럭시":6316,"스포츠":6317,"▁동문":6318,"특별시":6319,"▁프로듀":6320,"민의":6321,"▁가을":6322,"상과":6323,"▁건담":6324,"ive":6325,"▁출입":6326,"▁낮아":6327,"▁발굴":6328,"▁수수":6329,"모리":6330,"up":6331,"▁없기":6332,"놓은":6333,"▁사격":6334,"▁점령":6335,"▁미친":6336,"답게":6337,"▁하던":6338,"(P":6339,"끄는":6340,"▁란":6341,"▁주차":6342,"▁400":6343,"부에서":6344,"▁영상을":6345,"ist":6346,"다이":6347,"용을":6348,"▁링크":6349,"프레":6350,"▁단,":6351,"▁충남":6352,"▁그럴":6353,"▁120":6354,"▁창출":6355,"오프":6356,"▁width=30":6357,"▁게이":6358,"▁올리":6359,"▁저는":6360,"▁붕괴":6361,"▁경계":6362,"▁한때":6363,"▁알렉":6364,"▁어찌":6365,"▁오리지":6366,"▁사람들의":6367,"▁후보는":6368,"▁언어":6369,"▁시코":6370,"▁다름":6371,"▁뒤로":6372,"▁박정":6373,"▁이라":6374,"▁운영하는":6375,"▁자가":6376,"▁생성":6377,"하고자":6378,"▁그게":6379,"▁나를":6380,"▁100%":6381,"▁결코":6382,"▁뮤직":6383,"브리":6384,"▁마사":6385,"......":6386,"▁진술":6387,"기록":6388,"▁폼":6389,"트롤":6390,"▁인지":6391,"▁타임":6392,"▁1999년":6393,"▁심사":6394,"당에":6395,"▁얼굴을":6396,"터가":6397,"님의":6398,"기구":6399,"▁특검":6400,"▁폐쇄":6401,"일로":6402,"ED":6403,"▁이것이":6404,"▁대화를":6405,"▁\"오":6406,"까지도":6407,"▁코너":6408,"세에":6409,"▁정도.":6410,"▁공산":6411,"▁콘서":6412,"▁수집":6413,"▁교환":6414,"▁만들고":6415,"독교":6416,"▁개방":6417,"▁이후에":6418,"▁자치":6419,"▁서울중앙":6420,"▁보안":6421,"보다도":6422,"▁아름다운":6423,"▁감독의":6424,"▁구단":6425,")'":6426,"해,":6427,"법이":6428,"▁생기":6429,"▁10%":6430,"마스":6431,"▁부족한":6432,"▁확인할":6433,"▁얻은":6434,"원들이":6435,"▁나쁘":6436,"▁커뮤니티":6437,"▁신인":6438,"/EC<|endoftext|>":6439,"형의":6440,"되기도":6441,"▁황금":6442,"▁1998년":6443,"역이":6444,"▁해소":6445,"▁이스":6446,"터테인":6447,"▁사실은":6448,"▁포르":6449,"▁예전":6450,"자유":6451,"▁역전":6452,"▁더블":6453,"▁방향으로":6454,"ne":6455,"있다.<|endoftext|>":6456,"▁전차":6457,"▁초등학교":6458,"론이":6459,"모가":6460,"▁없지만":6461,"▁의견이":6462,"▁드라이":6463,"▁KIA":6464,"공간":6465,"▁없게":6466,"▁Re":6467,"사용":6468,".11":6469,"▁대우":6470,"▁생겼":6471,"▁통해서":6472,"인들은":6473,"▁갤러":6474,"▁비록":6475,"▁부과":6476,"▁도널드":6477,"트에":6478,"▁46":6479,"▁**":6480,"▁쪽으로":6481,"94":6482,"▁요소":6483,"▁곧바로":6484,"▁SNS":6485,"▁메이저":6486,"하의":6487,"▁최우":6488,"▁기부":6489,"▁이중":6490,"에서만":6491,"▁실현":6492,"▁계약을":6493,"트와":6494,"여자":6495,"▁주최":6496,"대사":6497,"▁거야":6498,"트,":6499,"세는":6500,"▁아닐":6501,"연이":6502,"세이":6503,"주인":6504,".2%":6505,"▁돌아온":6506,"▁달아":6507,"▁추락":6508,"▁없고,":6509,".\"":6510,"▁52":6511,"▁아니라,":6512,"망을":6513,"석의":6514,"부장":6515,"▁47":6516,"▁쉬운":6517,"해주는":6518,"모델":6519,"▁삼성전자":6520,"회의에서":6521,"▁가능성도":6522,"▁동네":6523,"PC":6524,"▁헨":6525,"▁삶을":6526,"트워크":6527,"▁캠페":6528,"▁두려":6529,"사이트":6530,"▁법정":6531,"▁끈":6532,"▁떨어지는":6533,"▁필리":6534,"▁한마":6535,"▁활발":6536,"▁김동":6537,"▁밀려":6538,"▁미드":6539,"▁맞은":6540,"▁해당하는":6541,"만원을":6542,"▁본격적으로":6543,"ll":6544,"ww":6545,"▁시작으로":6546,"함에":6547,"▁교사":6548,"▁이번에":6549,"▁맞이":6550,"▁의뢰":6551,"▁연재":6552,"▁대만":6553,"▁시나리오":6554,"▁국회에서":6555,"▁뒤를":6556,"상,":6557,"▁평창":6558,"치기":6559,"주,":6560,"책을":6561,"▁수립":6562,"▁장갑":6563,"신문":6564,"▁아우":6565,"공동":6566,"하시":6567,"▁이슬람":6568,"▁각성":6569,"▁사람들을":6570,"▁일반적인":6571,"해졌":6572,"사람":6573,"▁41":6574,"▁1번":6575,"▁자료를":6576,"받을":6577,"▁래":6578,"되며,":6579,"▁강원도":6580,"팀이":6581,"치에":6582,"▁의도":6583,"▁조용":6584,"▁x":6585,"미사일":6586,"▁당초":6587,"▁행위":6588,"▁같다.<|endoftext|>":6589,"▁오른쪽":6590,"라리":6591,"프리":6592,"ob":6593,"▁피해자":6594,"▁했는데":6595,"▁식품":6596,"워서":6597,"▁선출":6598,"▁대처":6599,"유를":6600,"▁마감":6601,"▁기원":6602,"▁어깨":6603,"▁6개월":6604,"무기":6605,"▁제외하고":6606,"▁조각":6607,"▁족":6608,"▁태어남":6609,"▁(,":6610,"▁죽을":6611,"▁않기":6612,"▁때의":6613,"▁마음이":6614,"전거":6615,"▁종로":6616,"▁당한":6617,"▁1조":6618,"류가":6619,"줘야":6620,"개가":6621,"이너":6622,"▁you":6623,"법에":6624,"재로":6625,"었는데":6626,"이므로":6627,"▁미국이":6628,"▁이슈":6629,"▁해양":6630,"▁대륙":6631,"▁결과가":6632,"▁것\"":6633,"(B":6634,"▁빠진":6635,"▁|":6636,"▁프로그램을":6637,"▁책을":6638,"▁지역에서":6639,"▁학생들이":6640,"▁했고,":6641,"▁연락":6642,"▁재료":6643,"▁아빠":6644,"/EF":6645,"▁교과":6646,"▁적의":6647,"▁전원":6648,"▁데미지":6649,"▁지식":6650,"진,":6651,"▁버그":6652,"르기":6653,"키가":6654,"▁성인":6655,"▁집을":6656,"▁BTAA00":6657,"▁BSAA00":6658,"▁제압":6659,"▁출석":6660,"▁조치를":6661,"▁패션":6662,"▁내린":6663,"▁등도":6664,"▁에이스":6665,"이치":6666,"▁된다는":6667,"삼성":6668,"프의":6669,"후보":6670,"▁2번":6671,"▁한미":6672,"▁흡수":6673,"▁1997년":6674,"▁경기가":6675,"▁나이트":6676,"▁점차":6677,"▁선두":6678,"▁크루":6679,"▁스카":6680,"▁\"(":6681,"▁예능":6682,"▁다섯":6683,".10":6684,"▁분위기를":6685,"▁올렸다.":6686,"▁방침이다.":6687,"▁우려가":6688,"▁명확":6689,"▁찰":6690,"▁목숨을":6691,"(K":6692,"증권":6693,"세요":6694,"자금":6695,"▁막기":6696,"주기":6697,"▁입을":6698,"▁하나가":6699,"제와":6700,"▁새롭게":6701,"▁의혹을":6702,"방의":6703,"\"며":6704,"▁업계":6705,"▁나온다.<|endoftext|>":6706,"증이":6707,"▁BTAE02":6708,"▁BSAE02":6709,"연맹":6710,"▁★":6711,"▁구현":6712,"▁IS":6713,"실로":6714,"one":6715,"▁비중이":6716,"▁핑":6717,"▁팀을":6718,"로우":6719,"▁위원장은":6720,"▁A씨는":6721,"▁없었던":6722,"▁서술":6723,"▁근본":6724,"▁어렵다.":6725,"AM":6726,"공개":6727,"▁이틀":6728,"▁49":6729,"단과":6730,"▁변호사":6731,"▁신문":6732,"해가":6733,"▁바르":6734,"하라고":6735,"▁위에서":6736,"▁현재의":6737,"▁보여준다.":6738,"EN":6739,"▁등판":6740,"▁지니":6741,"▁폭행":6742,"면에":6743,"낸다.":6744,"진흥":6745,"▁발행":6746,"▁멀티":6747,"산의":6748,"호,":6749,"▁넣어":6750,"▁강하게":6751,"▁수업":6752,"han":6753,"▁평범한":6754,"연구소":6755,"서비스":6756,"▁속성":6757,"▁공개된":6758,"▁들어오":6759,"방이":6760,"▁수사를":6761,"버리는":6762,"AC":6763,"▁서브":6764,"▁-3":6765,"경이":6766,"▁기록을":6767,"▁이민":6768,"▁아직도":6769,"운영":6770,"▁베이징":6771,"웨어":6772,"PS":6773,"▁참조.<|endoftext|>":6774,"자도":6775,"▁여겨":6776,"ee":6777,"토리":6778,"역으로":6779,"▁이/MM<|endoftext|>":6780,"령을":6781,"▁물을":6782,"라와":6783,"▁발언을":6784,"▁말도":6785,"▁와서":6786,"▁페르":6787,"적의":6788,"▁우승을":6789,"힌다.":6790,"▁행동을":6791,"ain":6792,"▁브레이":6793,"▁모두가":6794,"▁육성":6795,"▁대변인은":6796,"▁곳에서":6797,"ry":6798,"▁테스트":6799,"▁디스":6800,"!\"":6801,"▁끌고":6802,"▁작전":6803,"▁연극":6804,"해서는":6805,"▁오리지널":6806,"▁맡고":6807,"역에서":6808,"▁재생":6809,"코리아":6810,"▁내용의":6811,"▁중학교":6812,"▁낼":6813,"▁중구":6814,"다보니":6815,"인에게":6816,"기까지":6817,"단으로":6818,"▁50%":6819,"배를":6820,"홈런":6821,"격한":6822,"▁취재":6823,"러운":6824,"▁대다":6825,"▁런던":6826,"▁담긴":6827,".01":6828,"▁가고":6829,"하지는":6830,"▁날려":6831,"OR":6832,"▁모자":6833,"검사":6834,"▁height=":6835,"차에":6836,"대문":6837,"▁해체":6838,"실한":6839,"▁생물":6840,"▁이행":6841,"AS":6842,"EC":6843,"받았다.":6844,"▁그레이":6845,"▁걸려":6846,"인도":6847,"▁의미를":6848,"▁세상을":6849,"▁이상이":6850,"▁통제":6851,"▁악마":6852,"▁골프":6853,"▁수영":6854,"▁좋다.<|endoftext|>":6855,"▁다수":6856,"▁속도가":6857,"▁마지막으로":6858,"▁나쁜":6859,"▁입주":6860,"▁온갖":6861,"▁되돌":6862,"▁마크":6863,"▁특성상":6864,"▁몰려":6865,"▁고발":6866,"화한":6867,"타는":6868,"▁부분을":6869,"▁수리":6870,"▁종목":6871,"▁있었지만":6872,"▁일상":6873,"▁시티":6874,"▁사쿠":6875,"▁한다\"며":6876,"▁차단)":6877,"▁알았":6878,"판이":6879,"▁'미":6880,"▁시작된":6881,"▁목표로":6882,"연구원":6883,"▁문제에":6884,"▁주제로":6885,"루가":6886,"▁한국에":6887,"▁말할":6888,"▁20대":6889,"(200":6890,"▁전공":6891,"▁구성된":6892,"▁텍":6893,"▁트레이":6894,"▁10시":6895,"▁재개":6896,"▁후원":6897,"▁선수들이":6898,"임에도":6899,"▁–":6900,"기획":6901,"▁\\":6902,"▁릴":6903,"무현":6904,"▁이론":6905,"▁자신에게":6906,"시브":6907,"▁창원":6908,"▁U+":6909,"▁진보":6910,"▁테이":6911,"모로":6912,".1%":6913,"▁모험":6914,"ly":6915,"▁마케팅":6916,"▁조지":6917,"▁걸린":6918,"▁환영":6919,"▁고속":6920,"▁보컬":6921,"▁받아들이":6922,"때문에":6923,"▁02":6924,"▁고교":6925,"▁눈이":6926,"총리":6927,"오카":6928,"▁없애":6929,"아웃":6930,"▁이들을":6931,"▁파리":6932,"▁옆에":6933,"▁진행된":6934,"▁조절":6935,"하므로":6936,"▁관계가":6937,"▁상태가":6938,"선으로":6939,"▁있는지":6940,"▁도발":6941,"▁옹":6942,"▁유로":6943,"300":6944,"▁사우":6945,"리자":6946,"▁3.":6947,"▁그것이":6948,"▁유용":6949,"▁편.":6950,"ub":6951,"시스":6952,"▁자이":6953,"▁쇠":6954,"▁미세먼":6955,"▁차원에서":6956,"▁FI":6957,"▁부분은":6958,"순실":6959,"▁\"김":6960,"▁충북":6961,"▁쇼핑":6962,"▁모으":6963,"▁아사":6964,"▁농업":6965,"즈는":6966,"하려면":6967,"▁동일한":6968,"▁피아":6969,"▁임무":6970,"▁했다는":6971,"▁뒤,":6972,"▁구글":6973,"▁EX":6974,"▁액션":6975,"음악":6976,"▁수호":6977,"▁회장이":6978,"▁무력":6979,"장한":6980,"▁치고":6981,"▁체력이":6982,"-004":6983,"▁폭탄":6984,"▁나갈":6985,"▁위기에":6986,"▁주어":6987,"▁성우는":6988,"▁공감":6989,"▁경찰이":6990,"▁기업의":6991,"▁4차":6992,"니,":6993,"회,":6994,"▁질문":6995,"요?<|endoftext|>":6996,"▁정확히":6997,"▁넘게":6998,"▁목소리가":6999,"카가":7000,"▁적지":7001,"▁이미지":7002,"▁부품":7003,"▁수학":7004,"▁꺼내":7005,"관으로":7006,"▁후보가":7007,"▁정착":7008,"색을":7009,"▁상황이다.":7010,".3%":7011,"디션":7012,"지능":7013,"▁원을":7014,"▁신분":7015,"▁김대":7016,"▁자극":7017,"▁3대":7018,"로스":7019,"▁전술":7020,"{{":7021,"▁선수가":7022,"▁Lv":7023,"▁64":7024,"▁둘째":7025,"▁신속":7026,"프는":7027,"살아":7028,"▁당황":7029,"▁환자":7030,"▁들어가는":7031,"▁\"우리":7032,"▁일종의":7033,"▁사드":7034,"▁데미지를":7035,"주에":7036,"▁마친":7037,"▁사랑을":7038,"▁창조":7039,"의원":7040,"▁화염":7041,"▁자신은":7042,"bo":7043,"-00000":7044,"▁두번째":7045,"▁다르다.":7046,"다(":7047,"▁작업을":7048,"▁김현":7049,"o.kr":7050,"▁조기":7051,"▁191":7052,"▁병사":7053,"▁말은":7054,"ない":7055,"▁않고,":7056,".4%":7057,"상황":7058,"▁이끌어":7059,"▁감정":7060,"코의":7061,"▁집계":7062,"아시아":7063,"▁것인지":7064,"▁그것은":7065,"▁기상":7066,"▁제품을":7067,"▁'대":7068,"▁추적":7069,"▁팩":7070,"됐다고":7071,"천시":7072,"해졌다.":7073,"▁학습":7074,"▁치열":7075,"▁분명히":7076,"해져":7077,"▁부른":7078,"▁드러나":7079,"▁목소리를":7080,"▁김민":7081,"▁파트너":7082,"디언":7083,"▁곳은":7084,"▁수/NNB<|endoftext|>":7085,"▁앉아":7086,"▁넥센":7087,"데미":7088,"2000":7089,"▁구체적인":7090,"▁쾌":7091,"▁세트":7092,"▁라이트":7093,"체에":7094,"▁미국과":7095,"▁가격이":7096,"▁증명":7097,"▁백악":7098,"/IC":7099,"▁남녀":7100,"곳에서":7101,"중인":7102,"여야":7103,"▁대장":7104,"향을":7105,"▁전후":7106,"▁\"북한":7107,"선에서":7108,"크래프트":7109,"워드":7110,"법은":7111,"▁인증":7112,"▁이웃":7113,"▁때가":7114,"란히":7115,"▁생활을":7116,"▁대상이":7117,"일랜드":7118,"버그":7119,"▁오스트":7120,"▁패치":7121,"유럽":7122,"▁취약":7123,"▁갤럭시":7124,"▁그렇다고":7125,"르가":7126,"▁어려워":7127,"▁공모":7128,"소한":7129,"원<|endoftext|>":7130,"자<|endoftext|>":7131,"▁성과를":7132,"▁것이라":7133,"▁2배":7134,"공단":7135,"검찰":7136,"니가":7137,"▁대립":7138,"▁으":7139,"▁컨셉":7140,"▁뭔가":7141,"효과":7142,"하기에":7143,"▁냈다.":7144,"▁고유":7145,"어<|endoftext|>":7146,"▁그들은":7147,"▁극단":7148,"루를":7149,"▁'그":7150,"▁노래를":7151,"글랜드":7152,"무역":7153,"▁닌":7154,"▁20%":7155,"악한":7156,"▁먹을":7157,"투표":7158,"가락":7159,"톨릭":7160,"▁감시":7161,"▁떠난":7162,"▁추구":7163,"▁스튜":7164,"▁언제나":7165,"▁후쿠":7166,"▁호흡":7167,"대출":7168,"▁김재":7169,"편의":7170,"S<|endoftext|>":7171,"▁만남":7172,"(D":7173,"▁그렇지":7174,"▁한국인":7175,"▁했을":7176,"▁03":7177,"▁납치":7178,"호텔":7179,"▁이제는":7180,"청이":7181,"▁전직":7182,"▁(1":7183,"▁이성":7184,"▁불을":7185,"▁관련한":7186,"▁Sp":7187,"▁기록한":7188,"AL":7189,"▁전부터":7190,"해보":7191,"내기":7192,"형은":7193,"오를":7194,"▁거대":7195,"▁사람도":7196,"(L":7197,"▁가동":7198,"▁미군":7199,"▁이유를":7200,"IO":7201,"환을":7202,"▁CJ":7203,"?\"":7204,"▁생태":7205,"▁또한,":7206,"실험":7207,"▁독자":7208,"▁발달":7209,"▁9시":7210,"▁주연":7211,"▁올랐":7212,"▁아울":7213,"결과":7214,"미야":7215,"▁했지만,":7216,"▁참석한":7217,"▁요구하는":7218,"위원회는":7219,"▁아메":7220,"▁KBO":7221,"장<|endoftext|>":7222,"▁아스":7223,"▁때에는":7224,"▁무서":7225,"ld":7226,"▁캔":7227,"▁작동":7228,"▁사이의":7229,"▁ー":7230,"▁1996년":7231,"▁중에서도":7232,"▁골드":7233,"▁기자회견을":7234,"▁씨가":7235,"등을":7236,"▁미디어":7237,"아,":7238,"▁쟁":7239,"▁인용":7240,"▁과연":7241,"▁이상을":7242,"평화":7243,"▁상상":7244,"리아의":7245,"▁컨트롤":7246,"▁파이어":7247,"▁1995년":7248,"▁오오":7249,"▁BSEO02":7250,"▁BTEO02":7251,"▁정비":7252,"▁반박":7253,"속도":7254,".6%":7255,"▁의존":7256,"▁2층":7257,"달라":7258,"▁3회":7259,"르지":7260,"▁아니지만":7261,"서로":7262,"▁소형":7263,"▁처음에는":7264,"▁조심":7265,"▁\"정":7266,"▁\"전":7267,"가포르":7268,"▁저격":7269,"리케":7270,"▁슨":7271,"ore":7272,"/ET":7273,"▁네덜":7274,"▁개조":7275,"▁2010":7276,"▁기재":7277,"▁기반으로":7278,"▁유출":7279,"▁하나를":7280,"▁에스":7281,"▁최저임금":7282,"▁않지만":7283,"▁않았다.<|endoftext|>":7284,"▁이후에는":7285,"▁야당":7286,"종을":7287,"▁\"당":7288,"▁유력":7289,"적은":7290,"▁잇따":7291,"▁플라":7292,"직원":7293,"▁\"국":7294,"양이":7295,"소리":7296,"▁3위":7297,"액은":7298,"▁실무":7299,"▁보관":7300,"평을":7301,"▁선박":7302,"▁꽤나":7303,".8%":7304,"▁제공하는":7305,"▁결합":7306,"▁들은":7307,"▁대체로":7308,"국에서":7309,"▁교황":7310,"▁옵션":7311,"시간이":7312,"▁몰래":7313,"겨진":7314,"▁점프":7315,".7%":7316,"▁상담":7317,"▁공직":7318,"환이":7319,"처리":7320,"▁최악의":7321,"▁코믹":7322,"▁모티브":7323,"▁재산":7324,"통합":7325,"▁유래":7326,"▁막을":7327,"▁Sh":7328,"심의":7329,"▁있겠":7330,"▁30%":7331,"났다.<|endoftext|>":7332,"▁원인":7333,"/X":7334,"▁최다":7335,"실,":7336,"'도":7337,"▁통계":7338,"▁상대가":7339,"▁이용할":7340,"현대":7341,"종이":7342,"▁style":7343,"부산":7344,"한의":7345,"▁경유":7346,"▁로켓":7347,"~4":7348,"▁시스템을":7349,"▁즈":7350,"▁분류:미":7351,"▁상업":7352,"▁넘어가":7353,"▁재능":7354,"번에":7355,"▁전까지":7356,"스팅":7357,"▁세이":7358,"베르":7359,"▁것이었다.":7360,"▁베이스":7361,"▁내지":7362,"▁존재한다.":7363,"▁20년":7364,"▁스티":7365,"▁화학":7366,"▁창작":7367,"들,":7368,"▁매각":7369,"▁노인":7370,"▁고백":7371,"▁59":7372,"▁한나라":7373,"▁궁극":7374,"▁지자":7375,"▁일반적으로":7376,"마리":7377,"▁향상":7378,"▁피의":7379,"▁가능하다.<|endoftext|>":7380,"▁접수":7381,"./SF<|endoftext|>":7382,"ding":7383,"▁검증":7384,"▁대리":7385,"▁완화":7386,"자료":7387,"수석":7388,"▁파일":7389,"▁한국은":7390,"▁일방":7391,"▁정지":7392,"htt":7393,"▁re":7394,"▁강경":7395,"▁변화를":7396,"▁집에서":7397,"데이":7398,"▁시범":7399,"린이":7400,"건이":7401,"쟁이":7402,"▁가야":7403,"오의":7404,"라엘":7405,"▁나아가":7406,"▁몸에":7407,"DO02":7408,"▁오랫":7409,"▁확률로":7410,"▁스웨":7411,"▁1층":7412,"▁기회":7413,"▁마음에":7414,"▁개별":7415,"▁처음부터":7416,"주차":7417,"▁총리는":7418,"·일":7419,"권에서":7420,"▁만들기":7421,"▁참여한":7422,"▁빵":7423,"▁기독교":7424,"▁전형":7425,"▁드러났다.":7426,"▁2011":7427,"▁한국어":7428,"▁승강":7429,"▁당사":7430,"고의":7431,"▁보완":7432,"▁동작":7433,"▁노력을":7434,"▁비판했다.":7435,"▁국민의당":7436,"▁무관":7437,"▁입력":7438,"버트":7439,"실점":7440,"▁이명박":7441,"▁이같이":7442,"▁쓰지":7443,"린다.<|endoftext|>":7444,"▁승객":7445,"VE":7446,"▁대표팀":7447,".9%":7448,"▁복합":7449,"▁그럼에도":7450,"버렸다.":7451,"였고,":7452,"▁민주주의":7453,"▁용의":7454,"▁54":7455,"스트로":7456,"조직":7457,"▁축소":7458,"▁진정한":7459,"▁보면,":7460,"▁동반":7461,"▁재판부는":7462,"버리":7463,"▁아야":7464,"▁충전":7465,"▁합동":7466,"고속도로":7467,"▁박사":7468,"정당":7469,"▁배제":7470,"▁가해":7471,"구와":7472,"▁이영":7473,"물에":7474,"▁2017-":7475,"화점":7476,"▁폐기":7477,"▁하다가":7478,"▁(IP":7479,"-005":7480,"▁있었고,":7481,"건의":7482,"▁협박":7483,"주일":7484,"CC":7485,"▁나카":7486,"여명이":7487,"버렸":7488,"▁뽑아":7489,"기인":7490,"▁'제":7491,"▁눈길을":7492,"나미":7493,"▁이종":7494,"▁전라":7495,"비로":7496,"▁아무래도":7497,"지사":7498,"▁페이":7499,"=\"":7500,"▁하더라도":7501,"\"는":7502,"시한":7503,"▁어떠":7504,"봐야":7505,"관과":7506,"박물":7507,"▁호주":7508,"전략":7509,"▁합쳐":7510,"국과":7511,"▁천안":7512,"▁도움":7513,"▁없다\"며":7514,"지마":7515,"즈키":7516,"군과":7517,"부대":7518,"GM":7519,"▁신한":7520,"ID":7521,"격이":7522,"▁너무나":7523,"▁원내대표는":7524,"▁하위":7525,"▁블록":7526,"▁모습은":7527,"▁서서":7528,"▁살짝":7529,"▁밖으로":7530,"▁힌":7531,"▁필요하다.":7532,"▁이어지는":7533,"▁현행":7534,".03":7535,"▁공장":7536,"▁이라고":7537,"▁업그레이드":7538,"현의":7539,"민은":7540,"▁의지를":7541,"재는":7542,"하러":7543,"▁체계":7544,"스킬":7545,"▁철도역":7546,"▁서울특별시":7547,"▁시위":7548,"▁인하":7549,"메이":7550,"치며":7551,"▁가상":7552,"▁방송을":7553,"와서":7554,"▁서초":7555,"▁소비자":7556,"고도":7557,"▁있음을":7558,"▁흥행":7559,"▁for":7560,"▁프리미엄":7561,"▁사건의":7562,"A+":7563,"▁넓은":7564,"eat":7565,"▁56":7566,"▁상태다.":7567,"▁저장":7568,"▁항의":7569,"구청":7570,"▁때려":7571,"력도":7572,"▁자기가":7573,"▁정황":7574,"▁다리":7575,"▁방지":7576,"체로":7577,"병이":7578,"심한":7579,"▁활약을":7580,"▁그다":7581,"▁않는다는":7582,"토가":7583,"라<|endoftext|>":7584,"▁이처럼":7585,"내며":7586,"▁자전거":7587,"▁하다":7588,"활동을":7589,"!wiki":7590,"rad":7591,"~19":7592,"▁다행히":7593,"▁대하여":7594,"▁style=\"":7595,"▁4,":7596,"▁작품을":7597,"하자면":7598,"정규":7599,"로로":7600,"집을":7601,"▁시달":7602,"▁제정":7603,"▁벌어진":7604,"▁둥":7605,"▁걸로":7606,"부문":7607,"ind":7608,"기만":7609,"▁지분":7610,"▁널리":7611,"IS":7612,"▁선생님":7613,"▁적어도":7614,"▁닫":7615,"았을":7616,"▁적발":7617,"▁딱히":7618,"▁행사를":7619,"▁이지":7620,"▁따뜻":7621,"▁VS":7622,"▁선진":7623,"▁공무":7624,"▁뿐이다.":7625,"▁대통령을":7626,"▁갈수록":7627,"▁매달":7628,"네시아":7629,"▁계속해서":7630,"먹는":7631,"▁방법이":7632,"지<|endoftext|>":7633,"▁쥬":7634,"▁'인":7635,"▁궁금":7636,"카의":7637,"▁2:":7638,"▁터키":7639,"요,":7640,"▁이상한":7641,"dddd":7642,"▁집권":7643,"▁관통":7644,"▁같아":7645,").<|endoftext|>":7646,"(이하":7647,"▁캐릭터가":7648,"UN":7649,"▁아이를":7650,"IT":7651,"2<|endoftext|>":7652,"파를":7653,"조는":7654,"혁신":7655,"▁일찍":7656,"▁소식을":7657,"▁일시":7658,"▁버티":7659,"ph":7660,"경은":7661,"▁오랫동안":7662,"▁스페셜":7663,"▁들어온":7664,"분쯤":7665,"▁합니다.":7666,"지인":7667,"▁아무도":7668,"▁상반기":7669,"▁않았던":7670,"▁오바":7671,"ove":7672,"영은":7673,"당에서":7674,"ys":7675,"▁냈":7676,"▁유키":7677,"▁시상":7678,"ure":7679,"▁어지":7680,"▁양산":7681,"거리가":7682,"▁지어":7683,"▁51":7684,"▁Th":7685,"ge":7686,"루스":7687,"▁죠":7688,"▁누적":7689,"▁조금씩":7690,"현은":7691,"▁돌아오":7692,"▁부처":7693,"▁kt":7694,"▁방사":7695,"▁없음":7696,"▁옛날":7697,"▁히트":7698,"▁곽":7699,"▁익숙":7700,"▁다니는":7701,"양의":7702,"이라서":7703,"▁비디오":7704,"▁본인은":7705,"▁'사":7706,"▁약한":7707,"토를":7708,"▁i":7709,"▁스프":7710,"▁양성":7711,"▁대학생":7712,"되었으며,":7713,"▁폰":7714,"되었고":7715,"▁꿈을":7716,"것이":7717,"▁경비":7718,"▁본선":7719,"감한":7720,"타이":7721,"▁비핵화":7722,"▁적도":7723,"▁가치를":7724,"▁악화":7725,"▁지금도":7726,"가스":7727,"▁어른":7728,"했으나,":7729,"▁초반에":7730,"▁레이저":7731,"▁있으므로":7732,"▁미국은":7733,"▁맞서":7734,"▁않아도":7735,"제,":7736,"av":7737,"▁비례":7738,"게도":7739,"▁손해":7740,"▁개설":7741,"▁반도체":7742,"타운":7743,"▁하나인":7744,"소로":7745,"▁태어난":7746,"(?)":7747,"▁한·미":7748,"▁하기도":7749,"으려":7750,"▁통화":7751,"▁공천":7752,"오가":7753,"▁Bl":7754,"▁까지":7755,"▁눈치":7756,"있던":7757,"▁남부":7758,"▁실천":7759,"▁스펙":7760,"▁해방":7761,"▁자산":7762,"자고":7763,"▁베스트":7764,"▁세력":7765,"이사":7766,"▁권력":7767,"▁존재하는":7768,"▁양국":7769,"▁4대":7770,"▁현재까지":7771,"타의":7772,"키로":7773,"▁되찾":7774,"▁결의":7775,"▁붙여":7776,"▁아닌가":7777,"▁세대":7778,"▁여객":7779,"▁3루":7780,"▁로스":7781,"5000":7782,"현이":7783,"▁데리고":7784,"▁뛰어나":7785,"그래":7786,"▁카메라":7787,"▁아울러":7788,"▁결정을":7789,"▁엄청나게":7790,"▁이주":7791,"▁사람들에게":7792,"된다는":7793,"하기는":7794,"▁만날":7795,"화학":7796,"▁심한":7797,"역,":7798,"▁홀로":7799,"직한":7800,"건강":7801,"▁싱가포르":7802,"지.":7803,"▁법원":7804,"데스":7805,".02":7806,"▁아오":7807,"▁옷을":7808,"▁영원":7809,"▁형태의":7810,"▁현상":7811,"▁지역을":7812,"지고,":7813,"▁적에게":7814,"+./SF<|endoftext|>":7815,"였다고":7816,"▁맞지":7817,"마이":7818,"▁좀비":7819,"▁당신":7820,"▁했다\"고":7821,"ction":7822,"OS":7823,"▁부터":7824,"코가":7825,"▁퓨":7826,"▁정도가":7827,"건축":7828,"▁53":7829,"클럽":7830,"여행":7831,"서도":7832,"▁아니다.<|endoftext|>":7833,"▁판타":7834,"▁한국에서":7835,"▁나아":7836,"▁새정치":7837,"▁떠오":7838,"드라":7839,"▁이혼":7840,"▁화재":7841,"색이":7842,"▁듯.<|endoftext|>":7843,"\",":7844,"▁시장은":7845,"ok":7846,"▁예외":7847,"▁해설":7848,"▁못하게":7849,"▁최고위원":7850,"▁그에게":7851,"▁잠수":7852,"▁일이다.":7853,"▁지옥":7854,"//":7855,"위키":7856,"▁없다":7857,"▁예상된다.":7858,"▁근육":7859,"됐던":7860,"▁카카오":7861,"다\"라며":7862,"부르크":7863,"▁합병":7864,"까지만":7865,"▁금리":7866,"AP":7867,"통을":7868,"▁1994년":7869,"▁삶의":7870,"▁도달":7871,"”<|endoftext|>":7872,"▁저렴":7873,"등학생":7874,"▁Ar":7875,"▁메가":7876,"AA000":7877,"토의":7878,"iv":7879,"▁몸이":7880,"치와":7881,"▁\"한국":7882,"▁뮤지컬":7883,"▁듯하다.":7884,"▁지적이":7885,"▁\"다":7886,"급의":7887,"물은":7888,".co.kr":7889,"▁풍부":7890,"▁즐길":7891,"▁인사를":7892,"▁아라":7893,"▁무효":7894,"실은":7895,"액을":7896,"에,":7897,"▁다음날":7898,"▁유행":7899,"▁점도":7900,"▁MC":7901,"기념":7902,"▁축하":7903,"▁마약":7904,"▁귀족":7905,"영이":7906,"▁향한":7907,"▁증언":7908,"▁99":7909,"(R":7910,"▁자체를":7911,"년간":7912,"▁3만":7913,"▁이끄는":7914,"진과":7915,"▁기회가":7916,"▁메뉴":7917,"▁아시안":7918,"▁하나는":7919,"함과":7920,"▁여의도":7921,"▁이후에도":7922,"▁부사":7923,"▁산하":7924,"800":7925,"▁공약":7926,"▁시기에":7927,"▁\"저":7928,"▁터뜨":7929,"▁층":7930,"ng":7931,"▁상임":7932,"▁3번":7933,"▁주변에":7934,"__02/NNB<|endoftext|>":7935,"인민":7936,"▁상무":7937,"▁동기":7938,"▁긴장":7939,"머리":7940,"▁결과,":7941,"▁버튼":7942,"▁용인":7943,"▁카오":7944,"▁어차":7945,"심으로":7946,"들이다.":7947,"▁평가가":7948,"▁애매":7949,"って":7950,"▁김상":7951,"▁승부":7952,"▁8강":7953,"▁배신":7954,"▁김경":7955,"▁같다\"고":7956,"살을":7957,"▁연애":7958,"▁교육을":7959,"형으로":7960,"았다고":7961,"▁과도":7962,"est":7963,"져야":7964,"▁원자":7965,"▁지금의":7966,"▁SP":7967,"▁강의":7968,"▁목소리":7969,"▁대놓고":7970,"▁수능":7971,"▁중화":7972,"▁내야":7973,"▁대거":7974,"▁장르":7975,"▁알리":7976,"▁대공":7977,"▁아니라고":7978,"크는":7979,"▁잡은":7980,"러가":7981,"▁차기":7982,"▁오늘날":7983,"▁언니":7984,"▁수백":7985,"▁분위기가":7986,"하게도":7987,"▁타이밍":7988,"▁밸런":7989,"▁시점에서":7990,"▁사용한다.":7991,"렸을":7992,"▁잠재":7993,"▁기아":7994,"고속":7995,"▁일대":7996,"▁소리가":7997,"▁간부":7998,"▁노트":7999,"▁있었다고":8000,"▁상대를":8001,"▁매니":8002,"1<|endoftext|>":8003,"▁정도는":8004,"양을":8005,"하긴":8006,"역사":8007,"▁GS":8008,"▁공주":8009,"▁1사":8010,"▁상대의":8011,"▁공작":8012,".25":8013,"/ETM<|endoftext|>":8014,"정과":8015,"▁실종":8016,"▁살려":8017,"▁당일":8018,"▁듀얼":8019,"일리":8020,"였지만":8021,"()을":8022,"▁롱":8023,"▁독특":8024,"▁보지":8025,"~200":8026,"▁무기를":8027,"▁휴대":8028,"▁게임의":8029,"피해":8030,"▁학부모":8031,"번호":8032,"우주":8033,"씨에게":8034,"▁일각":8035,"▁고전":8036,"기에는":8037,"▁유우":8038,"▁말로":8039,"▁멸망":8040,"▁영국의":8041,"▁명중":8042,"▁마치고":8043,"▁늘었다.":8044,"▁아쉽":8045,"▁지나치게":8046,"▁알파":8047,"▁공개했다.":8048,"▁연령":8049,"▁케이스":8050,"▁업무를":8051,"▁분류:일본":8052,"(4":8053,"▁기술이":8054,"▁귀국":8055,"회의를":8056,"▁형제":8057,"▁찾아가":8058,"▁의사를":8059,"거리는":8060,"▁거다.":8061,"▁원거리":8062,"▁(C":8063,"▁중에는":8064,"졌고,":8065,"▁시리아":8066,"▁답했다.":8067,"▁화이트":8068,"▁피부":8069,"▁다음달":8070,"▁\"지난":8071,"정,":8072,"▁달하는":8073,"▁외모":8074,".05":8075,"▁57":8076,"식에서":8077,"▁트랙":8078,"▁그녀를":8079,"미니":8080,"▁대해선":8081,"ass":8082,"▁해명":8083,"크라":8084,"▁필리핀":8085,"▁강요":8086,"소속":8087,"▁자아":8088,"▁시작한다.":8089,"▁오로":8090,"ian":8091,"주지":8092,"▁85":8093,"ast":8094,"▁3000":8095,"터테인먼트":8096,"림을":8097,"▁적응":8098,"▁말았다.":8099,"▁들어갔":8100,"▁들었다.":8101,"▁일부러":8102,"▁후에는":8103,"▁베르":8104,"▁해상":8105,"▁원래는":8106,"▁발생하는":8107,"▁시사":8108,"▁클린":8109,"연의":8110,"▁필살":8111,"어.":8112,"▁현장에서":8113,"▁건립":8114,"▁코미":8115,"▁가속":8116,"▁죽이":8117,"회말":8118,"았고,":8119,"▁평생":8120,"▁중국이":8121,"해왔다.":8122,"▁역사를":8123,"▁공군":8124,"▁맞게":8125,"▁제임":8126,"▁치료를":8127,"해지는":8128,"·고":8129,"▁넷":8130,"▁호남":8131,"▁노무현":8132,"▁적합":8133,"▁on":8134,"▁김기":8135,"친다.":8136,"▁일도":8137,"▁세운":8138,"▁유발":8139,"▁검찰에":8140,"▁내리":8141,"▁헤어":8142,"▁빨간":8143,"▁범행":8144,"▁랩":8145,"▁카즈":8146,"▁그것도":8147,"▁BSAB01":8148,"▁BTAB01":8149,"▁동부":8150,"▁폭력":8151,"▁동시":8152,"차의":8153,"▁한일":8154,"기능":8155,"▁삼국":8156,"▁계승":8157,"▁용산":8158,"▁사고가":8159,"장에게":8160,"비,":8161,"▁주한":8162,"치,":8163,"▁점이다.":8164,"▁리포":8165,"장도":8166,"▁프란":8167,"▁봐야":8168,"명<|endoftext|>":8169,"▁심판":8170,"정부가":8171,"▁오빠":8172,"졌다고":8173,"▁이거":8174,"▁\"여":8175,"화에서는":8176,"▁잘못된":8177,"▁단순한":8178,"조에":8179,"▁본격적인":8180,"▁들을":8181,"화문":8182,"▁교류":8183,"▁돌입":8184,"▁곳으로":8185,"▁중간에":8186,"▁심의":8187,"▁적절한":8188,"▁탈퇴":8189,"▁앞둔":8190,"▁치는":8191,"▁어느정도":8192,"▁남긴":8193,"▁입증":8194,"▁봉사":8195,"▁찬성":8196,"▁쓰레기":8197,"문제":8198,"▁찾은":8199,"▁청주":8200,"▁당시의":8201,"전과":8202,"▁6시":8203,"▁소멸":8204,"▁법적":8205,"▁얻는":8206,"▁엑스":8207,"▁견제":8208,"▁법인":8209,"▁셔":8210,"티어":8211,"전사":8212,"▁.<|endoftext|>":8213,"▁'한":8214,"▁개헌":8215,"e)":8216,"▁최신":8217,"3,":8218,"ath":8219,"▁만났":8220,"하여,":8221,"▁연말":8222,"▁정면":8223,"▁눈물을":8224,"▁생각하고":8225,"▁점수":8226,"▁현역":8227,"▁팀은":8228,"▁58":8229,"▁피해가":8230,"▁'무":8231,"하라는":8232,"▁IT":8233,"▁당시에는":8234,"▁구청":8235,"히고":8236,"관계를":8237,"▁황제":8238,"▁1.5":8239,"는데도":8240,"▁자는":8241,"▁시장에서":8242,"▁You":8243,"▁기체":8244,"▁아무것도":8245,"▁겐":8246,"▁돈이":8247,"▁밴드":8248,"▁취득":8249,"▁추억":8250,"▁10만":8251,"▁사유":8252,"▁둘이":8253,"▁당부":8254,"▁지원하는":8255,"▁와중에":8256,"▁바이오":8257,"렸던":8258,"▁출장":8259,"-4":8260,"▁출신의":8261,"친구":8262,"▁r":8263,"▁동해":8264,"▁가톨릭":8265,"▁보며":8266,"▁김진":8267,"(F":8268,"▁주관":8269,"▁차를":8270,"비와":8271,"▁이스라엘":8272,"▁스웨덴":8273,"▁이르는":8274,"▁09":8275,"▁잃은":8276,"▁그녀가":8277,"▁얼음":8278,"상품":8279,"▁영화를":8280,"▁잡을":8281,"리나":8282,"▁최선을":8283,"봤다.":8284,"▁제로":8285,"▁대부분이":8286,"▁1시간":8287,"▁자신들의":8288,"▁5000":8289,"::":8290,"▁총괄":8291,"▁델":8292,"전,":8293,"도에서":8294,"let":8295,"▁사이버":8296,"▁합리":8297,"▁문자":8298,"▁반란":8299,"▁둘러싼":8300,"▁한마디":8301,"▁크고":8302,"왕이":8303,"라기":8304,"▁장애인":8305,"절한":8306,"▁털어":8307,"▁스킬을":8308,"▁또다시":8309,"▁No":8310,"▁66":8311,"행위":8312,"비에":8313,"방어":8314,"▁단속":8315,"하여야":8316,"▁반면,":8317,"다(...).":8318,"ark":8319,"▁좌우":8320,"▁소수":8321,"▁경제적":8322,"▁트레":8323,"▁FA":8324,"▁초과":8325,"▁확률이":8326,"▁추격":8327,"▁후지":8328,"OD":8329,"산물":8330,"▁다룬":8331,"▁룰":8332,"▁푸른":8333,"약품":8334,"▁테크":8335,"▁마나":8336,"▁신임":8337,"▁여성의":8338,"▁난민":8339,"▁동남":8340,"아는":8341,"▁수__02/NNB<|endoftext|>":8342,"▁진지":8343,"문재인":8344,"▁차지했다.":8345,"테크":8346,"▁드디어":8347,"ess":8348,"▁인공지능":8349,"▁1990년":8350,"▁수를":8351,"▁여성이":8352,"▁축제":8353,"▁단축":8354,"는가":8355,"▁상향":8356,"▁오사카":8357,"ud":8358,"로서의":8359,"▁보일":8360,"▁커버":8361,"생명":8362,"▁시는":8363,"▁6개":8364,"▁한/MM<|endoftext|>":8365,"국으로":8366,"▁패러디":8367,"둘러":8368,"투를":8369,"가구":8370,"업계":8371,"▁오프닝":8372,"▁극장판":8373,"질의":8374,"▁들었":8375,"화하는":8376,"▁경험을":8377,"▁키워":8378,"▁부부":8379,"▁할아버":8380,"▁드러난":8381,"▁×":8382,"유키":8383,"▁방법으로":8384,"(G":8385,"▁아니라는":8386,"브라":8387,"▁발음":8388,"▁규칙":8389,"▁마이클":8390,"하였고":8391,"▁잡는":8392,"▁들려":8393,"다”며":8394,"play":8395,"#<|endoftext|>":8396,"▁대량":8397,"▁아티":8398,"▁맡아":8399,"▁와이":8400,"▁정부와":8401,"▁3개월":8402,"▁끔":8403,"역에":8404,"▁질병":8405,"▁일본어":8406,"트에서":8407,"▁보유한":8408,"다가,":8409,"▁의원의":8410,"▁'오":8411,"▁600":8412,"산시":8413,"해질":8414,"▁철거":8415,"▁공기":8416,"▁기업이":8417,"▁2008":8418,"분간":8419,"▁이시":8420,"▁180":8421,"하다\"며":8422,"▁정치인":8423,"▁화성":8424,"▁2007":8425,"▁택시":8426,"▁구멍":8427,"▁게임이":8428,"▁유기":8429,"▁하반기":8430,"▁4강":8431,"▁주먹":8432,"▁개성":8433,"▁이름의":8434,"▁강릉":8435,"늦게":8436,"▁덕에":8437,"▁젠":8438,"▁전화를":8439,"▁이상으로":8440,"▁보병":8441,"노총":8442,"▁전문가들은":8443,"자마자":8444,"터의":8445,"티드":8446,"▁등등":8447,"▁스타일":8448,"▁어려움을":8449,"▁누구나":8450,"▁경험이":8451,"▁의결":8452,"▁칭찬":8453,"버린다.":8454,"▁데다":8455,"▁레전":8456,"▁미국에서":8457,"▁윌리":8458,"시킨다.":8459,"▁주기":8460,"루의":8461,"마크":8462,"▁주장을":8463,"▁아버지가":8464,"▁장점":8465,"▁얘기를":8466,"해왔":8467,"▁트로":8468,"▁CD":8469,"▁미야":8470,"▁쿄":8471,"▁세계의":8472,"▁FIFA":8473,"카를":8474,"▁관여":8475,"리온":8476,"▁편입":8477,"▁별다른":8478,"2)":8479,"공학":8480,"▁서부":8481,"ood":8482,"▁김용":8483,"▁다녀":8484,"▁진단":8485,"▁'비":8486,"▁순식":8487,"▁실내":8488,"▁K리그":8489,"▁말이다.":8490,"▁2009":8491,"동물":8492,"▁가스":8493,"ire":8494,"▁소울":8495,"▁'신":8496,"까지의":8497,"케이":8498,"ust":8499,"▁한자":8500,"▁불꽃":8501,"▁똑같은":8502,"▁클리":8503,"정상회담":8504,"▁료":8505,"오고":8506,"▁고려해":8507,"▁추가된":8508,"돼야":8509,"▁자이언":8510,"체계":8511,"▁95":8512,"억달러":8513,"▁고령":8514,"▁맡았다.":8515,"▁보존":8516,"▁세부":8517,"▁찾을":8518,"▁MA":8519,"회장":8520,"경기에서":8521,"있게":8522,"▁08":8523,"▁후배":8524,"층의":8525,"느라":8526,"▁쓰이는":8527,"▁가짜":8528,"▁무렵":8529,"▁봉인":8530,"▁죽는":8531,"▁신입":8532,"▁보유하고":8533,"▁11시":8534,"▁라이벌":8535,"▁은근":8536,"교를":8537,"▁장식":8538,"▁북한은":8539,"인터":8540,"▁못한다.":8541,"해준":8542,"전에서는":8543,"▁190":8544,"▁변화가":8545,"▁간담":8546,"▁재무":8547,"이었지만":8548,"▁패널":8549,"▁드물":8550,"▁손님":8551,"▁필드":8552,"▁제4":8553,"희는":8554,"▁그들이":8555,"▁참전":8556,"▁거리가":8557,"▁어차피":8558,"▁정말로":8559,"▁연관":8560,"▁역임":8561,"▁우수한":8562,"▁84":8563,"▁영업이익":8564,"▁목격":8565,"▁07":8566,"리안":8567,"▁재활":8568,"기기":8569,"둥이":8570,"600":8571,"▁모니":8572,"▁지목":8573,"▁접속":8574,"▁안되는":8575,"▁통보":8576,"▁위기를":8577,"▁현금":8578,"력,":8579,"▁장관이":8580,"▁い":8581,"▁ruby=":8582,"~5":8583,"▁그다지":8584,"▁예선":8585,"eg":8586,"되었던":8587,"LC":8588,"▁소식":8589,"주면":8590,"▁신의":8591,"▁추모":8592,"__03":8593,"회와":8594,"▁찾기":8595,"▁풀이":8596,"석에":8597,"▁실제로는":8598,"▁갈아":8599,"▁전체적으로":8600,"▁분쟁":8601,"철수":8602,"▁방문해":8603,"▁청문":8604,"시키기":8605,"연대":8606,"고한":8607,"시절":8608,"▁미래를":8609,"▁혜택을":8610,"미,":8611,"▁줄어든":8612,"성한":8613,"억원으로":8614,"▁베어":8615,"영의":8616,"▁2시":8617,"▁국가의":8618,"▁세계에서":8619,"인인":8620,"차량":8621,"례를":8622,"▁1992년":8623,"▁괴롭":8624,"▁순식간에":8625,"▁제이":8626,"▁프린":8627,"▁누리":8628,"▁(199":8629,"▁PS":8630,"라이언":8631,"▁마침내":8632,"▁성적을":8633,"▁나가는":8634,"한다\"며":8635,"▁골든":8636,"▁연상":8637,"▁위험한":8638,"▁3D":8639,"연한":8640,"▁개시":8641,"실의":8642,"졌던":8643,"ES":8644,"▁고양이":8645,"BS)":8646,"과,":8647,"족의":8648,"▁초월":8649,"파가":8650,"▁식민":8651,"▁관할":8652,"차별":8653,"▁4.":8654,"▁고소":8655,"▁경기에":8656,"▁;":8657,"사들이":8658,"▁한계":8659,"ock":8660,"들과의":8661,"▁드립":8662,"▁멈추":8663,"할때":8664,"▁의혹이":8665,"▁러브":8666,"평균":8667,"▁열린다.":8668,"리우":8669,"▁7시":8670,"해양":8671,"▁규모가":8672,"▁사용해":8673,"▁김씨는":8674,"▁융합":8675,"▁사정":8676,"▁녹음":8677,"▁검찰이":8678,"▁불명":8679,"기에서":8680,"▁코리아":8681,"▁펴":8682,"▁임신":8683,"://":8684,"구치":8685,"▁그와":8686,"▁서포":8687,"▁인민":8688,"▁달린":8689,"dis":8690,"-0":8691,"▁습격":8692,"▁절차를":8693,"우승":8694,"▁브리핑":8695,"▁사례가":8696,"▁플로":8697,"▁태어나":8698,"▁스킨":8699,"e<|endoftext|>":8700,"▁세계를":8701,"희가":8702,"쇼핑":8703,"조사를":8704,"▁측정":8705,"▁제약":8706,"▁250":8707,"▁가구":8708,"▁국방부":8709,"▁다.<|endoftext|>":8710,"▁사장은":8711,"▁비하면":8712,"/XS":8713,"▁않아서":8714,"▁부각":8715,"▁허위":8716,"▁이은":8717,"▁연금":8718,"▁시장에":8719,"▁00":8720,"▁실력":8721,"▁부상을":8722,"▁텔레비전":8723,"▁입장에서는":8724,"▁않겠":8725,"▁믿고":8726,".07":8727,"▁분류:201":8728,"▁(M":8729,"▁끊임":8730,"▁채로":8731,"▁웃음을":8732,"▁배경으로":8733,"▁레인":8734,"▁나섰":8735,"▁1심":8736,"된다고":8737,"▁16강":8738,"▁위키":8739,"▁주행":8740,"▁없으면":8741,"▁속도를":8742,"▁1993년":8743,"▁직무":8744,"▁나도":8745,"▁SS":8746,"▁어떠한":8747,"▁주인공이":8748,"▁일본에서":8749,"였고":8750,"▁사립":8751,"▁커플":8752,"▁대한항공":8753,"▁의지":8754,"▁금메달":8755,"파로":8756,"주와":8757,"소,":8758,"▁관찰":8759,"▁닉":8760,"▁보여주고":8761,"▁클로":8762,"▁단어":8763,"▁리버":8764,"▁기후":8765,"▁발을":8766,"▁시간에":8767,"▁첫번째":8768,"▁장면을":8769,"▁되었고,":8770,"생산":8771,"▁증권":8772,"마는":8773,"▁복수":8774,"▁증가했다.":8775,"▁오염":8776,"▁몰랐":8777,"▁부적":8778,"우,":8779,"▁컵":8780,"▁적시":8781,"▁5,":8782,"▁'고":8783,"령이":8784,"마법":8785,"들에게는":8786,"▁기분":8787,"/JX":8788,"니의":8789,"▁인도네시아":8790,"▁도심":8791,"까?":8792,"▁기능이":8793,"판매":8794,"▁시가":8795,"플러":8796,"학급":8797,"▁찍은":8798,"위,":8799,"▁여러가지":8800,"▁어두":8801,"▁물고":8802,"▁던져":8803,"해진다.":8804,"▁이나":8805,"파의":8806,"▁요금":8807,"▁이미지를":8808,"▁무산":8809,"▁들어갈":8810,"▁물론,":8811,"▁지내":8812,"▁화가":8813,"께서":8814,"▁보냈":8815,"▁직장":8816,"▁클래식":8817,"지난":8818,"▁통산":8819,"(전":8820,"▁분석했다.":8821,"▁한참":8822,"보로":8823,"▁실시간":8824,"▁지진":8825,"▁치러":8826,"▁안습":8827,"▁결과는":8828,"수원":8829,"▁똑같이":8830,"▁편이":8831,"▁이번에는":8832,"▁중계":8833,"분야":8834,"per":8835,"▁'가":8836,"▁용병":8837,"▁볼넷":8838,"HE":8839,"▁시키":8840,"▁느낌이":8841,"▁음식을":8842,"스트라":8843,"액이":8844,"▁세상":8845,".08":8846,"▁카르":8847,"▁선제":8848,"▁is":8849,"▁공격이":8850,"▁US":8851,"▁중국은":8852,"▁차지하는":8853,"▁웅":8854,"회초":8855,"려야":8856,"▁잠실":8857,"▁위치를":8858,"▁공공기관":8859,"정규직":8860,"당과":8861,"▁공연을":8862,"▁감안하면":8863,"▁지연":8864,"▁부담을":8865,"▁결론":8866,"▁가시":8867,"▁출산":8868,"▁남겨":8869,"▁de":8870,"▁'어":8871,"▁3:":8872,"▁난이도":8873,"▁,#":8874,"조리":8875,"▁된다고":8876,"셔널":8877,"▁맞춤":8878,"▁중동":8879,"▁있었고":8880,"▁가치가":8881,"터미널":8882,"▁사로":8883,"▁10여":8884,"ign":8885,"▁이용하는":8886,"▁역으로":8887,"▁네덜란드":8888,"▁보좌":8889,"링을":8890,"렬한":8891,"가며":8892,"▁스트라이":8893,"▁수송":8894,"▁아이디":8895,"하에":8896,"방향":8897,"▁던전":8898,"▁외무":8899,"소송":8900,"▁화려한":8901,"▁일으킨":8902,"▁드는":8903,"ook":8904,"▁그래픽":8905,"▁'공":8906,"프로그램":8907,"▁포스트":8908,"과도":8909,"▁적극적인":8910,"▁최근에는":8911,"▁승인":8912,"▁득표":8913,"▁타이거":8914,"보건":8915,"▁학원":8916,"▁토대로":8917,"▁방식을":8918,"랭크":8919,"▁3연":8920,"고에":8921,"▁집어":8922,"▁친박":8923,"▁군인":8924,"조원":8925,"▁서양":8926,"▁자신과":8927,"▁\"'":8928,"▁대개":8929,"▁여러분":8930,"위원회가":8931,"▁메시지를":8932,"(현":8933,"▁ST":8934,"합의":8935,"▁부서":8936,"▁불교":8937,"’을":8938,"아를":8939,"▁아들이":8940,"(大":8941,"방에서":8942,"▁유전":8943,"학적":8944,"▁이모":8945,"영업":8946,"▁한동안":8947,".04":8948,".06":8949,".09":8950,"▁어서":8951,"uc":8952,"▁PD":8953,"▁쪽이":8954,"▁불이":8955,"▁열었다.":8956,"▁전쟁을":8957,"▁특허":8958,"급을":8959,"▁EU":8960,"▁있었는데":8961,"(E":8962,"선언":8963,"ber":8964,"▁휴대전":8965,"▁가격은":8966,"▁펠":8967,"▁선전":8968,"▁다수의":8969,"▁끌려":8970,"▁했고":8971,"▁묻는":8972,"▁II":8973,"!\"<|endoftext|>":8974,"▁주장하는":8975,"▁1대":8976,"▁ン":8977,"▁비가":8978,"책임":8979,"자치단체":8980,"▁녹색":8981,"▁술을":8982,"▁네트워크":8983,"()에":8984,"▁징계":8985,"달아":8986,"(5":8987,"▁10개":8988,"▁일으키":8989,"▁하니":8990,"▁데스":8991,"▁개발한":8992,"▁72":8993,"히로":8994,"▁무난":8995,"ome":8996,"감은":8997,"▁04":8998,"졌다는":8999,"▁배달":9000,"▁회장의":9001,"▁크레":9002,"▁06":9003,"▁메달":9004,"▁법무부":9005,"▁회전":9006,"▁잉글랜드":9007,"▁조언":9008,"▁충격을":9009,"판은":9010,"▁후보로":9011,"스티벌":9012,"▁이수":9013,"▁캐릭터를":9014,"ment":9015,"▁시장의":9016,"▁템":9017,"▁시야":9018,"(N":9019,"▁기습":9020,"▁1991년":9021,"▁즉각":9022,"사<|endoftext|>":9023,"▁명을":9024,"▁반응이":9025,"▁SM":9026,"국인":9027,"▁건조":9028,"▁대표의":9029,"OC":9030,"▁시장이":9031,"살아있는":9032,"▁무죄":9033,"▁데이비":9034,"▁주장이":9035,"▁언급한":9036,"금리":9037,"태를":9038,"▁체제":9039,"하였으며,":9040,"▁급증":9041,"▁이렇":9042,"▁2사":9043,"ix":9044,"억원의":9045,"미술":9046,"▁투어":9047,"퍼스":9048,"▁처치":9049,"▁한강":9050,"졌을":9051,"▁멍":9052,"라노":9053,"▁네가":9054,"로소":9055,"▁비판을":9056,"▁고생":9057,"목이":9058,"▁63":9059,"교육청":9060,"▁어째":9061,"▁부작":9062,"자키":9063,"▁침해":9064,"▁지낸":9065,"▁경주":9066,"▁자매":9067,"▁조준":9068,"▁성공했다.":9069,"▁실망":9070,"▁여동생":9071,"▁미안":9072,"▁내렸다.":9073,"하더라도":9074,"▁투명":9075,"지않":9076,"등록":9077,"▁활용해":9078,"▁채권":9079,"▁68":9080,"▁빌려":9081,"▁포착":9082,"▁8시":9083,"▁금속":9084,"▁벌써":9085,"display":9086,"▁1루":9087,"▁구속영":9088,"▁연설":9089,"▁101":9090,"▁매주":9091,"BA":9092,"대통령":9093,"▁입단":9094,"▁나간":9095,"▁100만":9096,"종은":9097,"▁신호":9098,"▁팬들의":9099,"보단":9100,"▁방패":9101,"▁아니었":9102,"다란":9103,"▁성능을":9104,"/32":9105,"▁해금":9106,"▁정신을":9107,"▁노예":9108,"▁하겠":9109,"도우":9110,"▁이어진":9111,"▁부른다.":9112,"▁파란":9113,"▁귀여":9114,"▁이것을":9115,"▁되자":9116,"▁타워":9117,"▁그러자":9118,"처를":9119,"▁집으로":9120,"▁싸우는":9121,"▁자연스럽게":9122,"주년을":9123,"▁편리":9124,"▁때문인지":9125,"에다":9126,"습니":9127,"▁시대의":9128,"▁역을":9129,"▁벌금":9130,"레나":9131,"▁담아":9132,"국,":9133,"▁친환경":9134,"▁홈런을":9135,"▁아이템을":9136,"막을":9137,"▁한국을":9138,"(H":9139,"▁올리는":9140,"▁모른다.":9141,"▁이득":9142,"N<|endoftext|>":9143,"류의":9144,"▁등장.":9145,"여성":9146,"▁순수":9147,"체인":9148,"▁수준이다.":9149,"텔레콤":9150,"▁며칠":9151,"온이":9152,"파이":9153,"어져":9154,"▁내보":9155,"-003":9156,"데다":9157,"▁예약":9158,"▁장악":9159,"▁진정":9160,"▁확인됐다.":9161,"올해":9162,"▁이자":9163,"어요.":9164,"▁현대차":9165,"치료":9166,"▁MS":9167,"▁스튜디오":9168,"▁없던":9169,"▁좋을":9170,"선,":9171,"400":9172,"비용":9173,"▁고수":9174,"▁사용하면":9175,"더라":9176,"곡을":9177,"▁남쪽":9178,"ear":9179,"이트를":9180,"▁관련기사":9181,"공의":9182,"이나,":9183,"업이":9184,"▁'스":9185,"▁화물":9186,"▁\"일":9187,"▁파이터":9188,"▁랜덤":9189,"경의":9190,"▁입법":9191,"/NR":9192,"▁사건에":9193,"▁현상이":9194,"▁일본은":9195,"▁안드로":9196,"▁뜨거운":9197,"▁간호":9198,"결을":9199,"▁BTBZ00":9200,"▁BSBZ00":9201,"▁물질":9202,"티아":9203,"▁모임":9204,"▁거라고":9205,"▁관중":9206,"▁서구":9207,"▁폭풍":9208,"▁광화문":9209,"▁#!wiki":9210,"▁방위":9211,"▁유입":9212,"▁오바마":9213,"▁끌어올":9214,"ran":9215,"면적":9216,"▁An":9217,"6,":9218,"▁연봉":9219,"▁방법은":9220,"▁계기가":9221,"프랑":9222,"▁가계":9223,"외교":9224,"▁죽음을":9225,"▁시의":9226,"▁한국과":9227,"이었으나":9228,"으려고":9229,"▁점유":9230,"▁외교부":9231,"round":9232,"명)":9233,"mer":9234,"▁태풍":9235,"▁사후":9236,"▁자식":9237,"▁불가피":9238,"▁존중":9239,"▁마녀":9240,"▁뒤늦게":9241,"▁동안)":9242,"당히":9243,"▁\"공":9244,"▁스카이":9245,"▁되는데":9246,"▁훈련을":9247,"▁높게":9248,"▁이집":9249,"권과":9250,"이었고,":9251,"만,":9252,"▁\"고":9253,"▁준비를":9254,"▁부드":9255,"경에":9256,"▁윌리엄":9257,"▁작가의":9258,"▁효과는":9259,"보스":9260,"▁불거":9261,"▁고성":9262,"▁제국의":9263,"▁그날":9264,"▁손으로":9265,"▁있다\"면서":9266,"바닥":9267,"▁독특한":9268,"▁#000":9269,"▁다를":9270,"▁분야에서":9271,"▁마츠":9272,"▁부담이":9273,"▁베네":9274,"▁성공한":9275,"▁컬러":9276,"-006":9277,"박근혜":9278,"▁정글":9279,"▁영향으로":9280,"▁플레이어가":9281,"▁투쟁":9282,"▁width=100":9283,"▁MP":9284,"▁수요가":9285,"자들과":9286,"▁한국당":9287,"▁포스코":9288,"▁1987년":9289,"상공":9290,"매매":9291,"▁기어":9292,"▁내다":9293,"등의":9294,"▁북쪽":9295,"▁측이":9296,"질환":9297,"이라면서":9298,"▁모리":9299,"▁분류:살아있는":9300,"▁방치":9301,"'<|endoftext|>":9302,"했는지":9303,"▁사라진":9304,"▁벼":9305,"센터에서":9306,"▁오해":9307,"업에":9308,"▁전세계":9309,"▁한쪽":9310,"▁가이":9311,"▁67":9312,"▁나설":9313,"▁색깔":9314,"▁집안":9315,"▁음성":9316,"▁(NP_":9317,"▁부채":9318,"인간":9319,"▁깊이":9320,"았다는":9321,"리즘":9322,"▁있었으나":9323,"중공업":9324,"▁점수를":9325,"▁빠져나":9326,"대교":9327,"▁회계":9328,"▁부분에":9329,"▁전체의":9330,"▁채워":9331,"속성":9332,"▁아니었다.":9333,"절을":9334,"리다":9335,"었는데,":9336,"▁진료":9337,"▁인력":9338,"▁사고를":9339,"▁1988년":9340,"▁'나":9341,"계열":9342,"s<|endoftext|>":9343,"▁식물":9344,"▁5.":9345,"▁새끼":9346,"만으로도":9347,"소설":9348,"목으로":9349,"ial":9350,"동아":9351,"▁해안":9352,"온다.":9353,"터는":9354,"편이":9355,"ite":9356,"▁제법":9357,"팀의":9358,"▁중장":9359,"▁진상":9360,"스트를":9361,"▁'전":9362,"▁영양":9363,"해지고":9364,"▁단기":9365,"포가":9366,"▁10대":9367,"▁성립":9368,"▁소요":9369,"▁\"앞":9370,"▁대외":9371,"D01":9372,"▁북부":9373,"미디어":9374,"▁05":9375,"혁명":9376,"▁시장을":9377,"▁제임스":9378,"▁실력을":9379,"의료":9380,"▁분류:미국의":9381,"▁관련,":9382,"행이":9383,"▁있긴":9384,"▁페이지":9385,"▁함정":9386,"▁교수가":9387,"▁험":9388,"-00009":9389,"행한":9390,"망이":9391,"▁있었는데,":9392,"-00005":9393,"▁국내외":9394,"▁철저히":9395,"4,":9396,"▁인간이":9397,"▁어든":9398,"▁적대":9399,"▁비율이":9400,"▁사무총":9401,"▁가량":9402,"▁카드가":9403,"▁블로그":9404,"▁앞세":9405,"팅을":9406,"▁대대":9407,"지수":9408,"▁2~3":9409,"▁받아들여":9410,"▁성격이":9411,"▁차라리":9412,"▁재벌":9413,"구에서":9414,"인권":9415,"▁5·":9416,"▁수면":9417,"바른":9418,"▁두드":9419,"▁코드":9420,"▁메탈":9421,"▁헤드":9422,"▁기록하며":9423,"항을":9424,"▁자리잡":9425,"▁이끌고":9426,"가운":9427,"▁스트레":9428,"코는":9429,"▁더보기":9430,"▁어디까지":9431,"▁파라":9432,"▁이루어진":9433,"선과":9434,"▁상장":9435,"▁공격력이":9436,"▁위주로":9437,"▁착수":9438,"▁이후의":9439,"았지만":9440,"▁무언":9441,"학의":9442,"레일":9443,"RA":9444,"▁이어질":9445,"▁유사한":9446,"▁장수":9447,"▁고속도로":9448,"port":9449,"은행은":9450,"▁그간":9451,"마저도":9452,"서와":9453,"▁88":9454,"▁것이란":9455,"()이":9456,"▁크리":9457,"군사":9458,"경찰청":9459,"▁비율":9460,"▁판정":9461,"▁사건은":9462,"▁것으로,":9463,".0%":9464,"▁매력":9465,"▁2<|endoftext|>":9466,"()를":9467,"▁동양":9468,"▁녀석":9469,"생의":9470,"▁1명":9471,"▁width=25":9472,"▁오직":9473,"are":9474,"▁아니냐":9475,"▁캠프":9476,"작을":9477,"▁사로잡":9478,"어요.<|endoftext|>":9479,"▁지역은":9480,"▁프라":9481,"▁숭":9482,"-10":9483,"▁오지":9484,"▁배려":9485,"▁이대":9486,"▁연대":9487,"정부의":9488,"▁문화재":9489,"▁석유":9490,"★★":9491,"▁영문":9492,"▁버프":9493,"▁이리":9494,"▁빛을":9495,"관련기사":9496,"▁급격":9497,"io":9498,"민주연합":9499,"▁곳을":9500,"으론":9501,"건,":9502,"▁무덤":9503,"▁박물":9504,"▁팬들이":9505,"▁사람에게":9506,"▁시켜":9507,"▁고문":9508,"밀한":9509,"▁포함된":9510,"▁쓰면":9511,"ip":9512,"▁챙겨":9513,"▁내구":9514,"▁완벽한":9515,"▁기대를":9516,"미나":9517,"▁모은":9518,"▁담겨":9519,"▁사회의":9520,"”이라고":9521,"▁그러나/MAJ<|endoftext|>":9522,"호와":9523,"▁최순실":9524,"▁방향을":9525,"▁거리를":9526,"▁지지를":9527,"▁189":9528,"▁'마":9529,"0000":9530,"▁찍어":9531,"▁경우에":9532,"▁지니고":9533,"벤처":9534,"-00004":9535,"▁전무":9536,"▁하거나":9537,"▁출간":9538,"점의":9539,"▁경향이":9540,"▁선사":9541,"▁붙은":9542,"▁기억을":9543,"받지":9544,"▁참여하는":9545,"▁가능성은":9546,"법상":9547,"IO01":9548,"욕을":9549,"▁율":9550,"▁인스타":9551,"▁줬":9552,"▁교회":9553,"름을":9554,"▁본다.":9555,"▁요새":9556,"▁태도를":9557,"▁담배":9558,"▁일부를":9559,"▁깨닫":9560,"버스터":9561,"▁켜":9562,"▁이겨":9563,"봉사":9564,"장(":9565,"▁나루":9566,"▁형식":9567,"였다는":9568,"▁겨냥":9569,"역의":9570,"▁0.":9571,"▁방어력":9572,"▁오스":9573,"▁감옥":9574,"▁괜찮은":9575,"드립":9576,"▁이뤄진":9577,"▁승격":9578,"▁제2차":9579,"▁결과에":9580,"▁동계":9581,"그러":9582,"▁부실":9583,"▁이하의":9584,"▁많고":9585,"▁대략":9586,"▁62":9587,"▁위안부":9588,"▁주재":9589,"편에서":9590,"역<|endoftext|>":9591,"▁메르스":9592,"▁무대를":9593,"시고":9594,"티즌":9595,"동으로":9596,"협정":9597,"▁입수":9598,"슬러":9599,"▁고구":9600,"▁시에":9601,"▁비싼":9602,"카는":9603,"▁아이가":9604,"▁의문":9605,"▁회수":9606,"▁2대":9607,"▁대항":9608,"▁국내에서":9609,"▁전체를":9610,"rom":9611,"키를":9612,"▁씨의":9613,"▁시·":9614,"▁여왕":9615,"스에게":9616,"▁계급":9617,"▁아랍":9618,"▁불가능한":9619,"▁노르":9620,"▁출현":9621,"▁De":9622,"▁보게":9623,"▁이용하여":9624,"단,":9625,"▁말레이":9626,"▁지능":9627,"보드":9628,"▁현황":9629,"▁준공":9630,"▁스크린":9631,"▁있으나,":9632,"▁벌인":9633,"▁말하면":9634,"위기":9635,"▁첨단":9636,"▁프로토":9637,"▁평택":9638,"▁패시브":9639,"이었다고":9640,"▁왜곡":9641,"▁어릴":9642,"세한":9643,"법원":9644,"▁젤":9645,"▁암흑":9646,"00여":9647,"▁했는데,":9648,"▁역사상":9649,"▁카운터":9650,"▁미치는":9651,"▁사망한":9652,"▁콘서트":9653,"ius":9654,"▁김포":9655,"▁영광":9656,"▁기도":9657,"수산":9658,"▁77":9659,"의가":9660,"▁공시":9661,"▁처음이다.":9662,"▁1989년":9663,"▁않다는":9664,"▁별도의":9665,"▁박살":9666,"▁우연히":9667,"▁자세히":9668,"▁2부":9669,"▁다루는":9670,"▁종로구":9671,"▁없으니":9672,"인지라":9673,"▁7년":9674,"▁보고서":9675,"민족":9676,"▁않았지만":9677,"▁1/":9678,"▁참석해":9679,"▁가라":9680,"/VA+":9681,"인천":9682,"▁톱":9683,"▁중순":9684,"▁움직임":9685,"▁주주":9686,"▁사거리":9687,"▁쓰러뜨":9688,"자산":9689,"▁해적":9690,"티나":9691,"교사":9692,"▁행위를":9693,"▁특집":9694,"시청":9695,"▁재현":9696,"▁스파이":9697,"▁저작":9698,"-00008":9699,"▁j":9700,"▁아리":9701,"경쟁":9702,"트랙":9703,"▁마지막에":9704,"▁분열":9705,"▁하수":9706,"길이":9707,"▁매장":9708,"▁아이들이":9709,"▁피고":9710,"▁입원":9711,"▁울트라":9712,"▁일원":9713,"▁최우수":9714,"▁북핵":9715,"동은":9716,"▁혁명":9717,"▁총리가":9718,"▁이듬":9719,"▁킨":9720,"▁74":9721,"▁3학년":9722,"▁보내는":9723,"것을":9724,"▁세금":9725,"▁인재":9726,"▁것일":9727,"▁실적":9728,"프리카":9729,"·이":9730,"켰다.":9731,"▁대표하는":9732,"▁추정된다.":9733,"당하는":9734,"▁노사":9735,"▁1~2":9736,"OM":9737,"▁고개를":9738,"▁아버지의":9739,"▁끝나고":9740,"▁컨텐츠":9741,"사업을":9742,"진에":9743,"▁NH":9744,"man":9745,"-0006":9746,"군,":9747,"▁\"가":9748,"▁안양":9749,"▁대책을":9750,"▁이병":9751,"▁열차":9752,"▁아일랜드":9753,"▁소재로":9754,"▁썼다.":9755,"끄러":9756,"NA":9757,"▁전에는":9758,"▁사용하지":9759,"▁연료":9760,"▁Un":9761,"g|":9762,"▁차량을":9763,"됐다는":9764,"▁시대에":9765,"▁Te":9766,"▁얻고":9767,"▁쿨타임":9768,"▁복원":9769,"▁실업":9770,"▁정부에":9771,"▁원전":9772,"생이":9773,"▁해킹":9774,"!)":9775,"노조":9776,"대구":9777,"니는":9778,"웠던":9779,"▁충분한":9780,"▁허가":9781,"▁제어":9782,"개,":9783,"유치":9784,"▁압수수":9785,"▁힘들다.":9786,"▁부총":9787,"▁여부":9788,"▁이글":9789,"▁한다면":9790,"▁일하는":9791,"▁돌격":9792,"타입":9793,"#x":9794,"▁겪고":9795,"▁농촌":9796,"▁보면서":9797,"▁거친":9798,"순위":9799,"어요":9800,"▁지방선거":9801,"으로서의":9802,"nam":9803,"▁데미지가":9804,"▁문제의":9805,"▁기본적인":9806,"ft":9807,"였으나":9808,"전한":9809,"타워":9810,"~6":9811,"▁그로":9812,"▁있었다는":9813,"▁편이다.<|endoftext|>":9814,"▁에드":9815,"ies":9816,"▁심장":9817,"▁않다.<|endoftext|>":9818,"미와":9819,"지대":9820,"▁증가한":9821,"▁매체":9822,"▁발생할":9823,"’를":9824,"▁김해":9825,"▁까다":9826,"ov":9827,"마루":9828,"마에":9829,"판에서":9830,"▁제5":9831,"비디오":9832,"▁딜러":9833,"▁혼자서":9834,"미터":9835,"▁카타":9836,"론의":9837,"▁인형":9838,"▁동북":9839,"▁61":9840,"▁해병":9841,"▁듣는":9842,"판에서는":9843,"저히":9844,"▁SU":9845,"▁과거의":9846,"▁강제로":9847,"▁나라의":9848,"▁어려울":9849,"▁운영하고":9850,"▁버려":9851,"▁락":9852,"▁평가했다.":9853,"▁1호":9854,"▁갖추고":9855,"▁5만":9856,"소와":9857,"▁6년":9858,"영,":9859,")도":9860,"▁재배":9861,"▁이외에도":9862,"억원,":9863,"▁분석한":9864,"시하는":9865,"▁갈라":9866,"▁비트":9867,"▁유형":9868,"▁근처에":9869,"▁30년":9870,"이든":9871,"내지":9872,"▁사이가":9873,"▁\"자":9874,"▁레오":9875,"었으나":9876,"▁앞선":9877,"▁국토교통":9878,"졌고":9879,"드<|endoftext|>":9880,"▁토모":9881,"▁완공":9882,"전투":9883,"타수":9884,"▁하야":9885,"▁이로써":9886,"▁원인이":9887,"▁아나운":9888,"한을":9889,"▁적혀":9890,"▁캐스팅":9891,"▁유권":9892,"▁받기":9893,"법으로":9894,"▁학살":9895,"▁CP":9896,"타자":9897,"▁비슷하게":9898,"▁격투":9899,"▁상태를":9900,"5,":9901,"▁났":9902,"▁결제":9903,"▁네티즌":9904,"-008":9905,"▁저질":9906,"▁독일의":9907,"▁트윈":9908,"▁사토":9909,"▁경기는":9910,"▁곳이다.":9911,"▁김수":9912,"▁활용한":9913,"(0":9914,"우기":9915,"▁착각":9916,"▁출처":9917,"▁시원":9918,"▁팬들은":9919,"▁그건":9920,"▁곡을":9921,"고로":9922,"__05":9923,"DP":9924,"▁변형":9925,"▁공격에":9926,"▁크로스":9927,"▁가벼":9928,"▁격파":9929,"-00006":9930,"▁성능이":9931,"▁개교":9932,"▁76":9933,"▁구출":9934,"▁3px;":9935,"랑이":9936,"▁사랑하는":9937,"▁생일":9938,"▁기획재":9939,"▁노란":9940,"▁별도로":9941,"▁동참":9942,"박한":9943,"▁버리고":9944,"된다\"고":9945,"▁날짜":9946,"적,":9947,"▁나이가":9948,"▁그러한":9949,"▁얼굴이":9950,"했다면":9951,"▁바뀌었다.":9952,"▁수습":9953,"▁이듬해":9954,"▁모르겠":9955,"▁컷":9956,"▁넣고":9957,"▁사운드":9958,"▁\"지금":9959,"티가":9960,"▁캐릭터의":9961,"당해":9962,"▁유효":9963,"▁압도적인":9964,"▁비싸":9965,"▁음주":9966,"습니다":9967,"ond":9968,"피를":9969,"▁그라":9970,"▁교장":9971,"하기가":9972,"▁\"기":9973,"▁모래":9974,"▁노벨":9975,"▁조건을":9976,"▁가문":9977,"▁1980년":9978,"▁카나":9979,"▁뿌리":9980,"▁5시":9981,"바라":9982,"ide":9983,"리얼":9984,"▁도우":9985,"▁한국이":9986,"▁Cl":9987,"▁주전":9988,"▁해운":9989,"백을":9990,"▁아가":9991,"▁그런지":9992,"▁섭취":9993,"건으로":9994,"▁실수":9995,"▁제공한다.":9996,"▁사용하고":9997,"▁튜":9998,"▁괴물":9999,"▁도서관":10000,"만큼은":10001,"▁지은":10002,"권,":10003,"해지":10004,"▁\"중":10005,"▁그러니까":10006,"다니는":10007,"▁'자":10008,"▁무척":10009,"▁여론조사":10010,"▁단점":10011,"▁바른미래":10012,"가량":10013,"바다":10014,"▁리얼":10015,"▁커지고":10016,"▁입장에서":10017,"편을":10018,"▁블라":10019,"▁2006":10020,"주행":10021,"▁첫째":10022,"▁면접":10023,"▁공개한":10024,"당할":10025,"▁내각":10026,"름이":10027,"▁금강":10028,"▁있다가":10029,"▁당해":10030,"▁간접":10031,"ffff":10032,"었기":10033,"▁(VP":10034,"▁중독":10035,"▁일관":10036,"▁감정을":10037,"▁비교해":10038,"소비":10039,"조로":10040,"KB":10041,"스톤":10042,"▁자동으로":10043,"▁않았을":10044,"어와":10045,"▁운동을":10046,"▁수색":10047,"▁130":10048,"인사":10049,"▁종사":10050,"▁BM":10051,"드레":10052,"묘한":10053,"▁가려":10054,"▁정도다.":10055,"▁코치":10056,"OP":10057,"▁느낌을":10058,"▁양쪽":10059,"네가":10060,"▁올해는":10061,"타점":10062,"▁다이아":10063,"▁바꾼":10064,"▁결성":10065,"트릭":10066,"ory":10067,"▁'불":10068,"▁안으로":10069,"물질":10070,"▁Al":10071,"▁보복":10072,"▁무소속":10073,"로봇":10074,"▁일치":10075,"▁Pro":10076,"▁AT":10077,"▁무인":10078,"▁스폰":10079,"판의":10080,"▁조별":10081,"▁미만":10082,"▁늘고":10083,"▁미스":10084,"▁일본이":10085,"범위":10086,"하거나,":10087,"??":10088,"메이크":10089,"▁연구를":10090,"▁수준이":10091,"▁수록곡":10092,"▁상처를":10093,"화할":10094,"시간을":10095,"위원장은":10096,"▁쫓아":10097,"▁김모":10098,"▁전투에서":10099,"▁여유":10100,"▁1학년":10101,"▁혹시":10102,"로나":10103,"▁마구":10104,"▁69":10105,"▁매입":10106,"▁동성":10107,"▁작가가":10108,"▁노후":10109,"▁재직":10110,"▁갖는":10111,"▁관세":10112,"▁110":10113,"▁잡지":10114,"식과":10115,"통상":10116,"__03/NNG<|endoftext|>":10117,"곳을":10118,"▁농구":10119,"로와":10120,"▁일에":10121,"▁돌진":10122,"▁조례":10123,"인지는":10124,"츠키":10125,"▁힘으로":10126,"▁절망":10127,"▁북한에":10128,"▁New":10129,"▁엇":10130,"▁행성":10131,"▁댄스":10132,"▁닥터":10133,"ere":10134,"▁쓰인":10135,"▁매매":10136,"▁갑옷":10137,"학원":10138,"▁지불":10139,"▁창의":10140,"▁학술":10141,"았고":10142,"ick":10143,"▁격려":10144,"▁의미로":10145,"▁커다란":10146,"▁하얀":10147,"거리를":10148,"은,":10149,"대학원":10150,"▁발생했다.":10151,"▁것입니다.":10152,"▁열렸다.":10153,"▁상영":10154,"도르":10155,"▁유니폼":10156,"▁3시":10157,"m2":10158,"현,":10159,"▁핵실험":10160,"▁것,":10161,"라면서":10162,"▁피아노":10163,"▁뛰어넘":10164,"감과":10165,"▁공간을":10166,"심사":10167,"▁발견된":10168,"▁권총":10169,"▁잃고":10170,"▁주간":10171,"▁발의":10172,".)":10173,"▁비용을":10174,"▁'내":10175,"▁프라이":10176,"▁반격":10177,"리고,":10178,"▁2학년":10179,"▁걸고":10180,"렸고,":10181,"▁개인의":10182,"디가":10183,"▁챔피언스":10184,"▁전방":10185,"▁있었을":10186,"▁난이도가":10187,"▁렉":10188,"▁플레이오프":10189,"당하고":10190,"됐고,":10191,"▁버린":10192,"▁벌이고":10193,"▁정류":10194,"▁여러모로":10195,"교회":10196,"▁pad":10197,"'이다.":10198,"▁손가락":10199,"▁소위":10200,"측은":10201,"다리":10202,"▁법안":10203,"▁추세":10204,"▁DJ":10205,"위원회를":10206,"▁판타지":10207,"었다":10208,"▁포르투":10209,"호로":10210,"▁국정원":10211,"▁보물":10212,"층이":10213,"▁동영상":10214,"▁가만":10215,"▁일정을":10216,"▁기준을":10217,"▁아끼":10218,"▁파이널":10219,"▁명백":10220,"로에":10221,"드에서":10222,"▁논란을":10223,"일)":10224,"▁떡밥":10225,"▁it":10226,"▁게이트":10227,"▁신기":10228,"▁여신":10229,"미국":10230,"ung":10231,"▁이길":10232,"실점으로":10233,"▁미세먼지":10234,"▁불렀":10235,"▁부근":10236,"▁불만을":10237,"▁신라":10238,"디스":10239,"▁서해":10240,"'이란":10241,"▁폴란드":10242,"▁전성":10243,"▁당신이":10244,"▁차원":10245,"예산":10246,"▁유해":10247,"▁비고":10248,"▁근대":10249,"▁항소":10250,"▁받아야":10251,"▁최후의":10252,"석,":10253,"▁있어도":10254,"▁노동자":10255,"포먼":10256,"▁기절":10257,"실히":10258,"▁후보를":10259,"▁달라고":10260,"▁보냈다.":10261,"온은":10262,"▁회의를":10263,"▁투자를":10264,"▁(2":10265,"▁브루":10266,"▁물건을":10267,"▁모르고":10268,"▁수여":10269,"스레":10270,"▁스미":10271,"▁준우승":10272,"▁이후로는":10273,"▁단단":10274,"▁크기":10275,"▁총을":10276,"▁권고":10277,"▁영구":10278,"▁요구했다.":10279,"00만원":10280,"-00019":10281,"▁마리아":10282,"▁대원":10283,"나카":10284,"▁조사됐다.":10285,"우와":10286,"▁목표를":10287,"-12":10288,"야의":10289,"▁더해":10290,"만명":10291,"▁소송을":10292,"▁되는데,":10293,"▁드리":10294,"▁눈물":10295,"▁유나이":10296,"니와":10297,"▁질문을":10298,"▁있었기":10299,"The":10300,"▁레이더":10301,"▁가면라이더":10302,"연은":10303,"▁유족":10304,"▁숨진":10305,"▁비정규직":10306,"생활을":10307,"▁중심의":10308,"B+":10309,"▁쪽은":10310,"▁신선":10311,"사한":10312,"https":10313,"▁\"나":10314,"주)":10315,"▁갖춰":10316,"▁게재":10317,"▁교도":10318,"▁중립":10319,"▁그랜드":10320,"▁오피스":10321,"▁창립":10322,"▁끊임없이":10323,"▁그러면":10324,"▁한층":10325,"▁떨어뜨":10326,"▁미국에":10327,"jp":10328,"▁전략을":10329,"▁4번":10330,"비스":10331,"▁MVP":10332,"ice":10333,"환으로":10334,"▁위장":10335,"▁들어갔다.":10336,"▁반려":10337,"▁콜라":10338,"▁늦게":10339,"▁몽골":10340,"▁도박":10341,"▁받으며":10342,"상한":10343,"데이터":10344,"aw":10345,"▁출동":10346,"▁재난":10347,"▁비즈":10348,"리언":10349,"▁민정":10350,"ug":10351,"님을":10352,"▁장학":10353,"▁'유":10354,"되었으며":10355,"▁시작해":10356,"▁외에는":10357,"하자는":10358,"▁아기":10359,"▁A4":10360,"US":10361,"▁제도를":10362,"▁요코":10363,"▁안의":10364,"키스탄":10365,"자책":10366,"▁나타나는":10367,"-00018":10368,"실과":10369,"즈와":10370,"개국":10371,"▁끄":10372,"▁멋진":10373,"▁보건복지":10374,"▁오래된":10375,"▁음악을":10376,"▁그렇지만":10377,"▁마술":10378,"▁신형":10379,"▁않았다고":10380,"치면":10381,"통일":10382,"▁중에서는":10383,"▁마인":10384,"트럼프":10385,"▁많지":10386,"▁야생":10387,"▁모션":10388,"▁잇는":10389,"▁드랍":10390,"▁어드":10391,"▁tv":10392,"에서부터":10393,"들로부터":10394,"▁스포":10395,"▁케이블":10396,"▁변호사는":10397,"▁내놓은":10398,"진으로":10399,"▁패키":10400,"▁출연한":10401,"▁빠르":10402,"▁\"남":10403,"0236":10404,"▁문서:":10405,"▁존재하지":10406,"▁배포":10407,"▁드러냈다.":10408,"▁건국":10409,"▁패치로":10410,"pt":10411,"▁편.<|endoftext|>":10412,"▁3건":10413,"스트가":10414,"▁유독":10415,"▁한나라당":10416,"청년":10417,"▁Se":10418,"토록":10419,"▁회사의":10420,"자면":10421,"▁거짓말":10422,"슈타":10423,"▁써서":10424,"▁체크":10425,"▁3인":10426,"▁작품의":10427,"▁티켓":10428,"~8":10429,"▁상관없이":10430,"▁비주":10431,"▁히데":10432,"▁말까지":10433,"▁사건으로":10434,"▁시간은":10435,"ackg":10436,"▁나름대로":10437,"▁확실한":10438,"▁어떻게든":10439,"▁다들":10440,"'에서는":10441,"▁가난":10442,"▁with":10443,"▁트럭":10444,"▁협상을":10445,"▁메카":10446,"▁레어":10447,"▁물이":10448,"▁사업에":10449,"▁전당":10450,"▁적어":10451,"pe":10452,"ackground":10453,"▁보여줬":10454,"▁천연":10455,"그라":10456,"▁신동":10457,"▁전담":10458,"▁자신도":10459,"▁죽인":10460,"▁AR":10461,"▁달고":10462,"▁2세":10463,"▁내의":10464,"▁전투를":10465,"▁임기":10466,"▁이벤트를":10467,"로워":10468,"▁1군":10469,"▁이라크":10470,"▁전철":10471,"▁유대":10472,"▁나면":10473,"▁2기":10474,"▁이룬":10475,"특히":10476,"▁명령을":10477,"패로":10478,"▁위원장이":10479,"oy":10480,"▁사내":10481,"▁진행된다.":10482,"▁2연":10483,"▁유승":10484,"▁여행을":10485,"조치":10486,"계에서":10487,"치면서":10488,"▁가드":10489,"버리고":10490,"▁출근":10491,"달라는":10492,"▁위치해":10493,"▁쓰기":10494,"▁삼아":10495,"▁합성":10496,"담당":10497,"에겐":10498,"▁골을":10499,"▁플레이를":10500,"▁브로":10501,"▁김대중":10502,"▁장군":10503,"색으로":10504,"▁스틸":10505,"위원장이":10506,"▁개업":10507,"▁양의":10508,"감에":10509,"▁구미":10510,"▁2명":10511,"▁중재":10512,"▁협조":10513,"▁CN":10514,"▁학교에":10515,"D0236":10516,"▁'기":10517,"박스":10518,"이게":10519,"▁도는":10520,"하면,":10521,"디움":10522,"▁충족":10523,"타와":10524,"▁무대에":10525,"▁갑작":10526,"▁연기를":10527,"사도":10528,"세포":10529,"▁국가대표팀":10530,"했었다.":10531,"▁응급":10532,"▁정무":10533,"▁\"무":10534,"이면서":10535,"에서,":10536,"▁알바":10537,"운이":10538,"▁보이며":10539,"▁절대로":10540,"▁만나는":10541,"준이":10542,"▁7CT_000":10543,"테르":10544,"▁생각보다":10545,"▁아마도":10546,"글로":10547,"침을":10548,"▁연휴":10549,"orld":10550,"▁정규직":10551,"▁계좌":10552,"/JKS<|endoftext|>":10553,"/IC<|endoftext|>":10554,"되어야":10555,"▁사태가":10556,"음에":10557,"old":10558,"(199":10559,"▁절차":10560,"▁인스타그램":10561,"▁시급":10562,"▁예산을":10563,"ary":10564,"▁사고로":10565,"▁죽어":10566,"일드":10567,"7,":10568,"면이":10569,"▁퍼포먼":10570,"▁본인도":10571,"▁성추":10572,"▁98":10573,"▁イ":10574,"-00007":10575,"-00015":10576,"▁이쪽은":10577,"인<|endoftext|>":10578,"▁클린턴":10579,"편에":10580,"▁안정적인":10581,"산,":10582,"▁국민이":10583,"out":10584,"▁올라온":10585,"▁작품이":10586,"레이터":10587,"▁사용되는":10588,"▁정수":10589,"▁가질":10590,"s,":10591,"▁대가":10592,"▁시즌을":10593,"주교":10594,"▁전인":10595,"▁비서실":10596,"▁1분":10597,"~<|endoftext|>":10598,"▁SC":10599,"▁방문한":10600,"▁불펜":10601,"대행":10602,"▁환승":10603,"▁지출":10604,"우지":10605,"▁드림":10606,"▁시민들이":10607,"▁우울":10608,"▁공익":10609,"▁임원":10610,"▁장례":10611,"▁부정적인":10612,"노스":10613,"니를":10614,"하자.":10615,"▁10분":10616,"▁공식적으로":10617,"▁둘러싸":10618,"▁동방":10619,"EM":10620,"▁가맹":10621,"준다.<|endoftext|>":10622,"▁안심":10623,"산에":10624,"▁이전의":10625,"▁목포":10626,"ace":10627,"▁학생들의":10628,"▁안타까":10629,"▁반대하는":10630,"▁연도":10631,"위와":10632,"▁힘입":10633,"▁단행":10634,"▁침묵":10635,"▁박지":10636,"다면서":10637,"▁생기는":10638,"위에서":10639,"▁아르헨":10640,"어리":10641,"▁1<|endoftext|>":10642,"▁장교":10643,"▁흥미":10644,"▁남성이":10645,"체험":10646,"▁도서":10647,"제작":10648,"추진":10649,"ding:":10650,"▁앞으로도":10651,"▁마법사":10652,"▁박스":10653,"▁종이":10654,"▁추정되는":10655,"등이":10656,"하가":10657,"▁화살":10658,"▁만다.":10659,"▁수천":10660,"▁지속적인":10661,"▁식의":10662,"을때":10663,"▁도덕":10664,"▁나타났":10665,"▁느끼는":10666,"▁뜻이다.":10667,"▁화를":10668,"▁소식이":10669,"▁처분":10670,"▁총기":10671,"-11":10672,"▁세계적인":10673,"▁자유롭게":10674,"▁나와서":10675,"▁이치":10676,"▁저지른":10677,"▁바란다\"고":10678,"▁20여":10679,"인한":10680,"▁부임":10681,"▁배정":10682,"▁긍정적인":10683,"▁진행하고":10684,"하자,":10685,"돌이":10686,"▁진행하는":10687,"포구":10688,"크스":10689,"▁수급":10690,"밀히":10691,"▁도중에":10692,"렸다고":10693,"▁발전을":10694,"▁갖게":10695,"▁많아서":10696,"▁남아있":10697,"▁움직이는":10698,"▁똑같":10699,"▁부지":10700,"▁곤란":10701,"졌지만":10702,"▁소프트웨어":10703,"사회의":10704,"▁나은":10705,"▁수준을":10706,"▁블러":10707,"▁이후,":10708,"트<|endoftext|>":10709,"▁라이프":10710,"▁이어졌다.":10711,"▁6,":10712,"▁더빙":10713,"▁미칠":10714,"▁피할":10715,"▁하였다.<|endoftext|>":10716,"▁스태":10717,"페이스":10718,"요한":10719,"ime":10720,"150":10721,"▁청소":10722,"하마":10723,"▁않는다고":10724,"▁발급":10725,"OL":10726,"속에":10727,"격으로":10728,"▁이익을":10729,"러시아":10730,"▁듯이":10731,"▁줄여":10732,"▁속으로":10733,"되게":10734,"▁폭로":10735,"▁Pl":10736,"▁소장":10737,"▁비판이":10738,"▁아쉬운":10739,"▁유지하고":10740,"▁후보자":10741,"'.":10742,"▁힘들어":10743,"▁특성을":10744,"▁높이는":10745,"▁것보다":10746,"▁2주":10747,"▁철회":10748,":30":10749,"▁다짐":10750,"▁낮추":10751,"▁\"유":10752,"▁78":10753,"▁실질적인":10754,"▁신화":10755,"▁유희":10756,"이었고":10757,"▁특이한":10758,"▁방출":10759,"▁매니저":10760,"에너지":10761,"▁깔끔":10762,"▁솔직":10763,"▁서울의":10764,"▁자꾸":10765,"료가":10766,"▁기소된":10767,"표가":10768,"되던":10769,"▁가이드":10770,"▁Com":10771,"▁타케":10772,"▁\"내가":10773,"습을":10774,"▁padding:":10775,"▁바가":10776,"▁주변의":10777,"순환":10778,"림이":10779,"▁식당":10780,"▁기사를":10781,"▁헌법재판":10782,"▁\"현재":10783,"▁날개":10784,"▁전신":10785,"▁빨라":10786,"▁한창":10787,"▁만든다.":10788,"시<|endoftext|>":10789,"▁아케":10790,"리에서":10791,"oul":10792,"a)":10793,"본을":10794,"▁아바":10795,"▁아파":10796,"▁스승":10797,"▁휘두":10798,"▁당연한":10799,"린의":10800,"▁유명하다.":10801,"▁놓은":10802,"▁외계":10803,"▁늘려":10804,"▁실버":10805,"▁(K":10806,"line":10807,"▁나란히":10808,"▁그들을":10809,"▁지향":10810,"▁잡혀":10811,"▁현장에":10812,"act":10813,"▁마이너":10814,"영상":10815,"▁고마":10816,"▁설치된":10817,"▁모색":10818,"▁재단":10819,"BM":10820,"▁등장했다.":10821,"▁NPC":10822,"민,":10823,"▁소셜":10824,"간다.<|endoftext|>":10825,"무가":10826,"▁2000년대":10827,"▁피를":10828,"?\"<|endoftext|>":10829,"여객":10830,"/JX<|endoftext|>":10831,"▁시대를":10832,"▁헤이":10833,"▁뇌물":10834,"▁3명":10835,"▁도주":10836,"-00014":10837,"▁임무를":10838,"▁언젠":10839,"▁진행할":10840,"O<|endoftext|>":10841,"▁과제":10842,"▁일명":10843,"TE":10844,"▁김지":10845,"설이":10846,"▁여당":10847,"▁태평양":10848,"▁세상에":10849,"▁타격을":10850,"의로":10851,"▁진행되는":10852,"▁있기에":10853,"▁모니터":10854,"▁관련이":10855,"▁중도":10856,"신청":10857,"▁영토":10858,"▁결과적으로":10859,"▁진행한다.":10860,"▁않았다는":10861,"▁し":10862,"▁인상을":10863,"▁부패":10864,"▁대상을":10865,"폭력":10866,"▁4회":10867,"▁후에도":10868,"▁전형적인":10869,"(W":10870,"▁튀어나":10871,"▁한진":10872,"님은":10873,"'고":10874,"었다\"고":10875,"▁랭킹":10876,"▁물려":10877,"▁감지":10878,"arg":10879,"▁리메이크":10880,"▁춘천":10881,"▁라이온":10882,"화하고":10883,"▁전파":10884,"재의":10885,"(6":10886,"▁간혹":10887,"▁리포니아":10888,"▁속의":10889,"▁인원":10890,"▁무작":10891,"금의":10892,"▁생각한다.":10893,"▁습득":10894,"▁좋게":10895,"▁화장품":10896,"▁막는":10897,"▁1인당":10898,"▁사람들도":10899,"▁사전에":10900,"▁플레":10901,"▁말레이시아":10902,"▁73":10903,"▁합니다.<|endoftext|>":10904,"다!<|endoftext|>":10905,"▁유리한":10906,"▁되도록":10907,"▁측근":10908,"▁바다.":10909,"▁체력을":10910,"▁좋겠":10911,"▁모를":10912,"버려":10913,"동과":10914,"▁것인가":10915,"▁대미지":10916,"▁0.5":10917,"▁강남구":10918,"▁기각":10919,"」<|endoftext|>":10920,"▁주제":10921,"▁신세계":10922,"▁상품을":10923,"인들":10924,"▁않았고,":10925,"▁대사를":10926,"▁싸움을":10927,"으러":10928,"▁4시":10929,"희의":10930,"▁심하게":10931,"▁정도.<|endoftext|>":10932,"▁스프링":10933,"▁배우는":10934,"▁치유":10935,"▁시민단체":10936,"▁서민":10937,"▁아이스":10938,"▁타자":10939,"▁9CT_00":10940,"검을":10941,"▁알렉산":10942,"계로":10943,"▁감각":10944,"110":10945,"포럼":10946,"▁소지":10947,"▁앞장":10948,"▁정통":10949,"▁열쇠":10950,"s)":10951,"▁지리":10952,"▁시작하는":10953,"▁억제":10954,"▁말하고":10955,"▁하나도":10956,"(18":10957,"-5":10958,"준비":10959,"▁서명":10960,"▁다음에":10961,"ky":10962,"▁의회":10963,"근로":10964,"▁an":10965,"▁과거에":10966,"▁대표와":10967,"▁품질":10968,"미네":10969,"▁즐거":10970,"ake":10971,"▁신중":10972,"▁승진":10973,"▁대회에서":10974,"▁있었지만,":10975,"▁결심":10976,"▁'최":10977,"재생":10978,"▁방에":10979,"-19":10980,"▁기지":10981,"인들을":10982,"카르":10983,"-00016":10984,"▁수련":10985,"▁초창":10986,"▁침입":10987,"▁집회":10988,"▁가능성":10989,"▁돼지":10990,"700":10991,"노의":10992,"▁당신의":10993,"민주주의":10994,"▁능력은":10995,"▁없었다.<|endoftext|>":10996,"▁부천":10997,"▁상황은":10998,"▁스타트":10999,"식,":11000,"▁방송에서":11001,"▁랭크":11002,"▁유저들이":11003,"▁철학":11004,"용차":11005,"코드":11006,"▁2억":11007,"▁6·":11008,"▁'수":11009,"▁일본에":11010,"---":11011,"▁않을까":11012,"▁거기다":11013,"▁203":11014,"▁부상으로":11015,"▁중국과":11016,"ae":11017,"정지":11018,"▁1986년":11019,"▁고기":11020,"▁1분기":11021,"▁정령":11022,"▁최소한":11023,"용은":11024,"▁\"제":11025,"▁명시":11026,"▁그림을":11027,"▁따뜻한":11028,"▁국경":11029,"▁학생들은":11030,"즈,":11031,"▁역사적":11032,"▁되었고":11033,"▁물론이고":11034,"협의회":11035,"▁마스크":11036,"▁140":11037,"츠의":11038,"▁그중":11039,"▁분야의":11040,"▁마리오":11041,"▁()은":11042,"▁말라":11043,"▁기원전":11044,"▁활용할":11045,"▁비대":11046,"루는":11047,"▁He":11048,"노가":11049,"▁것만":11050,"▁주민들이":11051,"TBC":11052,"B00":11053,"▁은하":11054,"▁기대한":11055,"노우":11056,"▁만나게":11057,"법의":11058,"통이":11059,"▁중의":11060,"▁오스트리아":11061,"스포":11062,"▁김병":11063,"티를":11064,"▁금호":11065,"색의":11066,"▁제작한":11067,"▁인접":11068,"나고":11069,"▁신성":11070,"▁차원의":11071,"었지만,":11072,"▁나라를":11073,"▁불어":11074,"▁내게":11075,"견을":11076,"▁뜻하는":11077,"▁갈등을":11078,"▁'지":11079,"▁남양":11080,"▁복잡한":11081,"▁위대한":11082,"▁초래":11083,"▁씨를":11084,"▁신앙":11085,"▁때에":11086,"운동을":11087,"▁높여":11088,"환은":11089,"▁속도로":11090,"▁특징이다.":11091,"▁극대":11092,"▁비교하면":11093,"팀을":11094,"▁대통령에게":11095,"▁서울중앙지검":11096,"플러스":11097,"▁협약":11098,"▁계획이":11099,"u.":11100,"▁\"국민":11101,"▁하필":11102,"▁챔피언십":11103,"ost":11104,"▁71":11105,"DB":11106,"m,":11107,"▁카를":11108,"▁면에서":11109,"▁부를":11110,"오리":11111,"▁영등":11112,"▁담고":11113,"▁승점":11114,"정신":11115,"다의":11116,"CTV":11117,"▁밝혀졌다.":11118,"대체":11119,"대장":11120,"▁과학기술":11121,"더스":11122,"▁중요하다.":11123,"https://":11124,"산화":11125,"회)":11126,"▁넣은":11127,"▁박성":11128,"이긴":11129,"거든":11130,"▁관계로":11131,"▁식사":11132,"▁안철수":11133,"할수":11134,"▁슬로":11135,"▁노부":11136,"위원회의":11137,"▁네이":11138,"▁OST":11139,"▁거둔":11140,"숙한":11141,"▁경찰청":11142,"▁정확하게":11143,"▁자문":11144,"오로":11145,"3)":11146,"▁2인":11147,"▁받았다.<|endoftext|>":11148,"▁면역":11149,"경찰서는":11150,"용의":11151,"▁부당":11152,"▁고통을":11153,"함은":11154,"▁4위":11155,"공이":11156,"준은":11157,"▁보라":11158,"▁야스":11159,"▁읽는":11160,"▁해주는":11161,"다시피":11162,"▁대치":11163,"공식":11164,"▁친구가":11165,"▁생길":11166,"스런":11167,"▁입장이":11168,"▁\"우리는":11169,"심은":11170,"▁단편":11171,"▁'보":11172,"▁즐기는":11173,"▁이념":11174,"더욱":11175,"브를":11176,"▁가졌다.":11177,"▁지자체":11178,"왔다.<|endoftext|>":11179,"▁화제가":11180,"▁등,":11181,"▁부러":11182,"▁당국":11183,"공화국":11184,"▁데이터를":11185,"▁등장한다.<|endoftext|>":11186,"▁촌":11187,"작전":11188,"’는":11189,"되었다고":11190,"▁면세":11191,"·경":11192,"·김":11193,"탄이":11194,"▁선보였다.":11195,"▁트렌":11196,"▁그러다":11197,"▁된다\"고":11198,"▁넘치는":11199,"▁외환":11200,"▁HD":11201,"왔던":11202,"iss":11203,"▁당내":11204,"점과":11205,"▁마도":11206,"▁마라":11207,"▁맛이":11208,"▁무상":11209,"집에":11210,"▁스키":11211,"면의":11212,"작은":11213,"▁추석":11214,"▁인물이":11215,"긴다.":11216,"▁분류:200":11217,"()가":11218,"운드를":11219,"이도":11220,"▁완벽하게":11221,"▁교육부":11222,"▁완전한":11223,"▁\"모":11224,"▁중복":11225,"론은":11226,"전기":11227,"던가":11228,"▁참고.<|endoftext|>":11229,"▁퇴직":11230,"▁뒤에서":11231,"▁줄었다.":11232,"▁영화의":11233,"면에서":11234,"▁지키는":11235,"▁background":11236,"▁분기":11237,"▁여수":11238,"반을":11239,"동맹":11240,"▁죽여":11241,"▁구체적으로":11242,"▁넘어서":11243,"보며":11244,"야,":11245,"▁치열한":11246,"▁기숙":11247,"▁불구속":11248,"▁주목을":11249,"▁되어서":11250,"▁2005":11251,"▁진실을":11252,"▁내리는":11253,"만원,":11254,"▁레전드":11255,"ish":11256,"▁성장을":11257,"되거나":11258,"▁8개":11259,"▁폭주":11260,"▁았다.":11261,".)<|endoftext|>":11262,"줘서":11263,"▁\"수":11264,"역은":11265,"▁경선":11266,"▁땅을":11267,"▁일로":11268,"1)":11269,"▁아서":11270,"▁건의":11271,"▁부장판":11272,"▁SK텔레콤":11273,"▁철수":11274,"▁구조를":11275,"구리":11276,"~10":11277,"▁캠페인":11278,"▁1기":11279,"층을":11280,"▁중국에서":11281,"▁be":11282,"▁잇따라":11283,"▁인종":11284,"처분":11285,"▁상하이":11286,"▁나왔다.<|endoftext|>":11287,"▁각자":11288,"▁니시":11289,"▁세계에":11290,"▁스피드":11291,"하우스":11292,"아리":11293,"환의":11294,"(I":11295,"/NP+":11296,"▁떨어졌다.":11297,"▁세포":11298,"▁분당":11299,"Lv":11300,"▁희귀":11301,"▁미츠":11302,"▁법조":11303,"▁'일":11304,"개요<|endoftext|>":11305,"스피":11306,"▁7,":11307,"to":11308,"스트는":11309,"감사":11310,"▁전세":11311,"습니까":11312,"▁4만":11313,"▁가운데,":11314,"두는":11315,"▁나갔":11316,"▁리듬":11317,"▁불참":11318,"하였으나":11319,"▁라이더":11320,"▁금방":11321,"▁아버지는":11322,"▁짓을":11323,"▁측의":11324,"▁5회":11325,"오와":11326,"▁4·":11327,"회관":11328,"▁힘입어":11329,"▁생겼다.":11330,"▁김광":11331,"추어":11332,"▁두려워":11333,"▁포트":11334,"▁인터뷰를":11335,"▁특별히":11336,"▁선도":11337,"▁파는":11338,"단에서":11339,"▁노동당":11340,"\"이라는":11341,"하늘":11342,"▁서식":11343,"되었을":11344,"▁바보":11345,"▁1985년":11346,"수)":11347,"▁권리":11348,"시장에서":11349,"▁내정":11350,"어버린":11351,"▁강동":11352,"▁요괴":11353,"▁뷰":11354,"▁800":11355,"AD":11356,"▁주류":11357,"▁됐다\"고":11358,"▁전체가":11359,"▁유의":11360,"▁시그":11361,"▁토끼":11362,"▁중부":11363,"▁나오면":11364,"▁싸울":11365,"▁럭":11366,"▁차이를":11367,"▁그쳤다.":11368,"ib":11369,"들과는":11370,"▁동쪽":11371,"▁설정이":11372,"▁잡기":11373,"▁위원장":11374,"▁강철":11375,"▁주둔":11376,"▁신흥":11377,"메가":11378,"서야":11379,"▁백악관":11380,"지기도":11381,"▁미스터":11382,"호에":11383,"▁79":11384,"▁재발":11385,"등한":11386,"제공":11387,"▁페스티벌":11388,"▁기다리고":11389,"▁전진":11390,"겠지만,":11391,"▁어그":11392,"▁못했던":11393,"▁어제":11394,"▁아트":11395,"들만":11396,"받침":11397,"작의":11398,"LL":11399,"▁진학":11400,"액의":11401,"나라의":11402,"▁담당하는":11403,"▁객관":11404,"사거리":11405,"▁베를":11406,"/VC":11407,"간담":11408,"▁군대":11409,"SK":11410,"▁정복":11411,"▁1시":11412,"ther":11413,"▁대충":11414,"orm":11415,"▁틀어":11416,"▁조사한":11417,"유예":11418,"▁간에":11419,"▁종전":11420,"도서관":11421,"▁선포":11422,"▁프랑스의":11423,"ile":11424,"▁여학생":11425,"▁날이":11426,"▁크리스마스":11427,"것은":11428,"할지":11429,"▁진심으로":11430,"▁콤보":11431,"▁이식":11432,"▁실시한":11433,"▁동굴":11434,"풀이":11435,"▁국가가":11436,"▁Me":11437,"▁160":11438,"ich":11439,"▁처럼":11440,"타이어":11441,"진핑":11442,"▁이외의":11443,"▁서류":11444,"▁건네":11445,"▁설문":11446,"▁정찰":11447,"▁전의":11448,"▁숨어":11449,"▁말하며":11450,"자로서":11451,"▁me":11452,"▁\"신":11453,"▁30대":11454,"ens":11455,"▁위탁":11456,"리조":11457,"▁진압":11458,"▁가공":11459,"▁소중한":11460,"▁미나":11461,"하기를":11462,"▁어디서":11463,"씨에":11464,"▁송파":11465,"▁무료로":11466,"학년도":11467,"리티컬":11468,"▁구사":11469,"▁공원":11470,"코,":11471,"업무":11472,"▁진행한":11473,"바의":11474,"▁이어지고":11475,"▁(A":11476,"▁중견":11477,"▁아메리카":11478,"OU":11479,"타,":11480,"▁순천":11481,"▁민중":11482,"▁に":11483,"▁수사에":11484,"▁현장을":11485,"▁이태":11486,"▁선수들의":11487,"▁재판에":11488,"▁튼":11489,"매를":11490,"▁방탄":11491,"▁)는":11492,"▁순으로":11493,"-00017":11494,"으니까":11495,"▁상의":11496,"교과":11497,"▁바퀴":11498,"▁싶다.":11499,"▁야간":11500,"▁장비를":11501,"▁새정치민주연합":11502,"산은":11503,"비트":11504,"키퍼":11505,"▁대안":11506,"▁가사":11507,"▁'김":11508,"▁슈팅":11509,"▁위치에":11510,"장치":11511,"-009":11512,"아와":11513,"▁편안":11514,"hy":11515,"▁목을":11516,"금으로":11517,"▁----":11518,"청소년":11519,"▁약간의":11520,"▁EP":11521,"▁소총":11522,"▁김일":11523,"▁한두":11524,"준의":11525,"▁어머니가":11526,"품이":11527,"▁7개":11528,"라이트":11529,"▁신청을":11530,"하길":11531,"감도":11532,"▁비극":11533,"▁어디까지나":11534,"▁깨달":11535,"(아":11536,"▁참석했다.":11537,"▁벗어":11538,"▁대부분은":11539,"능력을":11540,"az":11541,"▁번도":11542,"임은":11543,"조차도":11544,"▁후손":11545,"(J":11546,"▁카라":11547,"▁제주도":11548,"신교":11549,"두에":11550,"▁제네":11551,"▁2004":11552,"▁전쟁이":11553,"▁쿠로":11554,"▁보증":11555,"▁배터리":11556,"▁강도":11557,"한이":11558,"가시":11559,"▁96":11560,"▁구성되어":11561,"좋은":11562,"jpg|":11563,"▁AC":11564,"▁아카데미":11565,"▁\"너":11566,"▁부착":11567,"▁번호":11568,"▁사회주의":11569,"▁아머":11570,"▁쳤":11571,"▁이즈":11572,"▁김승":11573,"▁or":11574,"▁서쪽":11575,"▁조명":11576,"체제":11577,"▁영상이":11578,"▁신이":11579,"▁tvN":11580,"▁에너지를":11581,"▁잡았다.":11582,"▁말아":11583,"▁유령":11584,"▁크라":11585,"형,":11586,"oog":11587,"▁무기로":11588,"스트의":11589,"▁다스":11590,"자나":11591,"발이":11592,"▁조리":11593,"▁라운드":11594,"커가":11595,"▁본부":11596,"▁전동":11597,"▁규모로":11598,"▁자국":11599,"히/MAG<|endoftext|>":11600,"▁CEO":11601,"급으로":11602,"oh":11603,"천군":11604,"▁한데":11605,"▁트랜":11606,"준표":11607,"▁3층":11608,"▁유동":11609,"위안":11610,"▁이번이":11611,"▁국도":11612,"''":11613,"▁장치":11614,"▁시선을":11615,"▁시스템이":11616,"▁스캔":11617,"▁사진이":11618,"▁수술을":11619,"▁무엇을":11620,"-s":11621,"··":11622,"▁포르투갈":11623,"폰을":11624,"▁청와대는":11625,"모의":11626,"채널":11627,"▁기용":11628,"▁령":11629,"운을":11630,"야.":11631,"▁특화":11632,"타카":11633,"▁리가":11634,"▁쓴다.":11635,"▁일어났":11636,"약한":11637,"▁생각할":11638,"▁분류:199":11639,"▁못하면":11640,"020":11641,"▁구원":11642,"/EF+./SF<|endoftext|>":11643,"▁경력":11644,"order":11645,"하자.<|endoftext|>":11646,"▁(0":11647,"▁측면에서":11648,"-007":11649,"▁쌓아":11650,"▁토지":11651,"▁환자가":11652,"▁박영":11653,"주도":11654,"▁리스":11655,"▁첩":11656,"▁배를":11657,"아트":11658,"슈퍼":11659,"▁후계":11660,"▁갈등이":11661,"석에서":11662,"▁위험이":11663,"▁다리를":11664,"▁개척":11665,"▁2.5":11666,"▁마드리":11667,"▁인구가":11668,"~30":11669,"▁주사":11670,"▁정밀":11671,"▁촉구했다.":11672,"▁밝은":11673,"▁관료":11674,"▁장거리":11675,"▁것이고,":11676,"라에":11677,"▁당신은":11678,"▁시절의":11679,"▁유인":11680,"▁포장":11681,"~2":11682,"-002":11683,"▁대사가":11684,"▁없지만,":11685,"▁보낼":11686,"▁공격하는":11687,"▁죽음의":11688,"▁다카":11689,"행사":11690,"▁호응":11691,"당시":11692,"토는":11693,"▁등이다.":11694,"었으며,":11695,"▁이같은":11696,"▁大":11697,"▁노멀":11698,"머스":11699,"▁전격":11700,"▁선을":11701,"▁요구를":11702,"▁생각한":11703,"(오":11704,"▁청약":11705,"▁최강의":11706,"청문":11707,"▁니다.":11708,"▁아저":11709,"후의":11710,"▁5G":11711,"화폐":11712,"루션":11713,"트맨":11714,"▁나고":11715,"iver":11716,"▁바닥에":11717,"▁루트":11718,"▁클라우":11719,"▁유격":11720,"죠.":11721,"▁디젤":11722,"▁간신":11723,"▁태극":11724,"들인":11725,"▁보너스":11726,"▁공화당":11727,"▁태그":11728,"다'라는":11729,"▁천재":11730,"▁대표를":11731,"관계가":11732,"▁마땅":11733,"▁일어나는":11734,"회로":11735,"1로":11736,"▁구상":11737,"▁환상":11738,"중간":11739,"노트":11740,"▁は":11741,"▁참사":11742,"▁침략":11743,"▁분류:일본의":11744,"▁다는":11745,"복합":11746,"▁소닉":11747,"베이터":11748,"▁높다.<|endoftext|>":11749,"▁1990년대":11750,"▁분석이":11751,"▁간주":11752,"▁올스타":11753,"RE":11754,"▁로버트":11755,"▁사용이":11756,"▁바꾸는":11757,"▁제7":11758,"▁판문":11759,"▁KBS2":11760,"▁출신인":11761,"▁농민":11762,"건에":11763,"발의":11764,"으로만":11765,"▁되며":11766,"▁행복한":11767,"▁막대한":11768,"▁돌아와":11769,"하를":11770,"▁북측":11771,"▁》":11772,"막이":11773,"▁차량이":11774,"인치":11775,"▁82":11776,"미애":11777,"▁물에":11778,"▁머리가":11779,"▁한명":11780,"▁단위":11781,"협상":11782,"▁제조업":11783,"▁안드로이드":11784,"운의":11785,"▁어면":11786,"▁윤리":11787,"동에서":11788,"/EP+":11789,"▁수의":11790,"벌레":11791,"▁더더욱":11792,"▁GM":11793,"박물관":11794,"공장":11795,"▁문화를":11796,"▁끝났":11797,"▁여지가":11798,"▁논쟁":11799,"▁내비":11800,"▁통치":11801,"사무소":11802,"▁않았고":11803,"▁아들을":11804,"▁은근히":11805,"▁테이블":11806,"▁실력이":11807,"대원":11808,"▁\"최근":11809,"▁이례":11810,"▁보다는":11811,"▁신조":11812,"무장":11813,"다(...).<|endoftext|>":11814,"▁중고":11815,"▁전반적으로":11816,"▁경찰의":11817,"▁의정부":11818,"▁과시":11819,"▁당하는":11820,"▁간단한":11821,"▁번째로":11822,"▁나쁘지":11823,"장비":11824,"▁\"비":11825,"▁소감을":11826,"로서는":11827,"▁조회":11828,"▁변동":11829,"▁구제":11830,"▁미치":11831,"▁어둠의":11832,"▁자택":11833,"항에":11834,"▁1부":11835,"▁나지":11836,"필드":11837,"에이":11838,"년에":11839,"▁자제":11840,"▁2시간":11841,"▁취향":11842,"▁개발을":11843,"▁스킬이":11844,"▁5%":11845,"▁188":11846,"▁왜냐":11847,"▁류현":11848,"▁흐름을":11849,"▁불확":11850,"▁읽어":11851,"▁정보가":11852,"▁5분":11853,"▁되기도":11854,"권으로":11855,"▁몰라도":11856,"▁소속사":11857,"나가는":11858,"▁로그":11859,"▁수소":11860,"커스":11861,"▁되었다고":11862,"영을":11863,"▁종류의":11864,"훈이":11865,"가면":11866,"▁논리":11867,"▁상급":11868,"세,":11869,"▁동화":11870,"▁램":11871,"▁Le":11872,"▁올릴":11873,"▁끝날":11874,"▁일일":11875,"▁길게":11876,"▁먹은":11877,"LE":11878,"▁1,2":11879,"▁론":11880,"▁고등":11881,"▁일자리를":11882,"이어서":11883,"▁대성":11884,"▁얻었다.":11885,"▁필요하다는":11886,"/NNB+":11887,"역과":11888,"▁곳곳에":11889,"▁있을지":11890,"공연":11891,"▁안타를":11892,"석과":11893,"▁다닌":11894,"▁폭격":11895,"▁작품은":11896,"▁도착한":11897,"득점":11898,"▁이른다.":11899,"▁설명을":11900,"건은":11901,"티스":11902,"▁프로듀서":11903,"열을":11904,"▁퀴":11905,"▁선택할":11906,"창을":11907,"▁2번째":11908,"▁하향":11909,"▁후보의":11910,"ame":11911,"▁하트":11912,"▁고작":11913,"▁봤다.":11914,"요시":11915,"▁불린다.":11916,"▁유치원":11917,"▁경호":11918,"▁세우":11919,"(한국":11920,"▁시인":11921,"▁들어와":11922,"▁형식으로":11923,"▁뮤직비디오":11924,"▁선보인":11925,"▁의견도":11926,"▁1,000":11927,"▁성별":11928,"▁장을":11929,"▁압수수색":11930,"▁입건":11931,"▁는다.":11932,"훈은":11933,"▁CG":11934,"▁필요하다고":11935,"▁성사":11936,"냈다.<|endoftext|>":11937,"Hz":11938,"▁간다.":11939,"▁맞춘":11940,"▁풍부한":11941,"▁보인다\"고":11942,"▁김주":11943,"▁둘은":11944,"제국":11945,"▁제6":11946,"▁1라운드":11947,"/NR<|endoftext|>":11948,"▁비리":11949,"3<|endoftext|>":11950,"▁무서운":11951,"신으로":11952,"▁\"조":11953,"▁다음으로":11954,"▁'시":11955,"▁기록이":11956,"세요.<|endoftext|>":11957,"도미사일":11958,"반이":11959,"▁언덕":11960,"있어":11961,"반의":11962,"사단":11963,"▁2002":11964,"청에":11965,"▁부수":11966,"▁CCTV":11967,"▁자라":11968,"▁이미지가":11969,"문화재":11970,"마스터":11971,"▁급여":11972,"▁영화는":11973,"▁일주일":11974,"번이":11975,"▁당했다.":11976,"▁존재를":11977,"운전":11978,"▁1천":11979,"▁모터":11980,"였을":11981,"▁위성":11982,"허가":11983,"▁코미디":11984,"▁국제공항":11985,"▁잊지":11986,"게이":11987,"▁'국":11988,"드래":11989,"▁119":11990,"란을":11991,"▁고구려":11992,"ical":11993,"겁게":11994,"▁독재":11995,"▁1984년":11996,"백화점":11997,"▁비용이":11998,"광주":11999,"▁Con":12000,"렉시":12001,"▁이젠":12002,"▁저그":12003,"▁86":12004,"▁독점":12005,"·2":12006,"였기":12007,"▁집착":12008,"란이":12009,"▁LA":12010,"MA":12011,"▁사용하여":12012,"▁(이":12013,"▁스트리":12014,"▁현실을":12015,"▁근거로":12016,"▁환경을":12017,"▁오키":12018,"▁작중에서":12019,"터널":12020,"▁무시하고":12021,"▁넣는":12022,"만간":12023,"당했다.":12024,"▁측에":12025,"ax":12026,"마와":12027,"노이":12028,"wiki/":12029,"소방":12030,"www":12031,"▁문의":12032,"▁왕이":12033,"▁초록":12034,"ave":12035,"EFA":12036,"▁구해":12037,"참여":12038,"▁이사회":12039,"▁균형":12040,"▁양측":12041,"확인":12042,"▁국왕":12043,".15":12044,"은행이":12045,"▁디아":12046,"그룹은":12047,"▁중국에":12048,"▁관계자":12049,"▁지나지":12050,"비한":12051,"▁97":12052,"▁9CT_000":12053,"▁거울":12054,"MP":12055,"▁포탑":12056,"▁닛":12057,"▁경상북도":12058,"▁입국":12059,"든가":12060,"▁선거에서":12061,"▁마법을":12062,"▁판결을":12063,"위해":12064,"▁나오기":12065,"▁영장":12066,"▁정해":12067,"ance":12068,"▁마다":12069,"IG":12070,"▁정원":12071,"▁유전자":12072,"▁'정":12073,"▁이해할":12074,"▁지방자치단체":12075,"군으로":12076,"▁손흥":12077,"]<|endoftext|>":12078,"▁묻자":12079,"시설을":12080,"▁희망을":12081,"▁な":12082,"▁모인":12083,"▁기존에":12084,"▁팬덤":12085,"언이":12086,"ence":12087,"▁\"오늘":12088,"▁40%":12089,"▁대미지를":12090,"▁공룡":12091,"▁디스플레이":12092,"▁광복":12093,"츠를":12094,"▁기가":12095,"▁하차":12096,"▁크리티컬":12097,"\"를":12098,"▁유죄":12099,"르며":12100,"▁예정이다.<|endoftext|>":12101,"▁지형":12102,"▁걸맞":12103,"▁알아서":12104,"▁디자이너":12105,"▁일방적으로":12106,"▁상실":12107,"풍을":12108,"▁무지":12109,"▁유망":12110,"▁자랑하는":12111,"▁신도":12112,"작이":12113,"▁바이러":12114,"▁화력":12115,"센트":12116,"▁규모는":12117,"▁연사":12118,"주며":12119,"▁김준":12120,"▁타는":12121,"다나":12122,"▁수감":12123,"테이":12124,"▁없다면":12125,"▁가까워":12126,"▁출연해":12127,"▁출시된":12128,"▁끝으로":12129,"▁한계가":12130,"▁유재":12131,"인터넷":12132,"번,":12133,"▁영향이":12134,"▁다큐":12135,"▁1승":12136,"▁클레":12137,"▁일부는":12138,"▁THE":12139,"{{{":12140,"권도":12141,"▁어렵게":12142,"▁배운":12143,"스러워":12144,"VD":12145,"▁소규모":12146,"▁싫어하는":12147,"축제":12148,"처가":12149,"▁만만":12150,"▁안전한":12151,"▁약속을":12152,"▁에릭":12153,"▁높았다.":12154,"▁능력치":12155,"▁중대":12156,"보이":12157,"▁병력":12158,"▁외면":12159,"배상":12160,"고와":12161,"▁날카":12162,"▁가깝다.":12163,"▁처형":12164,"▁터져":12165,"학회":12166,"▁연루":12167,"▁(영":12168,"▁모스크":12169,"▁시카":12170,"7)":12171,"▁배가":12172,"작가":12173,"포로":12174,"▁침공":12175,"▁별개로":12176,"▁메리":12177,"야가":12178,"▁의원을":12179,"▁농협":12180,"ize":12181,"처는":12182,"▁'부":12183,"▁서서히":12184,"4)":12185,"-15":12186,"▁글이":12187,"▁보편":12188,"▁끔찍":12189,"▁건물을":12190,"가격":12191,"-00025":12192,"▁별명":12193,"▁빼고":12194,"▁사랑의":12195,"▁정체를":12196,"▁태국":12197,"▁캐릭터로":12198,",9":12199,"▁골키퍼":12200,"▁땅볼":12201,"▁오를":12202,"▁판정을":12203,"▁일으켜":12204,"▁by":12205,"▁DLC":12206,"▁()는":12207,"하루":12208,"▁팔을":12209,"▁대가로":12210,"▁배상":12211,"▁몰락":12212,"▁제출한":12213,"▁확충":12214,"츠가":12215,"ach":12216,"▁없으며":12217,"▁참모":12218,"이기에":12219,"선생":12220,"▁인디":12221,"▁웃음":12222,"▁용도로":12223,"라스틱":12224,"▁억울":12225,"▁바라는":12226,"▁BGM":12227,"▁북·미":12228,"▁회사가":12229,"▁진실":12230,"▁찾고":12231,"하우":12232,"▁하나씩":12233,"▁운송":12234,"▁원본":12235,"▁대목":12236,"다를":12237,"▁클래스":12238,"▁사용자":12239,"▁막장":12240,"▁생각한다\"고":12241,"렸다는":12242,"▁휘말":12243,"▁\"나는":12244,"▁답답":12245,"▁폼페이":12246,"▁입장이다.":12247,"▁걸리는":12248,"▁상태에":12249,"▁미국을":12250,"기소":12251,"▁막내":12252,"·보":12253,"▁사막":12254,"▁마산":12255,"▁WW":12256,"▁가족이":12257,"▁또다른":12258,"▁어리":12259,"▁협력을":12260,"▁복구":12261,"▁세븐":12262,"▁먹어":12263,"▁중국을":12264,"세와":12265,"리라":12266,"▁가르쳐":12267,"일반":12268,"쿠라":12269,"▁최하":12270,"▁정상회담을":12271,"▁점에":12272,"▁과도한":12273,"▁지는":12274,"선거구":12275,"▁소집":12276,"▁아픈":12277,"▁오류":12278,"▁포스터":12279,"▁진주":12280,"▁MAX":12281,"▁증가<|endoftext|>":12282,"사기":12283,"어에":12284,"▁개인정보":12285,"own":12286,"▁그러므로":12287,"~1":12288,"namu.":12289,"▁무적":12290,"▁보석":12291,"▁남겼다.":12292,"코와":12293,"▁직접적인":12294,"(10":12295,"▁3점":12296,"▁때문.<|endoftext|>":12297,"-00024":12298,"▁정의당":12299,"▁현직":12300,"▁멜로":12301,"▁커맨":12302,"▁않으며":12303,"▁야외":12304,"타나":12305,"▁복무":12306,"▁풀이된다.":12307,"▁'우":12308,"▁내장":12309,"▁()<|endoftext|>":12310,"/SN<|endoftext|>":12311,"▁병행":12312,"▁맞다.":12313,"▁나서는":12314,"▁합의를":12315,"▁차관":12316,"커를":12317,"▁밝혀진":12318,"▁오카":12319,"저스":12320,"▁사실이다.":12321,"▁국민연금":12322,"▁싸워":12323,"▁안타깝":12324,"먹을":12325,"▁한달":12326,"▁8CT_0007":12327,"namu.wiki/":12328,"▁시드":12329,"/JKB<|endoftext|>":12330,"▁힐러":12331,"▁어두운":12332,"삼진":12333,"론가":12334,"▁양자":12335,"▁그거":12336,"▁느끼고":12337,"▁추진하고":12338,"▁개발에":12339,"▁Sc":12340,"▁사업이":12341,"란의":12342,"닉스":12343,"▁과정에":12344,"▁재건축":12345,"리던":12346,"디는":12347,"’의":12348,"▁극장":12349,"▁거기서":12350,"▁무의":12351,"▁유아":12352,"일과":12353,"~7":12354,"생물":12355,"▁인하여":12356,"▁선수는":12357,"▁2003":12358,"▁그리고/MAJ<|endoftext|>":12359,"▁어마":12360,"▁달리,":12361,"▁이경":12362,"▁장성":12363,"이한":12364,"억원에":12365,"▁2.0":12366,"▁체감":12367,"▁클라":12368,"▁선수를":12369,"▁모조리":12370,"오지":12371,"▁항공기":12372,"▁한해":12373,"시피":12374,"▁혐오":12375,"▁출신으로":12376,"-00003":12377,"▁안고":12378,"▁참가한":12379,"▁89":12380,"▁조사에서":12381,"▁영향력을":12382,"▁경우에도":12383,"▁병역":12384,"▁JTBC":12385,"됐지만":12386,"체와":12387,"▁.3":12388,"▁본편":12389,"자(":12390,"▁81":12391,"▁뒷받침":12392,"▁연구원은":12393,"▁오랜만에":12394,"질랜드":12395,"▁풀려":12396,"▁발간":12397,"▁꼽힌다.":12398,"▁필요하다\"고":12399,"크라이나":12400,"▁출국":12401,"풍이":12402,"고기":12403,"▁사형":12404,"▁육상":12405,"▁러시아의":12406,"신과":12407,"교의":12408,"▁83":12409,"프와":12410,"▁0.3":12411,"라이브":12412,"▁해고":12413,"들보다":12414,"▁표현을":12415,"▁보내고":12416,"▁분할":12417,"플렉":12418,"160":12419,"▁게이지":12420,"▁특혜":12421,"▁존경":12422,"▁손잡":12423,"▁끌었다.":12424,"▁톤":12425,"▁원의":12426,"▁움직임을":12427,"▁이가":12428,"▁か":12429,"링이":12430,"▁1500":12431,"▁저런":12432,"교안":12433,"▁정확히는":12434,"문에서":12435,"▁이상은":12436,"▁미카":12437,"▁써야":12438,"▁다고":12439,"▁진행했다.":12440,"▁검찰의":12441,"믹스":12442,"때는":12443,"▁성공적으로":12444,"5)":12445,"▁IC":12446,"▁급격히":12447,"▁발라":12448,"▁페널":12449,"▁비하":12450,"결정":12451,"▁0.2":12452,"가?":12453,"▁아래로":12454,"사우":12455,"▁지키기":12456,"디의":12457,"▁원인을":12458,"원전":12459,"▁차트":12460,"▁무방":12461,"냐며":12462,"▁고스":12463,"▁빛의":12464,"▁만일":12465,"▁가격을":12466,"▁2의":12467,"▁う":12468,"▁패스트":12469,"계와":12470,"▁점,":12471,"클래":12472,"▁제안을":12473,"▁업종":12474,"중심":12475,"하진":12476,"▁딸을":12477,"▁꿈꾸":12478,"프,":12479,"▁한양":12480,"▁이어서":12481,"▁가담":12482,"▁5대":12483,"위원은":12484,"/EC+,/SP<|endoftext|>":12485,"▁아니고,":12486,"▁정한":12487,"신도시":12488,"▁최대의":12489,"였는데":12490,"▁귀찮":12491,"여명의":12492,"법과":12493,"▁수주":12494,"▁사찰":12495,"▁언론에":12496,"▁벤처":12497,"▁길어":12498,"▁방식이":12499,"▁죽일":12500,"럽게":12501,"전대":12502,"▁내외":12503,"▁벨기에":12504,"▁어린이집":12505,"▁숨겨진":12506,"▁총장":12507,"▁즐겨":12508,"▁정도를":12509,"6)":12510,"▁원활":12511,"▁아쿠":12512,"▁공동으로":12513,"▁주시":12514,"▁골목":12515,"폭탄":12516,"▁메이저리그":12517,"LG":12518,"▁창설":12519,"페라":12520,"▁매치":12521,"강을":12522,"기아":12523,"▁허락":12524,"▁위축":12525,"▁스톤":12526,"경기에":12527,"▁1982년":12528,"▁여섯":12529,"▁강행":12530,"번의":12531,"▁8년":12532,"▁전망이":12533,"▁첫날":12534,"화)":12535,"▁죄다":12536,"▁관리를":12537,"▁팬들에게":12538,"꺼번에":12539,"▁신뢰를":12540,"▁망가":12541,"▁생략":12542,"▁특기":12543,"▁들면":12544,"내에":12545,"▁아이들을":12546,"▁이원":12547,"▁내일":12548,"▁없으며,":12549,"로만":12550,"가에서":12551,"▁서울중앙지법":12552,"▁사람과":12553,"▁갔다.":12554,"▁Love":12555,"인트를":12556,"▁남기고":12557,"▁반성":12558,"▁대단히":12559,"▁1983년":12560,"ah":12561,"▁경매":12562,"▁제시한":12563,"ect":12564,"사실":12565,"코를":12566,"▁벌였다.":12567,"ET":12568,"▁후퇴":12569,"▁순환":12570,"▁휴식":12571,"애니":12572,"▁농담":12573,"▁나중":12574,"분으로":12575,"(제":12576,"▁비중은":12577,"▁얘기가":12578,"들<|endoftext|>":12579,"은행의":12580,"민을":12581,"조작":12582,"▁어렵다는":12583,"▁'세":12584,"월한":12585,"▁터치":12586,"▁탕":12587,"상담":12588,"▁자존":12589,"▁이전에는":12590,"▁보육":12591,"▁경쟁력을":12592,"과대학":12593,"▁강서":12594,"출연":12595,"0233":12596,"▁팀에":12597,"▁니콜":12598,"▁(F":12599,"▁군주":12600,"▁맞춤형":12601,"테랑":12602,"회복":12603,"▁신장":12604,"▁전망했다.":12605,"▁회의에서":12606,"▁되며,":12607,"▁시공":12608,"림의":12609,"▁키리":12610,"▁마왕":12611,"디지":12612,"▁들어올":12613,"했습니다.<|endoftext|>":12614,"OT":12615,"▁한꺼번에":12616,"▁법을":12617,"▁뒤에는":12618,"체육관광":12619,"열이":12620,"토와":12621,"국제공항":12622,"▁개량":12623,"▁우호":12624,"먹고":12625,"▁5CT_0016":12626,"▁올리고":12627,"▁고가":12628,"▁스타크래프트":12629,"▁올해의":12630,"▁식량":12631,"▁선택한":12632,"▁행사에":12633,"▁편지를":12634,"▁욕을":12635,"▁나나":12636,"▁메모":12637,"▁이곳에서":12638,"해줄":12639,"▁가만히":12640,"▁전함":12641,"받았":12642,"투수":12643,"▁읍":12644,"__04":12645,"살이":12646,"▁민주화":12647,"▁주가":12648,"버릴":12649,"▁자를":12650,"금지":12651,"는지는":12652,"하면서,":12653,"▁땅에":12654,"▁모양의":12655,"하다면":12656,"▁대다수":12657,"▁87":12658,"▁피격":12659,"카,":12660,"투스":12661,"▁운영을":12662,"통제":12663,"▁세르":12664,"▁마쳤다.":12665,"가게":12666,"▁학과":12667,"▁왕국":12668,"▁얻기":12669,"▁가벼운":12670,"▁말한다.<|endoftext|>":12671,"▁GT":12672,"▁시즈":12673,"▁짓는":12674,"▁계절":12675,"▁그해":12676,"▁AS":12677,".13":12678,"미로":12679,"▁게스트":12680,"▁CF":12681,"중이":12682,"▁결정적인":12683,"▁간신히":12684,"▁사마":12685,"도<|endoftext|>":12686,"▁대표적":12687,"▁후임":12688,"▁믿는":12689,"▁BTDO02":12690,"통은":12691,"▁아크":12692,"▁프랜":12693,"대한민국":12694,"▁BSDO02":12695,"라비아":12696,"▁프리미어":12697,"▁92":12698,"▁지혜":12699,"▁국가안보":12700,"▁확인한":12701,"▁5CT_0017":12702,"GB":12703,"/VCP+":12704,"▁SD":12705,"▁금감":12706,"태평양":12707,"▁로맨":12708,"▁대표적으로":12709,"▁스티븐":12710,"▁탈북":12711,"▁병원에":12712,"▁명문":12713,"련의":12714,"안과":12715,"▁공수":12716,"▁부장":12717,"학,":12718,"당,":12719,"▁원장은":12720,"▁조약":12721,"▁차지하고":12722,"▁코어":12723,"▁준다.<|endoftext|>":12724,"▁개를":12725,"ann":12726,"▁당국은":12727,"무는":12728,"▁감상":12729,"▁기간이":12730,"▁누구도":12731,"▁자체의":12732,"▁일어날":12733,"▁기분이":12734,"▁My":12735,"▁팔아":12736,"▁성폭력":12737,"▁이순":12738,"▁소개했다.":12739,"▁유나이티드":12740,"▁북한을":12741,"▁의미한다.":12742,"싸움":12743,"교육을":12744,"되는데":12745,"▁내수":12746,"▁초보":12747,"부채":12748,"▁저주":12749,"▁지도자":12750,"틀랜드":12751,"되었다는":12752,"▁순서":12753,"▁원자력":12754,"변호":12755,"▁가지는":12756,"▁권한을":12757,"부인":12758,"이<|endoftext|>":12759,"▁불평":12760,"▁아테":12761,"▁정상적인":12762,"▁못했다.<|endoftext|>":12763,"▁학교에서":12764,"▁오피스텔":12765,"▁두루":12766,"층에":12767,"위원회에":12768,"▁임상":12769,"카페":12770,"▁게임에서":12771,"▁1%":12772,"▁자발":12773,"값이":12774,"미르":12775,"다)":12776,"a<|endoftext|>":12777,"▁높고":12778,"▁토요일":12779,"▁메타":12780,"▁에르":12781,"사법":12782,"합을":12783,"차(":12784,"▁들어간다.":12785,"A0233":12786,"▁정유":12787,"GA":12788,"농구":12789,"▁헌터":12790,"-00028":12791,"▁좋아할":12792,"-00029":12793,"▁천천":12794,"▁놓여":12795,"▁왕의":12796,"▁학생이":12797,"▁비즈니스":12798,"나무위키":12799,"만원으로":12800,"냐?":12801,"▁우려를":12802,"▁전수":12803,"▁자의":12804,"▁상주":12805,"▁SKT":12806,"전시":12807,"▁감동":12808,"코<|endoftext|>":12809,"▁파크":12810,"▁할지":12811,"▁도저히":12812,"경찰서":12813,"으려는":12814,"▁인식이":12815,"방으로":12816,"▁치킨":12817,"▁있느냐":12818,"▁토마":12819,"▁안산":12820,"▁\"박":12821,"▁검거":12822,"▁아이콘":12823,"30분":12824,"화<|endoftext|>":12825,"▁구하기":12826,"▁입찰":12827,"미<|endoftext|>":12828,"▁'동":12829,"eat.":12830,"▁들어오는":12831,"▁분류:198":12832,"사관":12833,"▁벌이는":12834,"▁해수":12835,"양은":12836,"▁다이어":12837,"뉴얼":12838,"객이":12839,"발로":12840,"경,":12841,"▁감수":12842,"▁유성":12843,"주의를":12844,"▁해임":12845,"카운":12846,"▁침몰":12847,"▁데이비드":12848,"JO":12849,"▁시진핑":12850,"った":12851,"▁작곡가":12852,"피안타":12853,"되지만":12854,"▁작가는":12855,"▁저렴한":12856,"▁계획\"이라고":12857,"▁누군가":12858,"▁배후":12859,"자연":12860,"▁포털":12861,"▁들어선":12862,"▁사장이":12863,"▁높였다.":12864,"▁3~4":12865,"필더":12866,"▁키우":12867,"하는게":12868,"▁머리에":12869,"▁옹호":12870,"▁시설을":12871,"▁시내버스":12872,"▁아티스트":12873,"인데도":12874,"메르":12875,"▁잠수함":12876,"▁죽고":12877,"린은":12878,"▁'모":12879,"▁남한":12880,"▁알리는":12881,"▁하계":12882,"하듯":12883,"▁\"시":12884,"▁.2":12885,"▁스위스":12886,"▁+1":12887,"운용":12888,"▁책은":12889,"▁듯하다.<|endoftext|>":12890,"▁반사":12891,"▁해리":12892,"▁강연":12893,"▁국내에":12894,"▁최적":12895,"태가":12896,"▁전기차":12897,"▁해피":12898,"듯한":12899,"▁설립된":12900,"▁보너":12901,"▁랜드":12902,"▁미국인":12903,"▁걸그룹":12904,"▁시중":12905,"▁더/MAG<|endoftext|>":12906,"▁)은":12907,"▁비례대표":12908,"▁추산":12909,"▁군의":12910,"▁어려움":12911,"▁6회":12912,"▁초중":12913,"▁기사가":12914,"▁전락":12915,"F02":12916,"▁서울에서":12917,"▁데에":12918,"▁구경":12919,"▁칼을":12920,"협약":12921,"▁가문의":12922,"▁없는데":12923,"▁성격을":12924,"▁맞대":12925,"▁얻게":12926,"▁늘어날":12927,"▁여기는":12928,"갔다.<|endoftext|>":12929,"용품":12930,"▁자금을":12931,"방은":12932,"▁인질":12933,"▁장점이":12934,"▁당분간":12935,"▁서울시는":12936,"하자마자":12937,"기관의":12938,"▁'강":12939,"워즈":12940,"▁카와":12941,"것으로":12942,"▁과목":12943,"명에서":12944,"▁동행":12945,")라는":12946,"▁이화":12947,"▁병력을":12948,"언론":12949,"▁발매된":12950,"임대":12951,"▁결정했다.":12952,"▁우익":12953,"▁사업은":12954,"▁한반":12955,"▁직원이":12956,"▁시정":12957,"▁나라가":12958,"더러":12959,"▁모모":12960,"▁다이아몬":12961,"'인":12962,"▁이어져":12963,"▁감추":12964,"됐다\"고":12965,"배가":12966,"▁적당히":12967,"▁됐다.<|endoftext|>":12968,"▁어지간":12969,"파는":12970,"▁5위":12971,"▁감축":12972,"oll":12973,"▁직전에":12974,"쳐서":12975,"▁계열사":12976,"▁세이브":12977,"▁속하는":12978,"산으로":12979,"▁레알":12980,"▁감독을":12981,"이었다는":12982,"▁신생":12983,"▁조만간":12984,"8)":12985,"▁공화국":12986,"▁창단":12987,"▁자신들이":12988,"구간":12989,"▁그러다가":12990,"대비":12991,"▁위해선":12992,"▁시계":12993,"▁SR":12994,"▁지키고":12995,"▁비율은":12996,"▁700":12997,"▁혈액":12998,"기(":12999,"▁6CT_0051":13000,"마켓":13001,"▁열릴":13002,"▁시작할":13003,"▁냉장":13004,"▁맛을":13005,"▁안동":13006,"▁개장":13007,"▁쪽에":13008,"추가":13009,"▁리더십":13010,"▁의해서":13011,"▁게임에":13012,"))<|endoftext|>":13013,"자본":13014,"▁94":13015,"▁1979년":13016,"▁당부했다.":13017,"▁성명을":13018,"▁잘라":13019,"▁일부가":13020,"▁지뢰":13021,"▁전력을":13022,"▁구별":13023,"되는데,":13024,"▁막고":13025,"작으로":13026,"전차":13027,"▁싸운":13028,"되어서":13029,"▁인근에":13030,"▁기자들과":13031,"▁주인공은":13032,"▁돌아가는":13033,"자료를":13034,"무성":13035,"▁통하여":13036,"▁주인공의":13037,"기금":13038,"▁입사":13039,"병의":13040,"▁기획재정부":13041,"▁드라":13042,"▁어머니는":13043,"벽을":13044,"▁미네":13045,"▁IM":13046,"▁당첨":13047,"▁주민들의":13048,"▁대조":13049,"커의":13050,"투어":13051,"▁대피":13052,"▁싼":13053,"-00026":13054,"▁지고":13055,"기나":13056,"▁이씨는":13057,"저우":13058,"IVE":13059,"▁모델로":13060,"교수":13061,"▁세웠다.":13062,"▁수준에":13063,"CG":13064,"곳이":13065,"▁'소":13066,"▁권유":13067,"▁의장":13068,"▁예로":13069,"▁일본인":13070,"180":13071,"▁1981년":13072,"▁조국":13073,"▁이윤":13074,"▁귀여운":13075,"억원이":13076,"▁대단한":13077,"▁각본":13078,"▁뱅":13079,"미지":13080,"▁기간에":13081,"▁'한국":13082,"dddddd":13083,"기)":13084,"▁외곽":13085,"산과":13086,"▁정책에":13087,"어.<|endoftext|>":13088,"세스":13089,"파이어":13090,"▁보충":13091,"분석":13092,"면으로":13093,"PM":13094,"▁교통사고":13095,"▁이인":13096,"▁권력을":13097,"8,":13098,"▁바람직":13099,"》의":13100,"▁수험":13101,"▁각각의":13102,"네스":13103,"밀리":13104,".17":13105,"하지도":13106,"▁2명이":13107,"▁매번":13108,"▁발탁":13109,"워치":13110,"▁BMW":13111,"전선":13112,"▁지역으로":13113,"▁확인하고":13114,"보지":13115,"▁BTBE02":13116,"▁BSBE02":13117,"▁강화를":13118,"ower":13119,"▁음원":13120,"▁학교를":13121,"▁(https://":13122,"경기를":13123,"▁아르바":13124,"▁시골":13125,"▁goog":13126,"▁때문이라고":13127,"▁사회에":13128,"▁시절부터":13129,"▁논의를":13130,"▁어딘":13131,"▁한은":13132,"▁참여할":13133,"▁나빠":13134,"▁대학원":13135,"두로":13136,"(...).":13137,"▁여론이":13138,"sh":13139,"▁매직":13140,"▁외의":13141,"▁면제":13142,"▁3<|endoftext|>":13143,"▁요소가":13144,"▁작사":13145,"▁날아가":13146,"▁가기":13147,"▁범위가":13148,"▁평이":13149,"▁존재가":13150,"-16":13151,"▁베를린":13152,"▁(P":13153,"▁파울":13154,"▁국세":13155,"▁지점":13156,"▁아름다":13157,"▁조용히":13158,"▁멤버들이":13159,"▁바에":13160,"▁교섭":13161,"▁기억이":13162,"X+":13163,"▁나이에":13164,"▁리스크":13165,"▁받으면":13166,"▁4:":13167,"▁문제와":13168,"▁전체적인":13169,"▁사태를":13170,"까?<|endoftext|>":13171,"▁룬":13172,"~9":13173,"▁font":13174,"▁성폭행":13175,"▁역량을":13176,"▁불량":13177,"▁마비":13178,"▁거래를":13179,"보에":13180,"▁몬스터를":13181,"/JKO<|endoftext|>":13182,"▁뛰어들":13183,"▁증폭":13184,"저가":13185,"곳의":13186,"▁드레":13187,"▁드론":13188,"▁정해진":13189,"▁소외":13190,"▁된다면":13191,"letag":13192,"▁googletag":13193,"▁빅토":13194,"▁뒤집어":13195,"▁93":13196,"▁쉽다.":13197,"▁결론을":13198,"▁조달":13199,"▁표정을":13200,"▁무사히":13201,"▁미루":13202,"상승":13203,"▁출생분류:":13204,"는지,":13205,"▁정차":13206,"\"을":13207,"▁재판을":13208,"▁메모리":13209,"ale":13210,"▁남는":13211,"디를":13212,"tle":13213,"케이션":13214,"▁펼쳤다.":13215,"▁겪는":13216,"▁던진":13217,"▁기름":13218,"센터를":13219,"▁합계":13220,"▁영화가":13221,"3000":13222,"CD":13223,"▁모델을":13224,"▁세계적으로":13225,"하였으며":13226,"▁고조":13227,"▁참여해":13228,"▁5년간":13229,"속을":13230,"(15":13231,"이동":13232,"▁짐작":13233,"소시":13234,"▁했으나,":13235,"▁역<|endoftext|>":13236,"▁이야기는":13237,"사에게":13238,"▁영원히":13239,"기본":13240,"▁승부를":13241,"ream":13242,"리스의":13243,"▁찾지":13244,"▁그런/MM<|endoftext|>":13245,"▁조항":13246,"▁오로지":13247,"되었는데,":13248,"▁미드필더":13249,"▁산림":13250,"▁보여주었다.":13251,"▁수차례":13252,"▁안티":13253,"IM":13254,"▁8CT_0022":13255,"장애인":13256,"마한":13257,"▁유연":13258,"▁터미널":13259,"▁대지":13260,"사스":13261,"▁이닝":13262,"▁유럽의":13263,"▁(B":13264,"▁숨겨":13265,"▁번에":13266,"문으로":13267,"청의":13268,"선<|endoftext|>":13269,"▁3번째":13270,"▁아즈":13271,"▁분산":13272,".jpg|":13273,"▁시절에":13274,"월드컵":13275,"▁박종":13276,"▁남자가":13277,"▁당시에":13278,"▁차세대":13279,"▁지표":13280,"▁중형":13281,"▁5·18":13282,"▁예정인":13283,"▁기대하고":13284,"▁신고를":13285,"▁줄을":13286,"▁사안":13287,"▁마그":13288,"▁과장":13289,"▁상반":13290,"초를":13291,"....<|endoftext|>":13292,"▁JR":13293,"하신":13294,"▁아이폰":13295,"▁사례를":13296,"골프":13297,"▁발효":13298,"러브":13299,"명에게":13300,"견이":13301,"마,":13302,"▁저소득":13303,"▁(...":13304,"▁납품":13305,"▁아버지를":13306,"▁불가능하다.":13307,"▁독립운동":13308,"▁건강보험":13309,"▁도내":13310,"ous":13311,"▁속한":13312,"들고":13313,"▁남을":13314,"▁일본군":13315,"▁서로의":13316,"▁처음에":13317,"▁{{{":13318,"취를":13319,"▁'성":13320,"▁검사를":13321,"▁약화":13322,"▁이의":13323,"▁경쟁력":13324,"▁장면은":13325,"미한":13326,"5<|endoftext|>":13327,"초간":13328,"히지":13329,"료로":13330,"▁있다며":13331,"▁귀환":13332,"▁않지만,":13333,"르를":13334,"부족":13335,"▁고무":13336,"▁한국에서는":13337,"▁차이는":13338,"▁편곡":13339,"▁폭염":13340,"ink":13341,"▁차가":13342,"체스터":13343,"▁두드러":13344,"▁투기":13345,"▁지역구":13346,"거를":13347,"▁서로를":13348,"▁파고":13349,"지나":13350,"▁확실하게":13351,"속도가":13352,"재정":13353,"민과":13354,"▁!":13355,"플래":13356,"▁15년":13357,"▁모습도":13358,"▁치명타":13359,"있고":13360,"▁아마존":13361,"비서":13362,"▁바른미래당":13363,"처벌":13364,"▁2라운드":13365,".14":13366,"▁만났다.":13367,"▁상륙":13368,"▁사용된":13369,")이다.":13370,"▁만큼,":13371,"▁좌절":13372,"▁밑에":13373,"EX":13374,"▁이긴":13375,"보증":13376,"▁알레":13377,"▁즉위":13378,"▁미래에":13379,"-03":13380,"아아":13381,"▁쌍둥이":13382,"und":13383,"▁발표된":13384,"▁숙박":13385,"▁김선":13386,"▁번의":13387,"▁제외하고는":13388,"▁신사":13389,"▁쇄":13390,"▁좋고":13391,"▁유혹":13392,"▁신축":13393,"▁브레":13394,"▁엘리트":13395,"▁비중을":13396,"▁이뤄질":13397,"▁보여주며":13398,"www.":13399,"▁것이며,":13400,"▁캡틴":13401,"▁관해":13402,"▁at":13403,"▁'더":13404,"▁돌아왔":13405,"▁끝나는":13406,"시에서":13407,"▁워크":13408,"▁질환":13409,"▁생각은":13410,"▁경상남도":13411,"▁바람이":13412,"여대":13413,"▁비유":13414,"▁코스피":13415,"▁\"새":13416,"▁설명이다.":13417,"▁맞을":13418,"두를":13419,"▁1세":13420,"▁지냈다.":13421,"▁세인트":13422,"▁지나가":13423,"▁sh":13424,"▁전역":13425,"▁박상":13426,"▁경쟁을":13427,"▁포럼":13428,"▁세력이":13429,"▁철저한":13430,"▁돌연":13431,"▁과정이":13432,"▁유학":13433,"▁체인":13434,"▁영남":13435,"▁'해":13436,"▁AM":13437,"a,":13438,"▁자이언츠":13439,"▁방북":13440,"/VX+":13441,"▁의식을":13442,"▁홍준표":13443,"▁진출을":13444,"nt":13445,"플라":13446,"▁코코":13447,"탄의":13448,"음은":13449,"▁이메":13450,"병으로":13451,"D00":13452,"희,":13453,"▁모습이다.":13454,"▁노선을":13455,"판으로":13456,"▁극히":13457,"보의":13458,"▁비타":13459,"고리":13460,"▁전멸":13461,"▁들어가면":13462,"십시오":13463,"▁터널":13464,".16":13465,"▁대비해":13466,"▁연속으로":13467,"▁조사에":13468,"▁디버":13469,"▁고도":13470,"▁수렴":13471,"▁논의가":13472,"▁권리를":13473,"▁이었다.":13474,"▁오르는":13475,"▁손상":13476,"▁알지":13477,"▁제공하고":13478,"렉션":13479,"▁공인":13480,"▁돌아다니":13481,"▁데는":13482,".19":13483,"▁끊어":13484,"▁\"일본":13485,"▁싶지":13486,"▁활동에":13487,"포스":13488,"▁안나":13489,"▁건강한":13490,"▁용서":13491,"하느냐":13492,"▁돌고":13493,"▁No.":13494,"/3":13495,"▁주된":13496,"▁우리/NP<|endoftext|>":13497,"렸고":13498,"▁타율":13499,"▁뒤인":13500,"▁BTAA000":13501,"▁BSAA000":13502,"▁이루어져":13503,"▁요약":13504,"▁Gr":13505,"▁세탁":13506,"▁이용해서":13507,"▁아까":13508,"▁제갈":13509,"▁이것도":13510,"▁나타난다.":13511,"▁경기장":13512,"▁여성을":13513,"까진":13514,"▁건드":13515,"▁레벨이":13516,"▁도구":13517,"동)":13518,"▁느린":13519,"▁승리로":13520,"규칙":13521,"원(":13522,"포의":13523,"▁카드의":13524,"▁인간을":13525,"▁수시로":13526,"▁또,":13527,"▁피터":13528,"▁언더":13529,"ose":13530,"▁법칙":13531,"▁포스":13532,"ool":13533,"▁하려고":13534,"명이다.":13535,"▁가능할":13536,"보장":13537,"▁싶다\"고":13538,"▁프레임":13539,"▁나다.":13540,"차이즈":13541,"▁수익을":13542,"줄이":13543,"▁스이":13544,"미에":13545,"▁재임":13546,"인가?":13547,"▁부가":13548,"▁기업들이":13549,"NG":13550,"▁맡게":13551,"▁가요":13552,"(O":13553,"▁전송":13554,"▁연다.":13555,"료는":13556,"▁사단":13557,"▁이현":13558,"슨은":13559,"JO04":13560,"분류:나무위키":13561,"▁탄약":13562,"▁안전을":13563,"▁태어났다.":13564,"ree":13565,"주군":13566,"학습":13567,"▁없도록":13568,"▁품목":13569,"네이":13570,"고지":13571,"▁실용":13572,"▁루이":13573,"▁3년간":13574,"▁감소했다.":13575,"집이":13576,"▁인프라":13577,"~20":13578,"▁막상":13579,"L<|endoftext|>":13580,"▁초기에는":13581,"▁border":13582,"▁당의":13583,"▁1970년":13584,"▁개선을":13585,"슬링":13586,"▁쓰인다.":13587,"▁2조":13588,"디자인":13589,"▁실은":13590,"의의":13591,"▁중국인":13592,"그룹의":13593,"▁믿을":13594,"▁삼각":13595,"▁빌딩":13596,"▁김씨":13597,"출을":13598,"현실":13599,"비서관":13600,"없다.":13601,"ai":13602,"번을":13603,"/h":13604,"적한":13605,"▁일요일":13606,"▁본질":13607,"▁외야":13608,"▁운항":13609,"▁커리어":13610,"▁예정된":13611,"▁연인":13612,"▁이곳에":13613,"▁신경을":13614,"빌딩":13615,"▁(3":13616,"▁수확":13617,"▁수단":13618,"▁정성":13619,"프라이":13620,"▁,#dddddd":13621,"▁사직":13622,"▁원유":13623,"▁1980년대":13624,"▁방한":13625,"▁늘어나는":13626,"▁셋째":13627,"▁놀라운":13628,"▁폭스":13629,"ork":13630,"▁캐릭터는":13631,"▁유가족":13632,"▁\"대통령":13633,"나기":13634,"▁대사는":13635,"▁1일부터":13636,"▁군단":13637,"▁가디언":13638,"▁해산":13639,"hani":13640,"급여":13641,"8000":13642,"▁그레":13643,"▁노리는":13644,"▁아이언":13645,"(7":13646,"-00013":13647,"▁결혼을":13648,"▁스페이스":13649,"▁마음으로":13650,"BJ":13651,"XX":13652,"▁부모님":13653,"》,":13654,"▁심화":13655,".18":13656,"▁드러내":13657,"키아":13658,"▁자랑한다.":13659,"수<|endoftext|>":13660,"코스":13661,"▁주제에":13662,"height=":13663,"▁4000":13664,"가<|endoftext|>":13665,"▁추진하는":13666,"\"\"":13667,"▁더이상":13668,"▁으면":13669,"비행":13670,"▁골라":13671,"▁판단했다.":13672,"tern":13673,"▁공격할":13674,"▁육아":13675,"▁기자간담":13676,"▁바르셀":13677,"▁유저가":13678,"▁페이스북에":13679,"▁정식으로":13680,"▁상하":13681,"▁구할":13682,"▁신경쓰":13683,"5%":13684,"▁주었다.":13685,"▁장남":13686,"▁문서를":13687,"▁웹사이트":13688,"▁죄송":13689,"이었기":13690,"▁기자회견에서":13691,"쾌한":13692,"▁팬들":13693,"·정":13694,"리(":13695,"▁엔터테인먼트":13696,"청와":13697,"▁검출":13698,"▁토요":13699,"▁집계됐다.":13700,"▁통화에서":13701,"▁근로자":13702,"6000":13703,"▁그림자":13704,"캠프":13705,"하고도":13706,"▁호의":13707,"강의":13708,"▁\"해":13709,"▁폼페이오":13710,"▁떨어지":13711,"▁나오면서":13712,"▁부친":13713,"▁미사":13714,"▁파업":13715,"게는":13716,"▁조롱":13717,"▁죽이는":13718,"▁전임":13719,"▁선행":13720,"▁전투기":13721,"년의":13722,"와도":13723,"▁무용":13724,"▁인사청문":13725,"놀이":13726,"▁이마트":13727,"▁준수":13728,"▁타락":13729,"▁방침을":13730,"▁엇갈":13731,"독립":13732,"▁UEFA":13733,"되었으나":13734,"▁에게":13735,"▁일간":13736,"▁이천":13737,"▁하시":13738,"▁카트":13739,"나서":13740,"▁헤비":13741,"▁청탁":13742,"물과":13743,"▁(D":13744,"over":13745,"▁단점이":13746,"네의":13747,"빌리티":13748,"▁나폴":13749,"▁많을":13750,"범이":13751,"▁면담":13752,"▁거세":13753,"▁키우는":13754,"▁Ex":13755,"▁쿠키":13756,"▁스텔":13757,"▁허나":13758,"▁지칭":13759,"학기":13760,"▁달한다.":13761,"▁병원으로":13762,"▁넘기":13763,"▁아이의":13764,"▁말하자면":13765,"▁이준":13766,"▁뉴질랜드":13767,"igh":13768,"▁의하여":13769,"▁도모":13770,"▁만루":13771,"온의":13772,"▁명품":13773,"공정":13774,"▁일각에서는":13775,"▁람":13776,"받는다.":13777,"▁집행유예":13778,"셔서":13779,"급이":13780,"▁지사는":13781,"▁휴가":13782,"▁-10":13783,"▁권장":13784,"▁투구":13785,"나라는":13786,"함으로":13787,"이었는데":13788,"▁흑인":13789,"▁개신교":13790,"주자":13791,"▁이들에게":13792,"▁감싸":13793,"▁24시간":13794,"▁즐기":13795,"▁부정적":13796,"▁공지":13797,"▁사카":13798,"▁회사를":13799,"▁은폐":13800,"▁서초구":13801,"'t":13802,"pp":13803,"hani.co.kr":13804,"▁\"문":13805,"▁보여줬다.":13806,"▁겪은":13807,"▁효과로":13808,"▁지붕":13809,"▁호위":13810,"▁측에서":13811,"▁ch":13812,"▁좀더":13813,"▁얘기다.":13814,"▁코스닥":13815,"하하":13816,"▁차지한":13817,"▁구형":13818,"▁초점을":13819,"▁나머지는":13820,"▁태양광":13821,"▁박진":13822,"▁벌어지는":13823,"▁이번엔":13824,"ase":13825,"▁천천히":13826,"▁3명이":13827,"▁사라져":13828,"블로":13829,"크,":13830,"▁LG전":13831,"▁동아시아":13832,"▁제목의":13833,"▁대통령에":13834,"amp":13835,"▁25%":13836,"▁회사는":13837,"▁찾아온":13838,"▁지나면":13839,"▁회상":13840,"센터는":13841,"▁구역":13842,"▁올바른":13843,"▁30여":13844,"초<|endoftext|>":13845,"▁상용":13846,"즈니":13847,"▁루이스":13848,"▁민주노총":13849,"▁앞세워":13850,"▁인물이다.":13851,"과거":13852,"뮤직":13853,"▁이고":13854,"▁보이지만":13855,"▁역사가":13856,"▁프리큐":13857,"▁KO":13858,"▁빛이":13859,"버드":13860,"▁구속영장을":13861,"▁라틴":13862,"▁정권의":13863,"▁지적도":13864,"▁と":13865,"원인":13866,"▁본회의":13867,"농협":13868,"칭을":13869,"▁우크라이나":13870,"한데":13871,"스페":13872,"!!<|endoftext|>":13873,"크와":13874,"▁브라운":13875,"▁어째서":13876,"별로는":13877,"문과":13878,"()는":13879,"▁조건이":13880,"▁'도":13881,"▁재검":13882,"▁186":13883,"▁7회":13884,"▁여성은":13885,"냐\"고":13886,"▁국적":13887,"▁진행되고":13888,"▁사회를":13889,"독한":13890,"었으며":13891,"▁게임은":13892,"교도":13893,"-00027":13894,"본부는":13895,"▁5천":13896,"▁말라고":13897,"▁조건으로":13898,"▁비로소":13899,"감으로":13900,"▁나타내는":13901,"▁실수로":13902,"▁나눈":13903,"▁진행될":13904,"▁가죽":13905,"세요.":13906,"▁국회에":13907,"▁갤러리":13908,"▁플라스틱":13909,"▁활동이":13910,"테러":13911,"▁유지하는":13912,"▁inline":13913,"▁의상":13914,"&D":13915,"아키":13916,"▁도끼":13917,"지상":13918,"▁행정부":13919,"▁표명":13920,"▁사귀":13921,"▁쓰여":13922,"▁루시":13923,"▁춤을":13924,"신에":13925,"▁지원이":13926,"▁미국,":13927,"▁상징하는":13928,"▁살펴보면":13929,"▁면이":13930,"▁식민지":13931,"▁쇼핑몰":13932,"레가":13933,"▁보이스":13934,"▁아이들":13935,"▁교과서":13936,"▁떨어질":13937,"▁답이":13938,"▁부분에서":13939,"▁전망된다.":13940,"▁크림":13941,"▁승차":13942,"▁트레이드":13943,"▁비슷하다.":13944,".20":13945,"자이":13946,"▁어마어":13947,"▁my":13948,"▁않다고":13949,"▁상기":13950,"변을":13951,"▁응용":13952,"쳤다.<|endoftext|>":13953,"▁죽이고":13954,"▁딸이":13955,"공무원":13956,"본다.":13957,"미노":13958,"▁적힌":13959,"익을":13960,"▁유적":13961,"▁요청했다.":13962,"▁한번에":13963,"▁것들이":13964,"▁선수로":13965,"▁분야에":13966,"▁포수":13967,"▁피로":13968,"▁합작":13969,"▁12시":13970,"차게":13971,"▁무선":13972,"▁부시":13973,"▁참여했다.":13974,"▁받았다고":13975,"▁'노":13976,"▁주장하고":13977,"▁초반에는":13978,"▁시를":13979,"▁연쇄":13980,"박을":13981,"▁면허":13982,"▁직원들이":13983,"퍼런":13984,"▁추가바람":13985,"▁초등학생":13986,"▁불확실":13987,"▁유포":13988,"▁네오":13989,"▁유럽연합":13990,"집행":13991,"▁리스트":13992,"▁요구한":13993,"▁인물로":13994,"▁구로":13995,"▁의원과":13996,"▁포함되어":13997,"쉽게":13998,"▁노리":13999,"EB":14000,"▁Or":14001,"▁막판":14002,"▁았":14003,"▁모습에":14004,"▁8,":14005,"▁좋았":14006,"▁별도":14007,"▁시민들의":14008,"▁무거운":14009,"다\"라는":14010,"시간에":14011,"▁너의":14012,"맨이":14013,"board":14014,"▁1.2":14015,"▁전승":14016,"▁한마디로":14017,"▁군사적":14018,"▁고시":14019,"▁마신":14020,"▁8회":14021,"수출":14022,"▁패스":14023,"▁눈앞":14024,"릭스":14025,"▁기를":14026,"ush":14027,"▁보고서를":14028,"▁아래에":14029,"▁왕자":14030,"▁국산":14031,"▁환자의":14032,"▁뜻이":14033,"▁물류":14034,"▁た":14035,"(f":14036,"됐고":14037,"▁하나,":14038,"▁최소화":14039,"회계":14040,"▁전제":14041,"▁활동하고":14042,"▁해결을":14043,"엔터테인먼트":14044,"9,":14045,"▁wh":14046,"▁입지":14047,"▁점심":14048,"▁지원할":14049,"▁공간이":14050,"▁임진":14051,"▁낮다.":14052,"▁구름":14053,"▁이진":14054,"▁해결할":14055,"▁달리는":14056,"▁경제가":14057,"▁MF":14058,"▁상한":14059,"▁학력":14060,"▁더구나":14061,"▁맞으면":14062,"▁대동":14063,"▁수직":14064,"빨리":14065,"▁가리지":14066,"190":14067,"▁집필":14068,"▁판단을":14069,"▁등장하지":14070,"▁형태를":14071,"▁모았다.":14072,"▁선택을":14073,"▁철강":14074,"년이":14075,"개선":14076,"▁사회복지":14077,"▁가족을":14078,"▁총리의":14079,"이자,":14080,"마치":14081,"▁입는":14082,"▁연수":14083,"▁스턴":14084,"▁수상한":14085,"▁놀이":14086,"▁시위를":14087,"▁키가":14088,"▁모두를":14089,"▁걸릴":14090,"▁내릴":14091,"기'":14092,"▁컨설":14093,"▁15%":14094,"▁나서야":14095,"▁20분":14096,"▁전라남도":14097,"▁업그레이":14098,"ms":14099,"▁버프를":14100,"▁드럼":14101,"▁사살":14102,"▁무승":14103,"▁간편":14104,"▁A씨가":14105,"▁광명":14106,"▁지역이":14107,"말이":14108,"▁주저":14109,"▁군산":14110,"▁170":14111,"▁총알":14112,"▁맥주":14113,"ike":14114,"▁병원에서":14115,"▁발렌":14116,"▁내달":14117,"▁밸런스":14118,"▁시청률":14119,"▁사항은":14120,"나<|endoftext|>":14121,"▁주축":14122,"였지만,":14123,"▁휴대폰":14124,"▁행사가":14125,"▁추종":14126,"▁머리카":14127,"▁피가":14128,"브로":14129,"▁거는":14130,"▁콘셉":14131,"00<|endoftext|>":14132,"▁%":14133,"창조":14134,"▁자폭":14135,"▁누르면":14136,"▁(198":14137,"▁오면":14138,"/MAG":14139,"▁화해":14140,"으면서도":14141,"▁제공할":14142,"철이":14143,"▁개관":14144,"▁8CT_0025":14145,"▁중지":14146,"▁Fl":14147,"▁Be":14148,"·북":14149,"▁프로필":14150,"▁콜로":14151,"▁We":14152,"▁총장은":14153,"▁공정거래":14154,"▁그랑":14155,"▁배송":14156,"맨의":14157,"▁모양새":14158,"▁함께하는":14159,"▁태도":14160,"시장의":14161,"▁언급했다.":14162,"박이":14163,"사들은":14164,"▁숙련":14165,"▁이내에":14166,"▁했다\"며":14167,"▁호평을":14168,"▁범위를":14169,"▁일본을":14170,"▁고쳐":14171,"▁니코":14172,"-17":14173,"▁조연":14174,"▁박원":14175,"▁새해":14176,"▁우회":14177,"▁크기가":14178,"▁지냈":14179,"▁스타디움":14180,"메라":14181,"▁짓고":14182,"▁억지로":14183,"▁고립":14184,"▁납득":14185,"▁판정이":14186,"집에서":14187,"▁되었을":14188,"타니":14189,"▁정부를":14190,"▁않으며,":14191,"요금":14192,"▁캐논":14193,"기업의":14194,"▁청와대가":14195,"▁이해가":14196,"▁무섭":14197,"ruby(,":14198,"▁기업에":14199,"▁아직까지":14200,"▁불렀다.":14201,"▁\"인":14202,"▁당하고":14203,"▁드라이버":14204,"였는데,":14205,"볼넷":14206,"▁187":14207,"▁디자인을":14208,"-S":14209,"▁8CT_0039":14210,"▁기간을":14211,"▁\"이런":14212,"▁피의자":14213,"(영":14214,"▁주민들은":14215,"▁들여다":14216,"1000":14217,"▁고,":14218,"개인":14219,"ash":14220,"리케이션":14221,"시장이":14222,"▁파생":14223,"▁결정할":14224,"▁ん":14225,"▁청춘":14226,"▁좋다고":14227,"▁그러던":14228,"▁위원장의":14229,"보병":14230,"▁이유다.":14231,"▁이번에도":14232,"argin":14233,"▁몰고":14234,"▁보였다.<|endoftext|>":14235,"▁주어진":14236,"▁조율":14237,"▁마음의":14238,"▁곡이":14239,"▁도약":14240,"▁의지가":14241,"▁개체":14242,"▁후반에":14243,"▁Pr":14244,"▁촉진":14245,"’에":14246,"리바":14247,"▁모의":14248,"▁크지":14249,"매치":14250,"루,":14251,"됐을":14252,"▁주자":14253,"드래곤":14254,"▁성매매":14255,"▁착공":14256,"4000":14257,"▁있어,":14258,"▁8CT_0020":14259,"▁안녕":14260,"▁노력이":14261,"령의":14262,"▁토너":14263,"-K":14264,"▁경우엔":14265,"콜릿":14266,"지노":14267,"▁실태":14268,"▁또/MAG<|endoftext|>":14269,"▁같지만":14270,"▁김명":14271,"▁10명":14272,"▁공백":14273,"정책을":14274,"▁존재한다.<|endoftext|>":14275,"▁빛나는":14276,"남부":14277,"▁예정\"이라고":14278,"▁이다.<|endoftext|>":14279,"▁3억":14280,"▁실책":14281,"▁문명":14282,"▁정보통신":14283,"TS":14284,"▁못했":14285,"팩트":14286,"▁지방의":14287,"▁2천":14288,"▁스코어":14289,"▁반해":14290,"▁서둘러":14291,"▁정우":14292,"▁생방송":14293,"▁UN":14294,"저의":14295,"수지":14296,"▁소문이":14297,"제재":14298,"량과":14299,"▁임직원":14300,"▁나누고":14301,"▁구리":14302,"▁블레이":14303,"▁것이고":14304,"▁성적이":14305,"▁사용하기":14306,"속이":14307,"▁지시를":14308,"▁중이다.<|endoftext|>":14309,"▁마블":14310,"▁아틀":14311,"▁이세":14312,"시스코":14313,"인지,":14314,"▁평을":14315,"지던":14316,"ize:":14317,"▁사양":14318,"▁\"주":14319,"학부":14320,"▁제재를":14321,"▁하겠다\"고":14322,"▁연동":14323,"▁간단히":14324,"▁기기":14325,"▁상생":14326,"스틱":14327,"인들에게":14328,"▁유지할":14329,"250":14330,"렸지만":14331,"▁것이기":14332,"▁실패한":14333,"·전":14334,"▁조세":14335,"▁실질적으로":14336,"▁특히,":14337,"▁박정희":14338,"각이":14339,"▁기둥":14340,"▁'진":14341,"▁1945년":14342,"레의":14343,"린을":14344,"▁브렉시":14345,"▁몰라":14346,"▁본사":14347,"▁수업을":14348,"▁생각하지":14349,"▁공부를":14350,"▁리드":14351,"▁줄이":14352,"▁이집트":14353,"▁발로":14354,"▁학생들을":14355,"▁캡처":14356,"▁되지만":14357,"▁끝이":14358,"▁하여금":14359,"계획을":14360,"▁취급을":14361,"고용":14362,"재산":14363,"▁꼽히는":14364,"▁대접":14365,"▁줘":14366,"▁때와":14367,"▁때보다":14368,"▁엄격":14369,"▁바라보는":14370,"▁\"부":14371,"▁판매하는":14372,"▁품고":14373,"▁실전":14374,"속으로":14375,"모는":14376,"▁박용":14377,"▁조별리그":14378,"▁보강":14379,"▁기록하고":14380,"▁한타":14381,"러의":14382,"즈<|endoftext|>":14383,"▁둘의":14384,"▁오락":14385,"▁초반부터":14386,"▁여기저":14387,"▁니다.<|endoftext|>":14388,"속히":14389,"▁평일":14390,"▁생명을":14391,"공사는":14392,"▁책임이":14393,"▁포위":14394,"통화":14395,"▁생각에":14396,"▁위주의":14397,"법,":14398,"▁찾았다.":14399,"▁먹으면":14400,"종으로":14401,"▁중이던":14402,"▁3분기":14403,"▁신년":14404,"2의":14405,"▁었다.":14406,"▁코믹스":14407,"▁려":14408,"▁행사는":14409,"연,":14410,"자문":14411,"▁자진":14412,"수준":14413,"혹한":14414,"▁염두에":14415,"▁나치":14416,"▁모순":14417,"▁양도":14418,"▁후보자는":14419,"▁자유를":14420,"▁3분의":14421,"야만":14422,"바가":14423,"▁레스토":14424,"세종":14425,"▁노리고":14426,"▁마디":14427,"▁원천":14428,"▁따져":14429,"120":14430,"▁파격":14431,"▁같다고":14432,"▁대의":14433,"▁시작했다.<|endoftext|>":14434,"▁'여":14435,"▁수류":14436,"ult":14437,"▁버리는":14438,"▁지위를":14439,"▁확신":14440,"▁반짝":14441,"▁관측이":14442,"▁상승했다.":14443,"▁채팅":14444,"대회에서":14445,"▁걸친":14446,"▁되돌아":14447,"▁기쁘":14448,"▁안/MAG<|endoftext|>":14449,"row":14450,"▁작전을":14451,"능력이":14452,"▁전까지는":14453,"radius":14454,"▁추후":14455,"▁대행":14456,"▁증상이":14457,"▁백성":14458,"▁대표이":14459,"▁하에":14460,"찬을":14461,"▁얼굴에":14462,"▁검토하고":14463,"▁끝나면":14464,"▁함부로":14465,"▁추방":14466,"되도록":14467,"▁납부":14468,"간이":14469,"▁사흘":14470,"▁세력을":14471,"▁있나":14472,"▁고려하면":14473,"▁상세":14474,"▁않았다\"고":14475,"▁청원":14476,"▁인적":14477,"레를":14478,"▁의혹에":14479,"▁성능은":14480,"▁소음":14481,"▁싶다는":14482,"수요":14483,"▁채무":14484,"▁하나.":14485,"츠는":14486,"-6":14487,"행위를":14488,"▁퍼져":14489,"▁격추":14490,"▁대면":14491,"▁문제도":14492,"▁하늘을":14493,"▁중국,":14494,"▁한·일":14495,"해주고":14496,"차,":14497,"·유":14498,"▁비해서":14499,"2로":14500,"▁주요기사\"":14501,"▁105":14502,"·1":14503,"▁생애":14504,"선수권":14505,"▁여는":14506,"▁사건과":14507,"정원":14508,"훈의":14509,"▁되겠":14510,"▁드루":14511,"▁that":14512,"▁피에":14513,"목적":14514,"▁확립":14515,"▁음료":14516,"▁U+11":14517,"▁성공을":14518,"▁세금을":14519,"토니":14520,"▁비전":14521,"▁최상":14522,"복이":14523,"▁벌여":14524,"등장":14525,"(8":14526,"▁유가":14527,"して":14528,"앤젤":14529,"▁온천":14530,"▁인천공항":14531,"▁SUV":14532,"▁거리에":14533,"▁베테랑":14534,"▁고스란히":14535,"기계":14536,"▁카미":14537,"▁카드는":14538,"▁트라이":14539,"▁읽고":14540,"▁어머니의":14541,"▁나선다.":14542,"▁손꼽":14543,"-radius":14544,"▁석탄":14545,"▁제품은":14546,"▁응시":14547,"▁가지게":14548,"조,":14549,"▁공격으로":14550,"▁>":14551,"기.":14552,"▁91":14553,"▁방식의":14554,"▁쫓겨":14555,"▁가끔씩":14556,"▁밝히고":14557,"니스트":14558,"▁사이드":14559,"토론":14560,"170":14561,"**":14562,"ION":14563,"원들의":14564,"▁국어":14565,"040":14566,"▁무라":14567,"▁마코":14568,"▁2군":14569,"▁농림":14570,"▁바른정당":14571,"시에는":14572,"우러":14573,"▁치명적인":14574,"▁자율주행":14575,"▁기술로":14576,"▁기점으로":14577,"왕을":14578,"▁두는":14579,"▁트리플":14580,"바지":14581,"▁현상을":14582,"▁그러니":14583,"▁경우를":14584,"▁키스":14585,"폭이":14586,"였으며,":14587,"후반":14588,"▁아니라면":14589,"▁심심":14590,"▁중,":14591,"▁출력":14592,"▁정준":14593,"▁기준이":14594,"▁찾아볼":14595,"▁삼성전자는":14596,"▁엘리베이터":14597,"신고":14598,"▁전략적":14599,"▁웨스트":14600,"이었지만,":14601,"현을":14602,"▁아닌,":14603,"▁모델이":14604,"▁고지":14605,"▁오고":14606,"-size:":14607,"▁강아":14608,"▁Mar":14609,"▁비난을":14610,"▁제치고":14611,"▁보도에":14612,"▁저하":14613,"▁필요로":14614,"▁바랍":14615,"▁처분을":14616,"▁동구":14617,"▁필요할":14618,"▁정책이":14619,"▁배급":14620,"}}}":14621,"030":14622,"▁CV":14623,"▁줄일":14624,"▁맞물":14625,"▁2분기":14626,"수입":14627,"▁포토":14628,"▁가중":14629,"자'":14630,"▁모양.":14631,"▁셈.":14632,"▁이뤄지지":14633,"▁기병":14634,"▁100여":14635,"▁준비하고":14636,"▁익스":14637,"▁물품":14638,"▁했으며,":14639,"▁IP":14640,"▁명칭은":14641,"▁KTX":14642,"▁기성":14643,"▁남기":14644,"▁식사를":14645,"▁정동":14646,"▁바위":14647,"퇴근":14648,"#x11":14649,"ient":14650,"▁프로야구":14651,"▁War":14652,"바겐":14653,"▁한정으로":14654,"▁패턴이":14655,"▁수염":14656,"display:":14657,"▁밤에":14658,"uk":14659,"그리":14660,"▁히어로즈":14661,"▁소중":14662,"시타":14663,"▁피하기":14664,"▁선고했다.":14665,"수리":14666,"ress":14667,"▁사쿠라":14668,"▁후속작":14669,"▁나에게":14670,"▁정교":14671,"▁펼치고":14672,"▁추진할":14673,"▁많기":14674,"▁3배":14675,"오,":14676,"달라\"고":14677,"▁상술":14678,"▁찍고":14679,"▁나노":14680,"▁백화점":14681,"바나":14682,"▁원내대표가":14683,"▁미성":14684,"와이":14685,"▁조금만":14686,"▁휴대전화":14687,"▁강등":14688,"▁심해":14689,"▁살던":14690,"▁출루":14691,"▁들어서는":14692,"▁40대":14693,"사리":14694,"▁정도였다.":14695,"나갈":14696,"▁It":14697,"▁김연":14698,"▁리처":14699,"앨범":14700,"▁오마":14701,"▁리우":14702,"재,":14703,"▁선정된":14704,"거야":14705,"모드":14706,"러니":14707,"▁않는다면":14708,"▁\"앞으로":14709,"▁기술은":14710,"OW":14711,"▁Wh":14712,"과학기술":14713,"▁연세대":14714,"▁치매":14715,"강화":14716,"홀에서":14717,"슨이":14718,"▁벽을":14719,"▁밥을":14720,"▁상속":14721,"▁하루에":14722,"▁맞았다.":14723,"보수":14724,"▁않는다\"고":14725,"위원회에서":14726,"▁관계없이":14727,"▁슬롯":14728,"▁회동":14729,"▁크리스탈":14730,"▁관계는":14731,"▁등극":14732,"라!":14733,"▁여자가":14734,"▁신발":14735,"▁사제":14736,"네마":14737,"▁여전":14738,"적으로도":14739,"▁단위로":14740,"▁체중":14741,"▁가족과":14742,"▁마련해":14743,"▁사냥꾼":14744,"▁자회사":14745,"▁1973년":14746,"▁높아지고":14747,"▁일환으로":14748,"▁1등":14749,"▁움직임이":14750,"▁언급이":14751,"▁규정을":14752,"석으로":14753,"▁전과":14754,"▁목적을":14755,"▁자영업":14756,"▁드문":14757,"▁유닛을":14758,"테이션":14759,"▁드래프트":14760,"▁어렸을":14761,"▁남아있는":14762,"오버":14763,"난다.":14764,"▁거주하는":14765,"▁푸틴":14766,"비치":14767,"터로":14768,"스틴":14769,"▁리뷰":14770,"▁포로":14771,"▁동대문":14772,"▁세이버":14773,"▁클릭":14774,"▁맺고":14775,"▁합체":14776,"▁70%":14777,"▁이송":14778,"▁범행을":14779,"니시":14780,"▁주한미":14781,"~12":14782,"▁맞붙":14783,"(한":14784,"지니어":14785,"▁후기":14786,"▁나누어":14787,"분,":14788,"▁쿠데":14789,"도전":14790,"▁인명":14791,"▁비주얼":14792,"▁제시했다.":14793,"▁항소심":14794,"▁'남":14795,"▁입시":14796,"▁바이올":14797,"▁제8":14798,"▁물었다.":14799,"▁토로":14800,"-20":14801,"▁우즈":14802,"▁금융감독":14803,"▁원주":14804,"▁상당의":14805,"▁차로":14806,"▁호수":14807,"▁드라이브":14808,"가서":14809,"right":14810,"▁CNN":14811,"▁청산":14812,"▁효율이":14813,"▁어색":14814,"ier":14815,"▁\"안":14816,"GC":14817,"▁사용한다.<|endoftext|>":14818,"▁자사":14819,"▁FTA":14820,"▁협의를":14821,"곡이":14822,"▁(T":14823,"▁강점":14824,"ted":14825,"▁후술":14826,"00만원을":14827,"▁DF":14828,"▁디스크":14829,"▁제작된":14830,"?/SF<|endoftext|>":14831,"우며":14832,"농단":14833,"삼거리":14834,"▁줄이는":14835,"▁도시의":14836,"▁합법":14837,"▁연락을":14838,"란드의":14839,"▁처음엔":14840,"▁경제의":14841,"▁성추행":14842,"▁너는":14843,"▁타이어":14844,"▁주역":14845,"▁저자는":14846,"()은":14847,"▁박수":14848,"영웅":14849,"▁발견한":14850,"▁전쟁의":14851,"DD":14852,"내에서":14853,"▁왜냐하면":14854,"▁블라디":14855,"▁나오는데":14856,"▁벌어졌다.":14857,"중이다.":14858,"▁선거구":14859,"멘트":14860,"4<|endoftext|>":14861,"편으로":14862,"하곤":14863,"▁문화체육관광":14864,"▁le":14865,"계약을":14866,"▁칼날":14867,"▁팔레":14868,"▁2020":14869,"▁'반":14870,"▁교수의":14871,"▁하나다.":14872,"(고":14873,"카드를":14874,"▁수강":14875,"▁찍는":14876,"▁약점":14877,"▁콜라보":14878,"유닛":14879,"▁저희":14880,"▁와일드":14881,"▁달라진":14882,"▁조현":14883,"▁수사가":14884,"▁논란에":14885,"▁동서":14886,"▁막강":14887,"째로":14888,"▁어택":14889,"▁미치지":14890,"me":14891,"▁가족의":14892,"▁등재":14893,"▁취하고":14894,"▁이끈":14895,"▁진짜로":14896,"▁\"201":14897,"변이":14898,"▁오라":14899,"천의":14900,"7000":14901,"▁카자":14902,"▁border-radius":14903,"야는":14904,"▁소극":14905,"▁유물":14906,"▁사실에":14907,"▁의원들이":14908,"▁성을":14909,"▁상시":14910,"▁부유":14911,"▁증가하고":14912,"청을":14913,"▁Part":14914,"시스트":14915,"▁적용해":14916,"▁만들어낸":14917,"▁인쇄":14918,"▁반전":14919,"▁2001":14920,"▁경쟁이":14921,"AI":14922,"▁탐험":14923,"▁노려":14924,"▁사육":14925,"사들의":14926,"▁죽기":14927,"▁적립":14928,"▁る":14929,"~15":14930,"▁해마다":14931,"▁마키":14932,"▁우리에게":14933,"▁주목된다.":14934,"▁충성":14935,"▁심지어는":14936,"▁width=100%":14937,"▁세번째":14938,"손으로":14939,"▁시노":14940,"▁이르면":14941,"▁매력을":14942,"▁포기하고":14943,"▁관리하는":14944,"▁아이들의":14945,"▁의미하는":14946,"▁옆에서":14947,"▁언젠가":14948,"▁탄탄":14949,"형과":14950,"조와":14951,"▁비틀":14952,"트넘":14953,"▁단백":14954,"▁피어":14955,"▁우리나라의":14956,"oon":14957,"▁Man":14958,"▁김윤":14959,"▁미래의":14960,"▁1의":14961,"▁군은":14962,"▁모으고":14963,"▁남의":14964,"▁촬영한":14965,"▁후회":14966,"▁사임":14967,"채를":14968,"화해":14969,"▁최근에":14970,"▁왕복":14971,"▁필요성을":14972,"▁활동하는":14973,"'이라":14974,"▁시기를":14975,"▁높이고":14976,"▁모스크바":14977,"▁탄압":14978,"▁기록은":14979,"▁손쉽게":14980,"▁숨을":14981,"▁플레이어의":14982,"▁미라":14983,"▁있었다\"고":14984,"▁사용을":14985,"루<|endoftext|>":14986,"VA":14987,"align":14988,"▁어르":14989,"▁지지율":14990,"▁무기가":14991,"▁탐사":14992,"▁친한":14993,"▁통행":14994,"int":14995,"▁필요는":14996,"\"의":14997,"용,":14998,"조한":14999,"소수":15000,"▁공사를":15001,"▁직접적으로":15002,"놓는":15003,"파워":15004,"히트":15005,"▁상황.":15006,"▁규모를":15007,"▁열려":15008,"▁석방":15009,"▁괜히":15010,"▁전원이":15011,"▁종점":15012,"▁밀어붙":15013,"▁봤을":15014,"▁그들":15015,"▁사항을":15016,"▁사각":15017,"▁있었으나,":15018,"▁뜻으로":15019,"▁유산":15020,"▁것입니다.<|endoftext|>":15021,"▁문화예술":15022,"▁블로":15023,"▁정신이":15024,"▁6.":15025,"▁물량":15026,"▁치면":15027,"▁정신적":15028,"▁악의":15029,"▁하라":15030,"▁해보":15031,"▁모로":15032,"▁시험을":15033,"▁요정":15034,"▁이루는":15035,"로써":15036,"▁고집":15037,"▁감독과":15038,"▁역할이":15039,"▁중세":15040,"▁4명":15041,"당신이":15042,"▁DM":15043,"▁가졌":15044,"▁싶다고":15045,"▁1점":15046,"▁3개의":15047,"사장":15048,"▁진행됐다.":15049,"▁레스토랑":15050,"▁백인":15051,"▁죽지":15052,"아르":15053,"째를":15054,"▁내용에":15055,"▁제자":15056,"▁인피":15057,"분은":15058,"▁파르":15059,"▁요구하고":15060,"▁사자":15061,"▁이루고":15062,"▁추구하는":15063,"▁여파로":15064,"▁주무":15065,"▁절감":15066,"▁평화를":15067,"리칸":15068,"▁기반을":15069,"▁마냥":15070,"▁트위터에":15071,"다거나":15072,"▁일산":15073,"▁50대":15074,"▁봉쇄":15075,"▁탱커":15076,"▁요청을":15077,"▁{":15078,"음의":15079,"▁이유도":15080,"▁받았던":15081,"소리를":15082,"▁프랜차이즈":15083,"족이":15084,"가면서":15085,"▁\"불":15086,"▁from":15087,"▁덤으로":15088,"▁붙인":15089,"총을":15090,"▁“이":15091,"N+":15092,"▁자부":15093,"▁플래그":15094,"▁히로인":15095,"▁DS":15096,"총장":15097,"▁112":15098,"▁유승민":15099,"▁신부":15100,"▁토크":15101,"바르":15102,"베리":15103,"▁인가":15104,"▁네임":15105,"주의자":15106,"▁내걸":15107,"▁악몽":15108,"▁난다.":15109,"드린":15110,"▁미뤄":15111,"▁난입":15112,"▁편하게":15113,"▁미국으로":15114,"▁시킨":15115,"▁불과하다.":15116,"▁코난":15117,"▁논문":15118,"▁길에":15119,"▁'다":15120,"▁남해":15121,"(V":15122,"과정에서":15123,"▁어이":15124,"▁어울리는":15125,"▁아사히":15126,"▁선호하는":15127,"orn":15128,"▁일정한":15129,"에스":15130,"작품":15131,"▁보행":15132,"경과":15133,"▁대인":15134,"▁젊은이":15135,"▁지원한다.":15136,"▁모르게":15137,"▁슬라이":15138,"리기도":15139,"▁공격은":15140,"해준다.":15141,"▁제휴":15142,"▁World":15143,"참모":15144,"▁3.5":15145,"▁교육과":15146,"▁자리가":15147,"펙트":15148,"▁최상위":15149,"면은":15150,"▁의학":15151,"▁삼국지":15152,"▁토벌":15153,"▁보여줄":15154,"▁(R":15155,"▁제기한":15156,"형에":15157,"ron":15158,"▁생각해보면":15159,"▁내부의":15160,"\"이":15161,"▁삼성은":15162,"▁튼튼":15163,"▁50여":15164,"▁이광":15165,"▁잠정":15166,"▁흡혈":15167,"AE":15168,"▁도대체":15169,"으려면":15170,"▁격리":15171,"▁'원":15172,"▁'주":15173,"▁상식":15174,"▁이벤트가":15175,"▁SF":15176,"▁0.7":15177,"호<|endoftext|>":15178,"찰을":15179,"보안":15180,"음으로":15181,"▁화산":15182,"노는":15183,"~199":15184,"▁CPU":15185,"▁무더":15186,"▁끼고":15187,"▁건축물":15188,"동원":15189,"▁상태였다.":15190,"▁하이브리":15191,"테이너":15192,"▁재학":15193,"▁-5":15194,"▁관계에":15195,"▁사정이":15196,"▁전반에":15197,"▁마루":15198,"▁명절":15199,"들에게도":15200,"·공":15201,"(신":15202,"▁안정적으로":15203,"네<|endoftext|>":15204,"▁80%":15205,"▁극우":15206,"▁플랜":15207,"나간":15208,"네.":15209,"▁이외에":15210,"▁우유":15211,"▁(L":15212,"▁지경":15213,"-<|endoftext|>":15214,"▁여부에":15215,"▁1978년":15216,"▁전반적인":15217,"▁남동":15218,"방해":15219,"▁선수들을":15220,"▁기술의":15221,"▁고용노동":15222,"금과":15223,"심에":15224,"▁사과를":15225,"▁도움으로":15226,"0099":15227,"▁인테":15228,"▁판문점":15229,"세서":15230,"값을":15231,"▁흐르는":15232,"▁분이":15233,"▁김창":15234,"▁상대방":15235,"▁편이라":15236,"블록":15237,"농업":15238,"▁당원":15239,"▁대상은":15240,"길에":15241,"▁상자":15242,"▁하나만":15243,"▁넣을":15244,"▁뿐,":15245,"▁참여를":15246,"▁더욱이":15247,"족을":15248,"ational":15249,"-00023":15250,"▁벽에":15251,"▁세무":15252,"▁시라":15253,"▁명목으로":15254,"▁캐리":15255,"▁WWE":15256,"▁공격력을":15257,"▁통틀":15258,"펀드":15259,"형사":15260,"진한":15261,"▁인문":15262,"씨,":15263,"Z02":15264,"▁군대를":15265,"▁스토리를":15266,"▁꼽았다.":15267,"▁데다가":15268,"▁버튼을":15269,"희롱":15270,"▁한계를":15271,"도어":15272,"ail":15273,"작업":15274,"▁건지":15275,"▁민원":15276,"▁평가는":15277,"▁설정을":15278,"이었는데,":15279,"irl":15280,"▁산불":15281,"▁직면":15282,"▁style=\"display:":15283,"▁밖에서":15284,"소프트":15285,"▁선수의":15286,"신,":15287,"▁쏘아":15288,"▁지주":15289,"▁\"올해":15290,"▁인격":15291,"게이트":15292,"▁허리":15293,"▁집이":15294,"었다가":15295,"(9":15296,"▁예정이라고":15297,"▁350":15298,"권에서는":15299,"▁달했다.":15300,"▁실정":15301,"▁font-size:":15302,"▁제1차":15303,"러는":15304,"▁압축":15305,"간을":15306,"▁대여":15307,"▁산책":15308,"▁한방":15309,"▁용이":15310,"▁것/NNB<|endoftext|>":15311,"먹은":15312,"▁'1":15313,"▁오세":15314,"▁삼성물":15315,"▁호평":15316,"▁\"원":15317,"주의적":15318,"▁대회를":15319,"▁조카":15320,"▁브레이크":15321,"▁관악":15322,"나이트":15323,"▁압도적으로":15324,"로마":15325,"▁것”이라고":15326,"▁시절에는":15327,"▁손이":15328,"▁border-radius:":15329,"▁올라가는":15330,"된다면":15331,"-14":15332,"▁360":15333,"▁차량은":15334,"▁타쿠":15335,"▁시너":15336,"▁수치가":15337,"▁앤드":15338,"▁퀘스트를":15339,"()으로":15340,"▁요원":15341,"▁선보인다.":15342,"행동":15343,"▁사물":15344,"되었지만":15345,"돈을":15346,"▁대수":15347,"▁무기는":15348,"▁예수":15349,"오스":15350,"▁귀가":15351,"▁돌이":15352,"▁우리를":15353,"▁당할":15354,"▁#FF":15355,"내야":15356,"▁쿠바":15357,"▁들지":15358,"▁추가되었다.":15359,"▁편에":15360,"▁관점에서":15361,"(대":15362,"페르":15363,"▁캐릭터.":15364,"능한":15365,"▁공방":15366,"락이":15367,"일으":15368,"저를":15369,"글라":15370,"▁발견됐다.":15371,"▁2개의":15372,"▁체류":15373,"▁인정하고":15374,"이었을":15375,"베이스":15376,"▁다큐멘":15377,"매가":15378,"▁대학의":15379,"▁적합한":15380,"▁초콜릿":15381,"▁인구는":15382,"▁역사의":15383,"다\"면서도":15384,"메리카":15385,"▁공허":15386,"▁상가":15387,"피가":15388,"▁국민을":15389,"겼다.<|endoftext|>":15390,"들목":15391,"▁의장은":15392,"하나,":15393,"교류":15394,"▁BBC":15395,"클리":15396,"▁요리를":15397,"▁부추":15398,"▁정부에서":15399,"▁구체적":15400,"▁보여준다.<|endoftext|>":15401,"하되":15402,"▁\"마":15403,"▁비행기":15404,"▁2위를":15405,"▁심각하게":15406,"▁엘리자":15407,"영화제":15408,"발표":15409,"▁적정":15410,"▁손해배상":15411,"▁던지는":15412,"▁특수한":15413,"▁뽑는":15414,"__04/NNG<|endoftext|>":15415,"▁고장":15416,"시대의":15417,"▁중국어":15418,"%포인트":15419,"▁알려지지":15420,"▁대우조선":15421,"상<|endoftext|>":15422,"▁관절":15423,"▁많다는":15424,"▁도시를":15425,"▁밀집":15426,"▁제한이":15427,"당국은":15428,"▁두들":15429,"오염":15430,"원)":15431,"▁암호":15432,"투쟁":15433,"▁지휘관":15434,"▁참으로":15435,"▁따온":15436,"▁장관의":15437,"▁불만":15438,"▁구슬":15439,"▁멤버들은":15440,"방지":15441,"▁이득을":15442,"▁감정이":15443,"▁수월":15444,"▁높이기":15445,"▁주체":15446,"▁페미니":15447,"▁유료":15448,"▁불만이":15449,"▁마음대로":15450,"▁\"현":15451,"티의":15452,"▁어필":15453,"▁의문을":15454,"▁교차":15455,"▁회장을":15456,"▁확보한":15457,"▁예언":15458,"▁연구개발":15459,"▁잠을":15460,"▁저택":15461,"▁무력화":15462,"▁영주":15463,"▁노선이":15464,"▁아니기":15465,"타마":15466,"▁사령관":15467,"▁없지":15468,"▁강하다.":15469,"/2":15470,"면서,":15471,"▁발령":15472,"시키며":15473,"▁검을":15474,"▁테라":15475,"▁놀란":15476,"▁답변을":15477,"글로벌":15478,"▁광고를":15479,"board.":15480,"▁Ver":15481,"▁윤석":15482,"중의":15483,"▁안성":15484,"(12":15485,"포트":15486,"▁소문":15487,"▁분해":15488,"▁백제":15489,"▁물가":15490,"▁공성":15491,"▁생긴다.":15492,"▁애매한":15493,"마일":15494,"▁눈으로":15495,"▁아나운서":15496,"▁스리":15497,"하셨":15498,"▁위력을":15499,"y)":15500,"▁사우스":15501,"▁하도":15502,"▁서대문":15503,"▁우위를":15504,"시장은":15505,"전<|endoftext|>":15506,"▁너희":15507,"▁불편한":15508,"▁내다봤다.":15509,"훈,":15510,"▁자위":15511,"▁늘어나고":15512,"▁직장인":15513,"▁전교":15514,"▁가져다":15515,"▁''":15516,"바야":15517,"▁오기":15518,"▁말과":15519,"▁연결하는":15520,"▁실린":15521,"겠다며":15522,"▁않았기":15523,"만달러":15524,"▁마무":15525,"▁기업을":15526,"net":15527,"▁4인":15528,"▁실점":15529,"▁김원":15530,"▁하나이다.":15531,"▁선언했다.":15532,"▁코르":15533,"십자":15534,"▁주의해야":15535,"신도":15536,"board.namu.wiki/":15537,"▁시작됐다.":15538,"아무":15539,"▁지분을":15540,"사이드":15541,"▁9회":15542,"▁전투에":15543,"▁→<|endoftext|>":15544,"▁받기도":15545,"▁좌익":15546,"▁상을":15547,"전설":15548,"슨의":15549,"▁퇴장":15550,"▁터트":15551,"▁지난주":15552,"▁황교안":15553,"스도":15554,"▁심상":15555,"▁프란시스코":15556,"▁국무총":15557,"▁약물":15558,"▁간섭":15559,"▁떨어진다.":15560,"들에겐":15561,"▁건물이":15562,"결승":15563,"토,":15564,"▁있을까":15565,"교가":15566,"▁세우고":15567,"가능한":15568,"▁모욕":15569,"티는":15570,"▁프렌":15571,"머가":15572,"▁총선에서":15573,"▁현대자동차":15574,"▁기점":15575,"▁선수들은":15576,"▁그렇다면":15577,"▁떠나는":15578,"▁질의":15579,"▁환율":15580,"체육관에서":15581,"▁\"트럼프":15582,"▁동점":15583,"▁낙하":15584,"보도":15585,"▁로빈":15586,"▁9,":15587,"▁적게":15588,"▁처벌을":15589,"▁For":15590,"코올":15591,"▁9개":15592,"▁방식은":15593,"▁주니어":15594,"▁떠났":15595,"!)<|endoftext|>":15596,"초,":15597,"▁배당":15598,"하/XS":15599,"▁다른/MM<|endoftext|>":15600,"▁수수료":15601,"▁박찬":15602,"▁2TV":15603,"▁KBO리그":15604,"청구":15605,"증으로":15606,"링크":15607,"여름":15608,"▁멘탈":15609,"▁원인은":15610,"▁와중":15611,"▁입대":15612,"▁드러낸":15613,":10":15614,"▁상대는":15615,"기에,":15616,"▁마련한":15617,"밀하게":15618,"▁과거에는":15619,"▁지켜보":15620,"▁부회장은":15621,"▁원더":15622,"▁인식을":15623,"ons":15624,"▁도요":15625,"(김":15626,"점검":15627,"▁되게":15628,"▁살아가는":15629,"상가":15630,"주의의":15631,"▁북한과":15632,"치아":15633,"▁무리가":15634,"저런":15635,"너의":15636,"▁사람으로":15637,"▁En":15638,"스)":15639,"커녕":15640,"영과":15641,"▁목적이":15642,"키와":15643,"▁돌아갈":15644,"었습니다.":15645,"제일":15646,"DS":15647,"▁떠났다.":15648,"▁소속의":15649,"▁침투":15650,"별한":15651,"▁편의점":15652,"▁요구에":15653,"▁실수를":15654,"▁완결":15655,"▁오케":15656,"▁사무실":15657,"▁챔피언스리그":15658,"▁사회가":15659,"▁경부":15660,"▁일으키는":15661,"▁ま":15662,"▁시점에":15663,"▁모토":15664,"▁1974년":15665,"▁ES":15666,"▁연구소":15667,"▁상당수":15668,"▁방을":15669,"유산":15670,"데라":15671,"▁항복":15672,"▁방송에":15673,"시키지":15674,"▁아닐까":15675,"▁your":15676,"-18":15677,"▁너머":15678,"▁이끌었다.":15679,"▁시리즈를":15680,"▁협동":15681,"서부":15682,"▁비공개":15683,"▁겹쳐":15684,"▁엔진을":15685,"▁일행이":15686,"▁시대가":15687,"▁5번":15688,"공헌":15689,"▁공헌":15690,"▁전설의":15691,"▁공론":15692,"▁세웠":15693,"▁종결":15694,"(·":15695,"▁아래의":15696,"▁3세":15697,"▁시청자":15698,"▁공립":15699,"▁사도":15700,"▁두/MM<|endoftext|>":15701,"▁면적":15702,"▁박병":15703,"▁동원해":15704,"▁위험을":15705,"▁전투가":15706,"사태":15707,"버렸다.<|endoftext|>":15708,"▁때만":15709,"▁DNA":15710,"▁60%":15711,"▁히카":15712,"▁DVD":15713,"▁분들이":15714,"▁공업":15715,"▁inline;":15716,"▁1972년":15717,"▁인정하는":15718,"▁바람을":15719,"▁스타트업":15720,"▁비웃":15721,"▁문장":15722,"▁일일이":15723,"▁쳐다":15724,"▁발레":15725,"▁결정에":15726,"em\"<|endoftext|>":15727,"내려":15728,"분한":15729,"변화":15730,"▁누나":15731,"▁덕분":15732,"▁전두":15733,"▁마린":15734,"▁김형":15735,"만화":15736,"판과":15737,"적이지":15738,"초에":15739,"통상자원":15740,"(가":15741,"어지는":15742,"▁프로모":15743,"대회를":15744,"▁Ph":15745,"▁출연했다.":15746,"▁정진":15747,"▁선발로":15748,"▁3.3":15749,"▁Ne":15750,"▁의사가":15751,"▁더군":15752,"▁김유":15753,"()로":15754,"행복":15755,"녀가":15756,"타<|endoftext|>":15757,"우라":15758,"▁없었고,":15759,"코어":15760,"시간)":15761,"리한":15762,"▁안경":15763,"▁제안했다.":15764,"-P":15765,"▁실험을":15766,"▁반응은":15767,"저럭":15768,"령은":15769,"▁1975년":15770,"▁흔한":15771,"▁주장한":15772,"▁우라":15773,"▁125":15774,"▁독서":15775,"▁증가하는":15776,"▁버렸다.":15777,"▁이런/MM<|endoftext|>":15778,"▁새가":15779,"▁시흥":15780,"▁센트":15781,"▁도와주":15782,"성우":15783,"▁루카":15784,"▁분노를":15785,"▁안전하게":15786,"▁반환":15787,"▁가격에":15788,"▁\"그런":15789,"퍼드":15790,"▁최연":15791,"▁어나":15792,"부처":15793,"▁차이로":15794,"▁비판하는":15795,"술사":15796,"▁부르며":15797,"▁애국":15798,"▁나오기도":15799,"▁맺은":15800,"▁규제를":15801,"▁위력":15802,"▁곡은":15803,"즈마":15804,"통의":15805,"▁1위에":15806,"▁기업은":15807,"▁김희":15808,"▁알겠지만":15809,"▁작성한":15810,"▁6CT_000":15811,"럭저럭":15812,"소나":15813,"▁넘어가는":15814,"▁입문":15815,"▁인물분류:":15816,"▁고래":15817,"▁미소를":15818,"기술을":15819,"있을":15820,"▁약을":15821,"▁살해한":15822,"▁다시/MAG<|endoftext|>":15823,"▁즐거운":15824,"직자":15825,"▁추첨":15826,"▁회사에":15827,"▁예쁘":15828,"▁광범위":15829,"량에":15830,"▁친일":15831,"▁순수한":15832,"▁바이러스":15833,"시장에":15834,"▁분포":15835,"▁단어를":15836,"’이":15837,"▁활성화를":15838,"속의":15839,"▁모양이다.":15840,"▁입장에선":15841,"▁불러일으":15842,"▁BTHO0100":15843,"▁BSHO0100":15844,"▁곳곳에서":15845,"▁자세를":15846,"▁언론이":15847,"-7":15848,"▁시간의":15849,"▁강화하는":15850,"▁모델은":15851,"▁선거에":15852,"지역의":15853,"▁운영에":15854,"(주":15855,"가기":15856,"▁포스트시즌":15857,"▁주면":15858,"네트워크":15859,"▁되어야":15860,"▁스을":15861,"▁빼면":15862,"▁입구":15863,"▁주식을":15864,"▁거북":15865,"▁'안":15866,"▁규탄":15867,"▁피해자가":15868,"▁지루":15869,"▁거지":15870,"▁책정":15871,"che":15872,"▁보스턴":15873,"▁2승":15874,"만원에":15875,"▁이럴":15876,"▁탱크":15877,"▁\"성":15878,"이었으나,":15879,"▁에디":15880,"▁주장은":15881,"▁제품의":15882,"국어":15883,"▁않겠다는":15884,"▁이동통신":15885,"▁카오스":15886,"라디오":15887,"▁유저들은":15888,"から":15889,"▁충청남도":15890,"▁민생":15891,"▁엽":15892,"▁고등학생":15893,"▁GDP":15894,"▁오타":15895,"▁BSAA0163":15896,"▁BTAA0163":15897,"▁일고":15898,"▁1년간":15899,"▁단말":15900,"그레":15901,"병은":15902,"▁해결하기":15903,"▁하나하나":15904,"9)":15905,"▁\"진":15906,"▁\"세":15907,"▁양이":15908,"사)":15909,"▁포괄":15910,"margin":15911,"▁토리":15912,"▁내기":15913,"900":15914,"▁초고":15915,".S":15916,"▁카드로":15917,"▁졸업식":15918,"▁기증":15919,"▁고려대":15920,"▁준비가":15921,"▁김무성":15922,"▁안겨":15923,"▁빌런":15924,"▁지워":15925,"▁제9":15926,"▁교차로":15927,"▁아버지와":15928,"▁6만":15929,"▁전통적인":15930,"▁대마":15931,"▁정상적으로":15932,"▁친척":15933,"ーー":15934,"▁소드":15935,"▁거점":15936,"▁가능하게":15937,"▁손해를":15938,"▁급식":15939,"훈련을":15940,"▁미소":15941,"▁OS":15942,"-13":15943,"▁경악":15944,"▁각자의":15945,"▁물러나":15946,"▁에버":15947,"▁포격":15948,"▁구조조정":15949,"▁싶다면":15950,"서비스를":15951,"례가":15952,"▁CS":15953,"▁선물을":15954,"(유":15955,"지휘":15956,"▁나츠":15957,"▁추미애":15958,"▁(H":15959,"플라이":15960,"▁있거나":15961,"결혼":15962,"▁차량의":15963,"▁재산을":15964,"▁'선":15965,"▁세계관":15966,"▁용어":15967,"▁연예인":15968,"▁거라":15969,"겨울":15970,"▁기생":15971,"▁쳐서":15972,"연합회":15973,"즈에":15974,"▁와인":15975,"▁시카고":15976,"▁'S":15977,"▁생년":15978,"’,":15979,"▁작업이":15980,"규제":15981,"▁관람객":15982,"▁덴마크":15983,"▁경험치":15984,"이라고도":15985,"▁기업인":15986,"이팅":15987,"▁중.":15988,"수엘":15989,"▁문제다.":15990,"▁약탈":15991,"’가":15992,"▁재미있는":15993,"결에":15994,"F0265":15995,"념을":15996,"▁부르고":15997,"▁검정":15998,"▁규정하고":15999,"▁엘리자베":16000,"환,":16001,"드림":16002,"▁\"상":16003,"심과":16004,"더가":16005,"▁극중":16006,"▁'조":16007,"▁강렬한":16008,"▁발생한다.":16009,"연합뉴스":16010,"▁그럭저럭":16011,"▁상대에게":16012,"▁화폐":16013,"합이":16014,"▁예전에":16015,"▁하자.":16016,"▁다해":16017,"▁평균자책":16018,"동계":16019,"▁아이들은":16020,"▁일제히":16021,"전공":16022,"▁엘프":16023,"we":16024,"▁국제사회":16025,"▁플러":16026,"▁연맹":16027,"주에서":16028,"피는":16029,"▁언급된":16030,"하고는":16031,"▁여권":16032,"▁버거":16033,"전부터":16034,"▁오디션":16035,"▁할리우":16036,"전도":16037,"▁1960년":16038,"▁기대한다\"고":16039,"▁강정":16040,"▁재해":16041,"▁날리는":16042,"봉을":16043,"▁최소한의":16044,"▁줄곧":16045,"▁말았다.<|endoftext|>":16046,"▁생생":16047,"▁취한":16048,"철은":16049,"▁박탈":16050,"열에":16051,"▁불사":16052,"▁노스":16053,"▁박사는":16054,"▁전지":16055,"▁홍성":16056,"졌기":16057,"▁반박했다.":16058,"서에서":16059,"▁자아냈다.":16060,"▁타마":16061,"▁비춰":16062,"r.":16063,"▁고의":16064,"▁받아서":16065,"▁없었다고":16066,"/SL<|endoftext|>":16067,"블랙":16068,"▁학생들에게":16069,"▁대법관":16070,"▁취지":16071,"▁표지":16072,"▁길고":16073,"▁된다":16074,"▁주인이":16075,"스와의":16076,"철의":16077,"▁트라우":16078,"롭고":16079,"버린다.<|endoftext|>":16080,"▁법원은":16081,"▁부모가":16082,"어촌":16083,"▁무슬":16084,"▁3가지":16085,"▁타당":16086,"▁3분":16087,"▁들어왔":16088,"▁조치가":16089,"▁면모를":16090,"9000":16091,"▁하려":16092,"▁2단계":16093,"▁배터":16094,"▁지정된":16095,"리터":16096,"▁바뀌는":16097,"▁집중적으로":16098,"▁일시적으로":16099,"▁매출이":16100,"살인":16101,"대<|endoftext|>":16102,"▁사업의":16103,"▁복제":16104,"▁프로그램이":16105,"▁방식이다.":16106,"너가":16107,"▁조사하고":16108,"▁이창":16109,"▁마련된":16110,"▁문제점을":16111,"▁배트맨":16112,"곡으로":16113,"▁동경":16114,"▁변화에":16115,"▁시로":16116,"▁소상공":16117,"▁결과로":16118,"▁남지":16119,"만원의":16120,"함의":16121,"▁일본,":16122,"▁함선":16123,"▁모노":16124,"▁고스트":16125,"▁아니지만,":16126,"▁묘사가":16127,"▁차례로":16128,"▁마틴":16129,"▁미즈":16130,"유치원":16131,"인구":16132,"▁주인공인":16133,"▁입에":16134,"부지":16135,"▁기적":16136,"▁살아있는":16137,"▁재미를":16138,"구적으로":16139,"▁한류":16140,"▁서울대학교":16141,"▁대표로":16142,"▁데이트":16143,"▁장전":16144,"광고":16145,"▁것과는":16146,"해야만":16147,"▁한중":16148,"(11":16149,"▁사이로":16150,"▁데드":16151,"▁확진":16152,"더의":16153,"타리":16154,"▁파악하고":16155,"▁원으로":16156,"바이오":16157,"▁질을":16158,"▁모범":16159,"컨대":16160,"▁구간이":16161,"▁아르헨티나":16162,"▁(4":16163,"▁\"중국":16164,"▁구조조":16165,"메시":16166,"▁커녕":16167,"▁라스":16168,"▁늘어났다.":16169,")/":16170,"▁코우":16171,"▁아지":16172,"ade":16173,"병에":16174,"▁내다.":16175,"리스가":16176,"캐릭터":16177,"▁개가":16178,"▁라며":16179,"보복":16180,"▁사야":16181,"시켜야":16182,"▁미사일을":16183,"6<|endoftext|>":16184,"▁스토리가":16185,"m<|endoftext|>":16186,"▁차고":16187,"▁분류:서울":16188,"▁블레이드":16189,"▁더군다나":16190,"00년":16191,"세력":16192,"▁않다\"고":16193,"▁있었으며,":16194,"▁만나고":16195,"▁탈당":16196,"들까지":16197,"▁하락했다.":16198,"▁정권이":16199,"▁인용해":16200,"DI":16201,"▁났다.":16202,"파와":16203,"▁4개월":16204,"▁KCC":16205,"▁MB":16206,"▁올라오":16207,"▁사천":16208,"▁한방에":16209,"▁시,":16210,"▁곳도":16211,"▁준비한":16212,"▁양보":16213,"▁준수한":16214,"훈을":16215,"▁와이번":16216,"▁액티브":16217,"▁테니":16218,"디에":16219,"기보다는":16220,"+?/SF<|endoftext|>":16221,"▁어우러":16222,"▁스테이":16223,"▁사가":16224,"▁판매를":16225,"▁1976년":16226,"▁복용":16227,"▁집어넣":16228,"▁어렵지":16229,"▁동성애":16230,"▁인정하지":16231,"▁귀엽":16232,"▁일본과":16233,"▁터진":16234,"색,":16235,"▁'중":16236,"▁가라앉":16237,"황을":16238,"▁마을을":16239,"들.":16240,"olog":16241,"▁촬영을":16242,"▁추경":16243,"▁실효":16244,"▁권위":16245,"▁활용하는":16246,"▁초기에":16247,"▁185":16248,"▁함유":16249,"enter":16250,"▁Sch":16251,"▁고위급":16252,"▁랑":16253,"▁하/VV+":16254,"라미":16255,"▁한국시리즈":16256,"▁것이며":16257,"▁높을":16258,"장갑":16259,"세)":16260,"▁공존":16261,"▁인생을":16262,"▁참조.":16263,"▁부합":16264,"▁이별":16265,"▁행보를":16266,"▁사이클":16267,"▁요한":16268,"▁아시":16269,"▁성동":16270,"▁있음":16271,"▁없으므로":16272,"▁무엇이":16273,"▁달러를":16274,"바퀴":16275,"O00":16276,"▁고사":16277,"▁국무총리":16278,"▁공용":16279,"현과":16280,"▁1971년":16281,"▁자격을":16282,"▁따르는":16283,"▁플레이어를":16284,"▁착륙":16285,"LA":16286,"▁초상":16287,"버스터미널":16288,"▁멈춰":16289,"▁BSAD01":16290,"▁BTAD01":16291,"▁되어있":16292,"▁헤르":16293,"▁높일":16294,"▁'연":16295,"▁T-":16296,"▁화제를":16297,"▁발언은":16298,"▁길드":16299,"▁'상":16300,"▁국가를":16301,"대응":16302,"▁빅데이터":16303,"예를":16304,"어머니":16305,"▁영화에":16306,"▁좋아서":16307,"▁시속":16308,"MOD":16309,"▁철저하게":16310,"▁교토":16311,"화되어":16312,"▁하우스":16313,"▁중대한":16314,"▁스스로를":16315,"봐도":16316,"▁맥락":16317,"▁운이":16318,"▁유카":16319,"위원장을":16320,"▁자유한국":16321,"ven":16322,"▁평범":16323,"▁시신을":16324,"▁스트레스":16325,"▁패턴을":16326,"피탈":16327,"▁빈곤":16328,"루미":16329,"▁주유":16330,"▁\"1":16331,"꾸로":16332,"▁1명이":16333,"▁알렸다.":16334,"공학과":16335,"▁했기":16336,"밴드":16337,"▁A.":16338,"▁이사장은":16339,"축산":16340,"now":16341,"과에":16342,"원도":16343,"▁김도":16344,"▁싶을":16345,"▁실려":16346,"▁표정으로":16347,"루와":16348,"균관":16349,"way":16350,"리거나":16351,"▁원로":16352,"(16":16353,"전력":16354,"▁조언을":16355,"▁서면":16356,"▁처참":16357,"하라\"고":16358,"ition":16359,"들처럼":16360,"▁역설":16361,"▁화장실":16362,"▁박물관":16363,"▁체제를":16364,"▁승무원":16365,"▁시즌에":16366,"▁(I":16367,"▁말투":16368,"▁늦은":16369,"▁없었고":16370,"▁만화가":16371,"CS":16372,"합니":16373,"▁해변":16374,"▁이대로":16375,"▁악역":16376,"계,":16377,"위)":16378,"콘서":16379,"▁무시무":16380,"▁안된":16381,"▁뜻한다.":16382,"8<|endoftext|>":16383,"▁관건":16384,"▁기믹":16385,"▁소용":16386,"▁로비":16387,"7<|endoftext|>":16388,"▁남편이":16389,"였으며":16390,"▁후보에":16391,"▁히로시마":16392,"▁국민들의":16393,"린다는":16394,"-00035":16395,"잡이":16396,"▁On":16397,"▁전국의":16398,"▁운전자":16399,"▁시민의":16400,"▁데몬":16401,"▁닌자":16402,"▁경찰관":16403,"▁출격":16404,"▁아이디어":16405,"▁장면에서":16406,"-00034":16407,"신한":16408,"▁세계대전":16409,"-B":16410,"▁호기":16411,"▁답을":16412,"▁사진은":16413,"시장을":16414,"▁의류":16415,"▁트래":16416,"블리":16417,"▁나누는":16418,"▁정반":16419,"▁산업통상자원":16420,"▁펀드":16421,"열차":16422,"▁자민":16423,"▁불투":16424,"▁활발한":16425,"▁아이러니":16426,"▁부산광역시":16427,"출산":16428,"uper":16429,"▁아내가":16430,"▁AF":16431,"▁나왔던":16432,"▁극심한":16433,"▁전체에":16434,"레드":16435,"▁만성":16436,"▁현안":16437,"▁오이":16438,"▁장병":16439,"▁마운드":16440,"▁이사장":16441,"▁로스앤젤":16442,"테일":16443,"\"로":16444,"▁20만":16445,"▁때문이었다.":16446,"▁대부분을":16447,"▁모금":16448,"▁야쿠":16449,"▁많은데":16450,"▁점포":16451,"▁접어들":16452,"▁압박을":16453,"▁불이익":16454,"호흡":16455,"전용":16456,"▁최장":16457,"▁테일":16458,"▁취미":16459,"▁성희롱":16460,"▁BTIO01":16461,"▁BSIO01":16462,"구장에서":16463,"▁이니":16464,"기관이":16465,"극장":16466,"▁패배를":16467,"▁2022년":16468,"▁대중교통":16469,"더라.":16470,"▁재차":16471,"▁FM":16472,"▁동계올림픽":16473,"수(":16474,"다던":16475,"전환":16476,"▁쓸데":16477,"▁스트리트":16478,"▁한복":16479,"▁나서고":16480,"탐정":16481,"왕은":16482,"쓰고":16483,"국장":16484,"▁2개월":16485,"▁원칙을":16486,"▁과잉":16487,"듯.":16488,"▁발전에":16489,"▁맡는":16490,"cm,":16491,"▁변환":16492,"▁잘/MAG<|endoftext|>":16493,"▁이런저런":16494,"경기도":16495,"되므로":16496,"▁성범죄":16497,"상도":16498,"▁토르":16499,"▁학교의":16500,"▁쉬워":16501,"▁위촉":16502,"▁신한은행":16503,"▁핑크":16504,"물리":16505,"▁김치":16506,"▁국가정보":16507,"▁행동이":16508,"▁커질":16509,"▁고성능":16510,"심판":16511,"▁4개의":16512,"▁사회에서":16513,"▁호칭":16514,"▁따지면":16515,"▁직선":16516,"▁해가":16517,"▁공격수":16518,"나?":16519,"▁방안도":16520,"▁작품에":16521,"▁생각했다.":16522,"▁저축":16523,"▁주변을":16524,"▁플라이":16525,"▁웃는":16526,"감의":16527,"후가":16528,"4%":16529,"대기":16530,"▁가져온":16531,"▁적중":16532,"산에서":16533,"호한":16534,"bl":16535,"▁업로드":16536,"~18":16537,"▁파손":16538,"▁유닛이":16539,"▁이르기까지":16540,"겠지":16541,"출판":16542,"▁후유":16543,".30":16544,"▁호흡을":16545,"▁움직일":16546,"당하게":16547,"▁엉덩":16548,"▁내주":16549,";&":16550,"▁놀랍":16551,"라고도":16552,"-00039":16553,"속에서":16554,"▁박주":16555,"▁개념을":16556,"▁삼고":16557,"▁VR":16558,"·사":16559,"▁둘을":16560,"▁제공한":16561,"▁사서":16562,"▁\"연":16563,"면허":16564,"▁해골":16565,"▁컴백":16566,"망의":16567,"▁대응을":16568,"▁그려졌다.":16569,"▁All":16570,"▁넘긴":16571,"니아의":16572,"▁근본적인":16573,"자라는":16574,"▁미쿠":16575,"▁보이기도":16576,"▁새겨":16577,"▁근거가":16578,"▁일하고":16579,"▁북구":16580,"억원)":16581,"▁디지몬":16582,"번은":16583,"▁편지":16584,"▁윈도우":16585,"▁소니":16586,"▁4명이":16587,"▁모두에게":16588,"▁D.":16589,"▁쪽에서":16590,"-A":16591,"▁\"피":16592,"▁개봉한":16593,"ey":16594,"▁토트넘":16595,"▁현대중공업":16596,",8":16597,"▁협회":16598,"▁스쿨":16599,"▁자란":16600,"▁유한":16601,"▁민간인":16602,"▁천사":16603,"▁맡았":16604,"▁유저들의":16605,"▁민병":16606,"위험":16607,"▁위헌":16608,"0으로":16609,"▁디자인이":16610,"원들은":16611,"▁프로젝트를":16612,"안군":16613,"les":16614,"▁곤충":16615,"▁플레이가":16616,"▁표절":16617,"르드":16618,"▁아니다\"라고":16619,"▁직권":16620,"▁확인했다.":16621,"▁전,":16622,"▁않자":16623,"▁이노":16624,"정도로":16625,"▁3부":16626,"▁불의":16627,"▁문이":16628,"▁요소를":16629,"저리":16630,"▁날씨":16631,")(":16632,"▁한숨":16633,"▁싸움이":16634,"▁에그":16635,"분양":16636,"▁헨리":16637,"션이":16638,"▁쏘는":16639,"▁시즌2":16640,"▁흡연":16641,"센터,":16642,"▁\"강":16643,"▁든다.":16644,"독일":16645,"▁표정":16646,".:":16647,"▁분담":16648,"▁2분":16649,"아프리카":16650,"▁야권":16651,"▁대학에":16652,"▁좌석":16653,"인력":16654,"-00038":16655,"효율":16656,"인데다":16657,"▁뒤에도":16658,"o<|endoftext|>":16659,"▁해준":16660,"▁추출":16661,"▁반영한":16662,"▁경희":16663,"▁고난":16664,"까봐":16665,"대사관":16666,"▁내용으로":16667,"▁초창기":16668,"▁영상<|endoftext|>":16669,"▁2년간":16670,"m의":16671,"▁부통령":16672,"▁설명이":16673,"▁통일부":16674,"ex":16675,"-09":16676,"▁주장에":16677,"근이":16678,"▁사라지고":16679,"▁불필":16680,"▁서울고":16681,"▁히틀":16682,"▁0.4":16683,"▁폭파":16684,"-08":16685,"▁에반":16686,"▁생년월":16687,"의회":16688,"▁1단계":16689,"▁공동체":16690,"▁오페라":16691,"▁졸업한":16692,"쪽에서":16693,"▁빠졌다.":16694,"▁여부는":16695,"▁개정안":16696,"▁불리한":16697,"▁못해서":16698,"▁우측":16699,"▁배울":16700,"네임":16701,"▁비상대책":16702,"▁얀":16703,"▁표창":16704,"▁일기":16705,"▁영동":16706,"▁쯤":16707,"▁포도":16708,"엔딩":16709,"플로":16710,"▁대신에":16711,"▁(https://board.namu.wiki/":16712,"▁제품이":16713,"▁5차":16714,"층,":16715,"▁시한":16716,"▁표현이":16717,"팀에":16718,"▁2경기":16719,"▁왕국의":16720,"▁플레이어는":16721,"▁드릴":16722,"람회":16723,"▁이도":16724,"▁대미지가":16725,"▁트롤":16726,"▁밀리":16727,"지하":16728,"▁입양":16729,"010":16730,"(17":16731,"▁무단":16732,"▁형편":16733,"▁감소한":16734,"▁내리고":16735,"▁분류:동":16736,"▁페널티":16737,"▁요인":16738,"()과":16739,"▁협상이":16740,"▁한번도":16741,"▁후의":16742,"▁제11":16743,"화장":16744,"▁5명":16745,"▁6000":16746,"ric":16747,"▁내부에":16748,"▁매수":16749,"▁발생해":16750,"▁인물.":16751,"▁시체":16752,"▁앞의":16753,"▁별명이":16754,"▁가능하다는":16755,"▁이하로":16756,"▁잠입":16757,"▁만드":16758,"▁GP":16759,"▁수성":16760,"▁혐의(":16761,"▁\"노":16762,"▁느끼게":16763,"입구":16764,"▁김혜":16765,"시킨다.<|endoftext|>":16766,"느냐는":16767,"▁번개":16768,"▁지구의":16769,"시설이":16770,"cc":16771,"▁오렌":16772,"▁칼리":16773,"연속":16774,"▁모습과":16775,"그룹이":16776,"▁문건":16777,"▁조선의":16778,"!!!":16779,"▁대상에":16780,"▁전향":16781,"울산":16782,"▁1.3":16783,"▁따르":16784,"▁남북정상회담":16785,"-C":16786,"가인":16787,"▁구독":16788,"▁본명":16789,"시도":16790,"▁중첩":16791,"▁의미는":16792,"▁육박":16793,"▁시키는":16794,"▁1.6":16795,"▁그룹의":16796,"▁개업한":16797,"반에":16798,"▁민첩":16799,"▁외교적":16800,"▁스코틀랜드":16801,"▁업체가":16802,"▁명확히":16803,"▁아케이드":16804,"▁부속":16805,"▁쓰게":16806,"▁막혀":16807,"▁오프라인":16808,"▁영어로":16809,"▁작품이다.":16810,"ife":16811,"특수":16812,"▁동일하게":16813,"▁지나친":16814,"▁처한":16815,"▁준비하는":16816,"러를":16817,"MC":16818,"▁이방":16819,"▁졸업생":16820,"▁없습니다.":16821,"▁성명":16822,"▁대회에":16823,"http":16824,"▁있다”고":16825,"▁성향이":16826,"▁확인된":16827,"▁이어갔다.":16828,"▁}}}":16829,"▁미얀":16830,"▁포함돼":16831,"▁강간":16832,"▁착한":16833,"▁아닌데":16834,"▁하면,":16835,"(大)":16836,"▁해명했다.":16837,"▁기다리는":16838,"▁구청장은":16839,"류는":16840,"로<|endoftext|>":16841,"초의":16842,"▁파기":16843,"사(":16844,"받게":16845,"▁박경":16846,"▁문화가":16847,"▁20세기":16848,"종일":16849,"▁받는다.<|endoftext|>":16850,"온을":16851,"PGA":16852,"▁\"실":16853,"경비":16854,"▁그곳에서":16855,"▁구간을":16856,"▁엄마가":16857,"아니":16858,"▁스티브":16859,"▁다가가":16860,"▁정권을":16861,"니케이션":16862,"▁포획":16863,"▁주장한다.":16864,"론에":16865,"▁말했":16866,"▁가령":16867,"이거나":16868,"▁하마":16869,"▁태어났":16870,"으니,":16871,"▁초당":16872,"▁제10":16873,"-00002":16874,"▁높다는":16875,"▁목소리로":16876,"▁아레나":16877,"▁휴게":16878,"▁최종적으로":16879,"▁채취":16880,"리도":16881,"중계":16882,"량도":16883,"▁일렉":16884,"MS":16885,"▁화제":16886,"▁리버풀":16887,"▁잘하는":16888,"블린":16889,"라인을":16890,"▁가능.":16891,"▁죄를":16892,"▁원주민":16893,"네일":16894,"▁서번":16895,"▁테란":16896,"▁특징을":16897,"▁임용":16898,"▁들어가서":16899,"▁아마추어":16900,"레는":16901,"▁부회장":16902,"(U":16903,"sp":16904,"▁치른":16905,"▁적용되는":16906,"▁인건":16907,"▁최경":16908,"▁대표이사":16909,"▁(영구적으로":16910,"▁사면":16911,"▁사이에서는":16912,"▁(영구적으로)":16913,"▁유세":16914,"▁위협을":16915,"▁8CT_0006":16916,"▁퇴근":16917,"▁노골":16918,"▁나오는데,":16919,"우면":16920,"융합":16921,"▁행진":16922,"▁이상인":16923,"▁1950년":16924,"▁것임을":16925,"▁확인해":16926,"▁확대를":16927,"들끼리":16928,"▁깨고":16929,"녀의":16930,"▁엑스트라":16931,"터,":16932,"▁아츠":16933,"__01/MAG<|endoftext|>":16934,"▁메디":16935,"▁길로":16936,"▁10.":16937,"▁국가주":16938,"▁늘리는":16939,"left":16940,"▁내며":16941,"▁'하":16942,"▁SE":16943,"▁어려움이":16944,"▁al":16945,"・・":16946,"▁느려":16947,"후군":16948,"▁결정이":16949,"▁저작권":16950,"프랑스":16951,"▁전용면적":16952,"▁style=\"margin":16953,"▁넘버":16954,"▁패키지":16955,"ox":16956,"▁인턴":16957,"▁카츠":16958,"▁적폐":16959,"▁클랜":16960,"▁주인공을":16961,"▁And":16962,"더를":16963,"▁신분으로":16964,"▁빠르고":16965,"지주":16966,"▁부부가":16967,"▁우정":16968,"층은":16969,"ert":16970,"▁뭐가":16971,"▁장미":16972,"▁학문":16973,"▁일본에서는":16974,"▁사용된다.":16975,"동(":16976,"▁정례":16977,"저축":16978,"▁중학생":16979,"▁만들어서":16980,"▁스즈":16981,"▁뿌려":16982,"▁출제":16983,"▁실적을":16984,"▁마력":16985,"추는":16986,"▁인텔":16987,"▁낙선":16988,"▁향하는":16989,"▁증거를":16990,"감치":16991,"▁눈빛":16992,"네요":16993,"령에":16994,"▁콘텐츠를":16995,"▁동결":16996,"▁보호를":16997,"ivers":16998,"▁AFC":16999,"▁감찰":17000,"초가":17001,"▁조금이라도":17002,"▁2%":17003,"▁다운로드":17004,"▁마법소녀":17005,"주인공":17006,"▁생산하는":17007,"▁프레스":17008,"▁1977년":17009,"▁19대":17010,"▁닌텐":17011,"▁미흡":17012,"▁원인으로":17013,"보조":17014,"▁설비":17015,"예정":17016,"▁짜증":17017,"▁원,":17018,"▁앞당":17019,"▁감탄":17020,"▁\"아직":17021,"▁위법":17022,"▁프리큐어":17023,"▁심사를":17024,"▁거꾸로":17025,"align=":17026,"▁원조":17027,"▁수상자":17028,"▁개념이":17029,"▁건강을":17030,"▁실사":17031,"▁귀신":17032,"▁좀처럼":17033,"▁린지":17034,"▁전경":17035,"▁12개":17036,";&#x11":17037,"▁판사는":17038,"창이":17039,"▁되었다는":17040,"/NNG+이":17041,"▁공산당":17042,"▁(V":17043,"지수는":17044,"▁전장":17045,"▁그러나,":17046,"▁적절히":17047,"▁내어":17048,"▁각오":17049,"▁자료에":17050,"▁'에":17051,"▁겁니다.":17052,"▁판사":17053,"▁것들을":17054,"▁없다며":17055,":20":17056,"▁올라갈":17057,"▁2px":17058,"▁원숭":17059,"구니":17060,"▁불태":17061,"▁기록했다.<|endoftext|>":17062,"연구원은":17063,"시픽":17064,"mp":17065,"▁대결을":17066,"▁사죄":17067,"▁정화":17068,"블릿":17069,"▁곡의":17070,"·3":17071,"▁토너먼트":17072,"▁리는":17073,"▁과거를":17074,"야를":17075,"▁허가를":17076,"너는":17077,"▁학사":17078,"▁진지하게":17079,"▁1집":17080,"▁조직을":17081,"환자":17082,"▁재활용":17083,"▁코스트":17084,"▁맡았던":17085,"▁3천":17086,"▁조상":17087,"▁1969년":17088,"▁서포터":17089,"▁칼로":17090,"▁강조한":17091,"▁마법의":17092,"▁제도가":17093,"+1":17094,"▁과감":17095,"방위":17096,"▁좌파":17097,"검은":17098,"▁재검토":17099,"▁BSAA0165":17100,"▁신상":17101,"▁BTAA0165":17102,"▁변경되었다.":17103,"▁등장인물.":17104,"으라고":17105,"▁분류:영":17106,"▁설치해":17107,"번<|endoftext|>":17108,"▁애플리케이션":17109,"▁계정":17110,"OO":17111,"▁ED":17112,"▁결정한":17113,"▁4<|endoftext|>":17114,"▁(E":17115,"▁당국이":17116,"▁넘쳐":17117,"▁BTHO0397":17118,"▁만만치":17119,"▁텍사스":17120,"해운":17121,"▁했습니다.":17122,"▁전염":17123,"▁꾸며":17124,"▁명은":17125,"▁홈페이지에":17126,"▁background:":17127,"▁요미":17128,"▁봇":17129,"▁사촌":17130,"▁녹아":17131,"▁쳤다.":17132,"안타를":17133,"▁소폭":17134,"▁부끄":17135,"다\",":17136,"▁있다<|endoftext|>":17137,"▁지식을":17138,"▁1호선":17139,"▁유용한":17140,"▁극단적인":17141,"▁강민":17142,"▁PR":17143,"었다\"며":17144,"지방경찰청":17145,"형태":17146,"릴라":17147,"▁신도시":17148,"▁등장해":17149,"▁블러드":17150,"▁더민주":17151,"▁순매":17152,"▁적었다.":17153,"▁악용":17154,"▁Star":17155,"▁혼합":17156,"강점":17157,"▁CC":17158,"화수":17159,"다'라고":17160,"▁어떤/MM<|endoftext|>":17161,"▁FW":17162,"▁날을":17163,"▁1970년대":17164,"▁가로막":17165,"▁재사용":17166,"▁날,":17167,"▁거미":17168,"▁별의":17169,"▁월간":17170,"▁설립한":17171,"▁기다려":17172,"▁리치":17173,"▁벤치":17174,"▁어뢰":17175,"-8":17176,"▁최악":17177,"▁하느":17178,"분과":17179,"▁특급":17180,"시키면":17181,"▁있기도":17182,"▁같다\"며":17183,"▁개혁을":17184,"당한다.":17185,"▁가능하며":17186,"▁르노":17187,"▁내밀":17188,"▁아들인":17189,"▁얻어맞":17190,"▁잃어버":17191,"크리":17192,"▁버스터":17193,"▁포인트를":17194,"▁송도":17195,"상으로는":17196,"▁평타":17197,"입니":17198,"오<|endoftext|>":17199,"일수록":17200,"▁증가,":17201,"▁회고":17202,"성<|endoftext|>":17203,"▁1963년":17204,"▁혼란을":17205,"FM":17206,"▁텍스트":17207,"대신":17208,"▁남성의":17209,"▁멸종":17210,"벤져":17211,"▁그렇다.":17212,"▁맨체스터":17213,"지역에":17214,"/EF+,/SP<|endoftext|>":17215,"▁자신감을":17216,"▁1편":17217,"▁드롭":17218,"▁누워":17219,"▁상점":17220,"공사가":17221,"▁상대방의":17222,"anc":17223,"▁인프":17224,"▁다닐":17225,"▁보상을":17226,"▁꽃을":17227,"▁여기저기":17228,"▁(주)":17229,"나타":17230,"▁정체는":17231,"▁폭이":17232,"▁어디에":17233,"▁정책의":17234,"▁도시철도":17235,"▁하남":17236,"▁style=\"margin:":17237,"기게":17238,"했으면":17239,"▁지지하는":17240,"▁인류의":17241,"▁않았지만,":17242,"청사":17243,
[...]
